#include "large_test.h"

#define MODEL_LENGTH 8272

const unsigned int model_tflite_len = MODEL_LENGTH;


unsigned char model64x64_1[MODEL_LENGTH];

const unsigned char saved[] = {
  0x1c, 0x00, 0x00, 0x00, 0x54, 0x46, 0x4c, 0x33, 0x14, 0x00, 0x20, 0x00,
  0x04, 0x00, 0x08, 0x00, 0x0c, 0x00, 0x10, 0x00, 0x14, 0x00, 0x00, 0x00,
  0x18, 0x00, 0x1c, 0x00, 0x14, 0x00, 0x00, 0x00, 0x03, 0x00, 0x00, 0x00,
  0x18, 0x00, 0x00, 0x00, 0x20, 0x00, 0x00, 0x00, 0x28, 0x01, 0x00, 0x00,
  0x20, 0x00, 0x00, 0x00, 0xd0, 0x00, 0x00, 0x00, 0x4c, 0x00, 0x00, 0x00,
  0x02, 0x00, 0x00, 0x00, 0xcc, 0x03, 0x00, 0x00, 0xd0, 0x01, 0x00, 0x00,
  0x01, 0x00, 0x00, 0x00, 0x2c, 0x01, 0x00, 0x00, 0x0c, 0x00, 0x00, 0x00,
  0xf8, 0x1f, 0x00, 0x00, 0xf4, 0x1f, 0x00, 0x00, 0xb4, 0x1e, 0x00, 0x00,
  0xe8, 0x1d, 0x00, 0x00, 0x98, 0x0d, 0x00, 0x00, 0x48, 0x0b, 0x00, 0x00,
  0x3c, 0x04, 0x00, 0x00, 0xdc, 0x1f, 0x00, 0x00, 0xd8, 0x1f, 0x00, 0x00,
  0xd4, 0x1f, 0x00, 0x00, 0xd0, 0x1f, 0x00, 0x00, 0xb8, 0x00, 0x00, 0x00,
  0x01, 0x00, 0x00, 0x00, 0x10, 0x00, 0x00, 0x00, 0x00, 0x00, 0x0a, 0x00,
  0x10, 0x00, 0x0c, 0x00, 0x08, 0x00, 0x04, 0x00, 0x0a, 0x00, 0x00, 0x00,
  0x0c, 0x00, 0x00, 0x00, 0x1c, 0x00, 0x00, 0x00, 0x20, 0x00, 0x00, 0x00,
  0x0f, 0x00, 0x00, 0x00, 0x73, 0x65, 0x72, 0x76, 0x69, 0x6e, 0x67, 0x5f,
  0x64, 0x65, 0x66, 0x61, 0x75, 0x6c, 0x74, 0x00, 0x01, 0x00, 0x00, 0x00,
  0x14, 0x00, 0x00, 0x00, 0x01, 0x00, 0x00, 0x00, 0x28, 0x00, 0x00, 0x00,
  0x08, 0x00, 0x0c, 0x00, 0x08, 0x00, 0x04, 0x00, 0x08, 0x00, 0x00, 0x00,
  0x09, 0x00, 0x00, 0x00, 0x04, 0x00, 0x00, 0x00, 0x0a, 0x00, 0x00, 0x00,
  0x61, 0x63, 0x74, 0x69, 0x76, 0x61, 0x74, 0x69, 0x6f, 0x6e, 0x00, 0x00,
  0xe6, 0xe1, 0xff, 0xff, 0x04, 0x00, 0x00, 0x00, 0x07, 0x00, 0x00, 0x00,
  0x69, 0x6e, 0x70, 0x75, 0x74, 0x5f, 0x31, 0x00, 0x01, 0x00, 0x00, 0x00,
  0x0c, 0x00, 0x00, 0x00, 0x08, 0x00, 0x0c, 0x00, 0x04, 0x00, 0x08, 0x00,
  0x08, 0x00, 0x00, 0x00, 0x08, 0x00, 0x00, 0x00, 0x0b, 0x00, 0x00, 0x00,
  0x13, 0x00, 0x00, 0x00, 0x6d, 0x69, 0x6e, 0x5f, 0x72, 0x75, 0x6e, 0x74,
  0x69, 0x6d, 0x65, 0x5f, 0x76, 0x65, 0x72, 0x73, 0x69, 0x6f, 0x6e, 0x00,
  0x2e, 0xe2, 0xff, 0xff, 0x04, 0x00, 0x00, 0x00, 0x10, 0x00, 0x00, 0x00,
  0x31, 0x2e, 0x31, 0x34, 0x2e, 0x30, 0x00, 0x00, 0x00, 0x00, 0x00, 0x00,
  0x00, 0x00, 0x00, 0x00, 0x0f, 0x00, 0x00, 0x00, 0x4d, 0x4c, 0x49, 0x52,
  0x20, 0x43, 0x6f, 0x6e, 0x76, 0x65, 0x72, 0x74, 0x65, 0x64, 0x2e, 0x00,
  0x00, 0x00, 0x0e, 0x00, 0x18, 0x00, 0x04, 0x00, 0x08, 0x00, 0x0c, 0x00,
  0x10, 0x00, 0x14, 0x00, 0x0e, 0x00, 0x00, 0x00, 0x14, 0x00, 0x00, 0x00,
  0x3c, 0x00, 0x00, 0x00, 0x40, 0x00, 0x00, 0x00, 0x44, 0x00, 0x00, 0x00,
  0x54, 0x00, 0x00, 0x00, 0x0a, 0x00, 0x00, 0x00, 0x60, 0x1e, 0x00, 0x00,
  0x14, 0x1e, 0x00, 0x00, 0x38, 0x1d, 0x00, 0x00, 0x68, 0x1c, 0x00, 0x00,
  0x18, 0x0c, 0x00, 0x00, 0x8c, 0x09, 0x00, 0x00, 0x70, 0x02, 0x00, 0x00,
  0x8c, 0x01, 0x00, 0x00, 0xf4, 0x00, 0x00, 0x00, 0x6c, 0x00, 0x00, 0x00,
  0x01, 0x00, 0x00, 0x00, 0x00, 0x00, 0x00, 0x00, 0x01, 0x00, 0x00, 0x00,
  0x09, 0x00, 0x00, 0x00, 0x04, 0x00, 0x00, 0x00, 0xf4, 0x01, 0x00, 0x00,
  0x34, 0x01, 0x00, 0x00, 0xa0, 0x00, 0x00, 0x00, 0x18, 0x00, 0x00, 0x00,
  0x04, 0x00, 0x00, 0x00, 0x6d, 0x61, 0x69, 0x6e, 0x00, 0x00, 0x0a, 0x00,
  0x10, 0x00, 0x04, 0x00, 0x08, 0x00, 0x0c, 0x00, 0x0a, 0x00, 0x00, 0x00,
  0x01, 0x00, 0x00, 0x00, 0x10, 0x00, 0x00, 0x00, 0x04, 0x00, 0x00, 0x00,
  0x01, 0x00, 0x00, 0x00, 0x09, 0x00, 0x00, 0x00, 0x01, 0x00, 0x00, 0x00,
  0x08, 0x00, 0x00, 0x00, 0x14, 0xfe, 0xff, 0xff, 0x1c, 0x00, 0x00, 0x00,
  0x00, 0x00, 0x00, 0x1c, 0x01, 0x00, 0x00, 0x00, 0x44, 0xe2, 0xff, 0xff,
  0x14, 0x00, 0x00, 0x00, 0x0a, 0x00, 0x00, 0x00, 0x18, 0x00, 0x00, 0x00,
  0x40, 0x00, 0x00, 0x00, 0x30, 0x00, 0x00, 0x00, 0x02, 0x00, 0x00, 0x00,
  0x01, 0x00, 0x00, 0x00, 0x04, 0x00, 0x00, 0x00, 0x19, 0x00, 0x00, 0x00,
  0x53, 0x74, 0x61, 0x74, 0x65, 0x66, 0x75, 0x6c, 0x50, 0x61, 0x72, 0x74,
  0x69, 0x74, 0x69, 0x6f, 0x6e, 0x65, 0x64, 0x43, 0x61, 0x6c, 0x6c, 0x3a,
  0x30, 0x00, 0x00, 0x00, 0x02, 0x00, 0x00, 0x00, 0xff, 0xff, 0xff, 0xff,
  0x04, 0x00, 0x00, 0x00, 0x2c, 0xe2, 0xff, 0xff, 0x7e, 0xff, 0xff, 0xff,
  0x00, 0x00, 0x00, 0x08, 0x18, 0x00, 0x00, 0x00, 0x0c, 0x00, 0x00, 0x00,
  0x04, 0x00, 0x00, 0x00, 0x44, 0xe2, 0xff, 0xff, 0x01, 0x00, 0x00, 0x00,
  0x08, 0x00, 0x00, 0x00, 0x03, 0x00, 0x00, 0x00, 0x07, 0x00, 0x00, 0x00,
  0x04, 0x00, 0x00, 0x00, 0xff, 0xff, 0xff, 0xff, 0xc8, 0xe2, 0xff, 0xff,
  0x14, 0x00, 0x00, 0x00, 0x09, 0x00, 0x00, 0x00, 0x18, 0x00, 0x00, 0x00,
  0x3c, 0x00, 0x00, 0x00, 0x2c, 0x00, 0x00, 0x00, 0x02, 0x00, 0x00, 0x00,
  0x01, 0x00, 0x00, 0x00, 0x04, 0x00, 0x00, 0x00, 0x15, 0x00, 0x00, 0x00,
  0x6d, 0x6f, 0x64, 0x65, 0x6c, 0x2f, 0x64, 0x65, 0x6e, 0x73, 0x65, 0x5f,
  0x32, 0x2f, 0x4d, 0x61, 0x74, 0x4d, 0x75, 0x6c, 0x32, 0x00, 0x00, 0x00,
  0x02, 0x00, 0x00, 0x00, 0xff, 0xff, 0xff, 0xff, 0x04, 0x00, 0x00, 0x00,
  0xf4, 0xe3, 0xff, 0xff, 0x00, 0x00, 0x0e, 0x00, 0x14, 0x00, 0x00, 0x00,
  0x08, 0x00, 0x0c, 0x00, 0x07, 0x00, 0x10, 0x00, 0x0e, 0x00, 0x00, 0x00,
  0x00, 0x00, 0x00, 0x08, 0x1c, 0x00, 0x00, 0x00, 0x10, 0x00, 0x00, 0x00,
  0x04, 0x00, 0x00, 0x00, 0x42, 0xff, 0xff, 0xff, 0x00, 0x00, 0x00, 0x01,
  0x01, 0x00, 0x00, 0x00, 0x07, 0x00, 0x00, 0x00, 0x03, 0x00, 0x00, 0x00,
  0x06, 0x00, 0x00, 0x00, 0x03, 0x00, 0x00, 0x00, 0x01, 0x00, 0x00, 0x00,
  0x5c, 0xe3, 0xff, 0xff, 0x14, 0x00, 0x00, 0x00, 0x08, 0x00, 0x00, 0x00,
  0x18, 0x00, 0x00, 0x00, 0x64, 0x00, 0x00, 0x00, 0x54, 0x00, 0x00, 0x00,
  0x02, 0x00, 0x00, 0x00, 0x01, 0x00, 0x00, 0x00, 0x20, 0x00, 0x00, 0x00,
  0x3d, 0x00, 0x00, 0x00, 0x6d, 0x6f, 0x64, 0x65, 0x6c, 0x2f, 0x64, 0x65,
  0x6e, 0x73, 0x65, 0x5f, 0x31, 0x2f, 0x4d, 0x61, 0x74, 0x4d, 0x75, 0x6c,
  0x3b, 0x6d, 0x6f, 0x64, 0x65, 0x6c, 0x2f, 0x64, 0x65, 0x6e, 0x73, 0x65,
  0x5f, 0x31, 0x2f, 0x52, 0x65, 0x6c, 0x75, 0x3b, 0x6d, 0x6f, 0x64, 0x65,
  0x6c, 0x2f, 0x64, 0x65, 0x6e, 0x73, 0x65, 0x5f, 0x31, 0x2f, 0x42, 0x69,
  0x61, 0x73, 0x41, 0x64, 0x64, 0x00, 0x00, 0x00, 0x02, 0x00, 0x00, 0x00,
  0xff, 0xff, 0xff, 0xff, 0x20, 0x00, 0x00, 0x00, 0xb0, 0xe4, 0xff, 0xff,
  0x00, 0x00, 0x0e, 0x00, 0x16, 0x00, 0x00, 0x00, 0x08, 0x00, 0x0c, 0x00,
  0x07, 0x00, 0x10, 0x00, 0x0e, 0x00, 0x00, 0x00, 0x00, 0x00, 0x00, 0x08,
  0x24, 0x00, 0x00, 0x00, 0x18, 0x00, 0x00, 0x00, 0x0c, 0x00, 0x00, 0x00,
  0x00, 0x00, 0x06, 0x00, 0x08, 0x00, 0x07, 0x00, 0x06, 0x00, 0x00, 0x00,
  0x00, 0x00, 0x00, 0x01, 0x01, 0x00, 0x00, 0x00, 0x06, 0x00, 0x00, 0x00,
  0x03, 0x00, 0x00, 0x00, 0x00, 0x00, 0x00, 0x00, 0x05, 0x00, 0x00, 0x00,
  0x02, 0x00, 0x00, 0x00, 0x0c, 0x00, 0x10, 0x00, 0x0b, 0x00, 0x00, 0x00,
  0x0c, 0x00, 0x04, 0x00, 0x0c, 0x00, 0x00, 0x00, 0x09, 0x00, 0x00, 0x00,
  0x00, 0x00, 0x00, 0x09, 0x01, 0x00, 0x00, 0x00, 0x3c, 0xe4, 0xff, 0xff,
  0x14, 0x00, 0x00, 0x00, 0x07, 0x00, 0x00, 0x00, 0x18, 0x00, 0x00, 0x00,
  0x78, 0x00, 0x00, 0x00, 0x68, 0x00, 0x00, 0x00, 0x02, 0x00, 0x00, 0x00,
  0x01, 0x00, 0x00, 0x00, 0x20, 0x00, 0x00, 0x00, 0x53, 0x00, 0x00, 0x00,
  0x6d, 0x6f, 0x64, 0x65, 0x6c, 0x2f, 0x74, 0x66, 0x2e, 0x6d, 0x61, 0x74,
  0x68, 0x2e, 0x6d, 0x75, 0x6c, 0x74, 0x69, 0x70, 0x6c, 0x79, 0x2f, 0x4d,
  0x75, 0x6c, 0x3b, 0x6d, 0x6f, 0x64, 0x65, 0x6c, 0x2f, 0x64, 0x65, 0x6e,
  0x73, 0x65, 0x2f, 0x4d, 0x61, 0x74, 0x4d, 0x75, 0x6c, 0x3b, 0x6d, 0x6f,
  0x64, 0x65, 0x6c, 0x2f, 0x64, 0x65, 0x6e, 0x73, 0x65, 0x2f, 0x52, 0x65,
  0x6c, 0x75, 0x3b, 0x6d, 0x6f, 0x64, 0x65, 0x6c, 0x2f, 0x64, 0x65, 0x6e,
  0x73, 0x65, 0x2f, 0x42, 0x69, 0x61, 0x73, 0x41, 0x64, 0x64, 0x31, 0x00,
  0x02, 0x00, 0x00, 0x00, 0xff, 0xff, 0xff, 0xff, 0x20, 0x00, 0x00, 0x00,
  0x5c, 0xe4, 0xff, 0xff, 0x9e, 0xe5, 0xff, 0xff, 0x04, 0x00, 0x00, 0x00,
  0x80, 0x06, 0x00, 0x00, 0x75, 0x35, 0xd9, 0x38, 0xe0, 0xf7, 0x04, 0x3b,
  0x12, 0x30, 0x74, 0x3a, 0x0b, 0xb5, 0x1e, 0xba, 0x53, 0x1c, 0x14, 0xbb,
  0x5b, 0x30, 0xad, 0x37, 0xf0, 0x54, 0x0e, 0xbc, 0xc3, 0xe5, 0x79, 0x3d,
  0x8b, 0xe3, 0xef, 0x3a, 0x32, 0x95, 0x46, 0xbd, 0x17, 0x15, 0x92, 0xbb,
  0xd3, 0x2f, 0x94, 0xbd, 0x3d, 0x14, 0x73, 0x3d, 0x46, 0x18, 0xbd, 0xba,
  0x6a, 0xf9, 0xab, 0xba, 0x09, 0x24, 0x3d, 0x3a, 0x1b, 0x3e, 0x79, 0x3a,
  0xb0, 0x33, 0xeb, 0xbb, 0xfa, 0x5e, 0xaf, 0xb9, 0x41, 0x62, 0x1d, 0xbc,
  0x1d, 0x66, 0xd3, 0xbc, 0xf0, 0x52, 0x84, 0x3b, 0x08, 0x80, 0xae, 0xbc,
  0x87, 0x6f, 0x2a, 0x3c, 0x4f, 0x34, 0x2c, 0x3d, 0xb0, 0xd4, 0xac, 0x3c,
  0x15, 0x62, 0xa0, 0x39, 0x16, 0xe4, 0xcc, 0xba, 0xa7, 0xa2, 0xbc, 0xbb,
  0x6d, 0xb8, 0x4e, 0x3b, 0xda, 0xf0, 0x16, 0xbb, 0x93, 0x2c, 0xd0, 0xba,
  0x37, 0xa3, 0x42, 0x3a, 0x0f, 0xcf, 0x90, 0x3c, 0xed, 0x6a, 0x6d, 0x3b,
  0x5f, 0x93, 0xdf, 0xbc, 0x00, 0x80, 0x2a, 0x3d, 0x1d, 0x76, 0xce, 0x3d,
  0x70, 0x4a, 0x84, 0xbd, 0xdb, 0x21, 0x49, 0x3a, 0xb1, 0xca, 0x87, 0x3b,
  0x46, 0x6a, 0x5f, 0x3a, 0x21, 0x40, 0x7b, 0x3a, 0x5c, 0x6f, 0xa3, 0x3a,
  0x35, 0x7e, 0x6e, 0xb9, 0xc5, 0xc2, 0xab, 0x3d, 0x1d, 0x2e, 0xed, 0xbd,
  0x85, 0xd6, 0x35, 0xbc, 0x04, 0x99, 0x85, 0xbd, 0x85, 0x81, 0x4e, 0xbd,
  0xdb, 0xaa, 0xa8, 0xbd, 0xde, 0xe3, 0x9b, 0x3d, 0x94, 0xed, 0x88, 0xbb,
  0xc9, 0x0a, 0x11, 0xbb, 0x3f, 0x1f, 0x5c, 0xbb, 0xe6, 0x81, 0xad, 0x3a,
  0x61, 0x2e, 0xe4, 0xb9, 0x5e, 0xe7, 0xbe, 0x39, 0x34, 0x51, 0x80, 0x3c,
  0x41, 0xd5, 0x30, 0x3c, 0x73, 0x7e, 0x74, 0xbb, 0x20, 0xb3, 0x1a, 0x3d,
  0x9f, 0x5f, 0x98, 0xbc, 0xe7, 0xc3, 0x1f, 0xbd, 0xda, 0xa1, 0x10, 0x3d,
  0xfc, 0x7e, 0x2c, 0xbb, 0x60, 0x79, 0x04, 0xbb, 0x09, 0x24, 0x8d, 0x3b,
  0x1f, 0x98, 0x5d, 0x3b, 0x57, 0x14, 0x0d, 0xbb, 0x47, 0x99, 0x05, 0xbb,
  0x21, 0x10, 0xaa, 0x3d, 0x47, 0x8b, 0x50, 0xbd, 0x16, 0x88, 0x07, 0xbc,
  0x88, 0xed, 0x83, 0x3c, 0x76, 0xa9, 0x8f, 0xbd, 0xba, 0xe7, 0x1e, 0xbe,
  0xd9, 0xc9, 0x50, 0x3e, 0xff, 0x24, 0xa8, 0x3a, 0xe5, 0x13, 0x66, 0xba,
  0x44, 0xd1, 0xca, 0x3a, 0x8f, 0xc5, 0xbc, 0x3b, 0xea, 0xa8, 0x5e, 0x38,
  0x6e, 0x8e, 0x49, 0xbb, 0xc0, 0xc1, 0xf2, 0x3c, 0xaf, 0x72, 0x10, 0x3c,
  0xd3, 0x36, 0xac, 0xbb, 0x0a, 0xf9, 0xb5, 0x3d, 0x55, 0x39, 0x8f, 0x3d,
  0xf5, 0x79, 0xad, 0xbb, 0x4b, 0xab, 0x6e, 0x3d, 0x2e, 0xa7, 0x38, 0xbb,
  0xc5, 0x69, 0x18, 0xbb, 0x88, 0x23, 0xa7, 0x3b, 0x03, 0x6a, 0x47, 0x39,
  0x9c, 0xba, 0x75, 0x3b, 0xc3, 0x90, 0x24, 0xba, 0xdd, 0x11, 0xdb, 0xbc,
  0xeb, 0xf8, 0x81, 0x3d, 0x86, 0xc4, 0x33, 0x3b, 0xc3, 0x53, 0x16, 0x3d,
  0x63, 0x7e, 0x65, 0x3d, 0x30, 0xce, 0x1a, 0xbc, 0xbc, 0x3b, 0x6e, 0xbc,
  0x2e, 0xe0, 0xfe, 0xba, 0xfa, 0x3d, 0x10, 0xbb, 0xda, 0xf9, 0xc6, 0x3a,
  0x25, 0x90, 0x9b, 0xbb, 0x5a, 0x7f, 0x37, 0x3b, 0x50, 0x9b, 0x9d, 0xb9,
  0x63, 0xc9, 0x13, 0x3a, 0xd6, 0xe0, 0x3a, 0x3d, 0xdc, 0x25, 0x32, 0xbb,
  0xd8, 0xf1, 0x23, 0x3d, 0x06, 0x4c, 0x1b, 0xbe, 0xf2, 0x5e, 0xa6, 0xbd,
  0x18, 0x23, 0x0a, 0x3d, 0x22, 0x44, 0xdf, 0xb9, 0x57, 0x8a, 0xea, 0xbb,
  0x1a, 0xf7, 0xf1, 0x3a, 0x54, 0xa7, 0xb4, 0xb9, 0xd8, 0x61, 0x7e, 0x3a,
  0x95, 0x8f, 0x35, 0xba, 0xf5, 0x92, 0x97, 0x3c, 0x17, 0xb3, 0x4c, 0x3d,
  0x4b, 0x5d, 0xc0, 0x3a, 0xf3, 0xde, 0x44, 0x3b, 0x21, 0xba, 0xab, 0x3b,
  0xc7, 0x96, 0xe8, 0xbc, 0xf3, 0x0d, 0xa5, 0xbb, 0x51, 0x28, 0xe0, 0x39,
  0x2f, 0xb0, 0x24, 0xba, 0xb3, 0xf8, 0x15, 0xbb, 0xf5, 0x68, 0x40, 0xba,
  0x0d, 0xcc, 0x57, 0xb9, 0x78, 0x60, 0xaa, 0x39, 0x48, 0xe8, 0x19, 0xbd,
  0x42, 0x4c, 0x50, 0x3c, 0x3e, 0xc3, 0x24, 0xba, 0x32, 0x18, 0x33, 0x3d,
  0x02, 0xef, 0x1d, 0x3c, 0x80, 0x57, 0x95, 0x3d, 0xac, 0x24, 0x09, 0x3d,
  0x21, 0x03, 0x87, 0xba, 0x06, 0xae, 0x13, 0xbb, 0xd4, 0x5d, 0x6e, 0x3b,
  0x62, 0x6e, 0x85, 0xb7, 0xb5, 0x64, 0x92, 0xb9, 0xde, 0xa3, 0x66, 0xba,
  0x23, 0xa9, 0x47, 0x3c, 0xea, 0x70, 0x59, 0x3d, 0x93, 0xef, 0x70, 0xb8,
  0x63, 0xbf, 0x05, 0xbd, 0xf5, 0x79, 0x42, 0xbd, 0x7b, 0xac, 0x6b, 0x3d,
  0xb4, 0x77, 0x57, 0x3d, 0xdf, 0x5f, 0xec, 0x3b, 0x36, 0x58, 0x6b, 0x3a,
  0x45, 0x70, 0x90, 0xba, 0x3e, 0x35, 0x6a, 0xba, 0xb9, 0xdc, 0x01, 0xb9,
  0xfd, 0x8d, 0x59, 0x3a, 0x48, 0xb3, 0xeb, 0xbc, 0xb7, 0x5c, 0x81, 0xbb,
  0xbe, 0xe7, 0xaa, 0x3b, 0xd9, 0x1a, 0x9b, 0x3c, 0xfc, 0xbe, 0x0c, 0xbd,
  0xc4, 0x28, 0x99, 0xbd, 0x63, 0x09, 0x91, 0x3d, 0xb7, 0x9f, 0x07, 0x38,
  0x62, 0x81, 0x0e, 0xbb, 0xf8, 0xde, 0xce, 0xbb, 0x3c, 0x7a, 0x2a, 0xbb,
  0x56, 0x28, 0xbd, 0x3a, 0x48, 0x5d, 0x8e, 0xb9, 0x4f, 0x17, 0x36, 0xbd,
  0x2f, 0x40, 0x52, 0x3d, 0x5a, 0xb2, 0x7f, 0x3a, 0x53, 0xbf, 0x12, 0x3d,
  0x55, 0xc6, 0x92, 0x3d, 0x12, 0xea, 0x92, 0x3b, 0x84, 0xa7, 0xa9, 0x3d,
  0x4b, 0x22, 0xb5, 0x3a, 0xde, 0xce, 0x6c, 0x3b, 0x60, 0x06, 0xa9, 0xbb,
  0x8d, 0x2e, 0x8a, 0x3a, 0x80, 0x41, 0x86, 0x3a, 0x65, 0x8b, 0x38, 0x3a,
  0xe4, 0xb4, 0xa1, 0xbc, 0x7f, 0x8f, 0x0e, 0xbd, 0x45, 0xdc, 0x0f, 0x3a,
  0xc9, 0xe5, 0x6d, 0x3d, 0x49, 0x17, 0x2d, 0x3b, 0x7d, 0x31, 0xfe, 0xbd,
  0x7e, 0xef, 0x94, 0x3d, 0x47, 0x9e, 0x2e, 0x3a, 0x39, 0xc3, 0xe6, 0x3a,
  0x90, 0x00, 0x84, 0xbb, 0xb5, 0xfc, 0x45, 0xba, 0x38, 0x73, 0x38, 0xbb,
  0x4d, 0x14, 0x25, 0x3b, 0x04, 0x84, 0x9d, 0xbd, 0xd2, 0x22, 0xcd, 0xbd,
  0x35, 0xd9, 0xad, 0xbb, 0xad, 0x6f, 0x41, 0x3d, 0x0e, 0xd8, 0x6f, 0x3d,
  0x91, 0xba, 0x89, 0x3a, 0xf6, 0x0f, 0x01, 0xbd, 0x64, 0xb9, 0xaf, 0xbb,
  0x84, 0xee, 0x61, 0x3b, 0xb3, 0x1b, 0x3a, 0xbb, 0x63, 0x02, 0xf4, 0xba,
  0x45, 0x5c, 0x93, 0x3a, 0x3e, 0xd7, 0xaf, 0xb9, 0x68, 0x7b, 0x39, 0x3d,
  0x92, 0x0b, 0x43, 0x3d, 0x0f, 0x59, 0xc4, 0x3a, 0x8c, 0xcd, 0x65, 0x3b,
  0x83, 0x0c, 0x81, 0xbc, 0xda, 0x5c, 0xea, 0xbb, 0x93, 0x9e, 0x5b, 0xba,
  0xa6, 0x85, 0xbc, 0xba, 0xf1, 0x4f, 0xc6, 0x3b, 0x9a, 0x02, 0xed, 0x3a,
  0xa8, 0x64, 0x47, 0x3a, 0xe5, 0x6f, 0x3f, 0x3a, 0xc2, 0x3a, 0x07, 0xba,
  0xc7, 0x75, 0x18, 0x3d, 0x23, 0xcb, 0xc1, 0xbc, 0xb6, 0x23, 0x1d, 0xb9,
  0x94, 0x56, 0x75, 0xbd, 0xfa, 0xb1, 0xd5, 0xbc, 0xfb, 0x3b, 0xc7, 0x3c,
  0xcb, 0xff, 0xfa, 0x3c, 0x21, 0x50, 0xad, 0x3a, 0x80, 0x11, 0x0e, 0x3a,
  0x4b, 0x25, 0x2f, 0xb8, 0x87, 0x6c, 0x30, 0x3b, 0x5f, 0xcf, 0xe0, 0xb9,
  0x3f, 0xa0, 0x99, 0x39, 0x02, 0x1f, 0xe4, 0x3c, 0xfb, 0xb1, 0xde, 0xbc,
  0xe3, 0x9c, 0x8d, 0xba, 0x3f, 0xd5, 0x86, 0x3c, 0x98, 0xed, 0xe2, 0xba,
  0x49, 0xe1, 0x72, 0x3d, 0x21, 0x90, 0x25, 0xbc, 0xf7, 0xf0, 0x93, 0x3a,
  0x09, 0x29, 0x81, 0xbb, 0x32, 0x10, 0x12, 0x3a, 0x7d, 0xce, 0x06, 0x3b,
  0xf8, 0xc8, 0x2f, 0xbb, 0xa2, 0x5d, 0x10, 0x3b, 0xa0, 0xfa, 0xf4, 0x3c,
  0x73, 0x6e, 0x33, 0x3d, 0x48, 0xb0, 0x0b, 0x3b, 0x03, 0x1a, 0xa1, 0x3c,
  0xaf, 0xb8, 0x69, 0x3c, 0xf6, 0x5a, 0x05, 0x3d, 0x66, 0x16, 0x73, 0xbc,
  0xb5, 0xb1, 0xec, 0xba, 0x15, 0x1a, 0xac, 0xb8, 0x56, 0xf4, 0x27, 0xbb,
  0x6e, 0x38, 0xdd, 0x3a, 0xb8, 0x50, 0x20, 0x3a, 0x84, 0x53, 0x43, 0x39,
  0x22, 0xce, 0x58, 0x3d, 0x87, 0x80, 0x9d, 0xbb, 0xd2, 0xed, 0x65, 0xbb,
  0x27, 0xee, 0x28, 0xbd, 0xe5, 0xfd, 0x91, 0xbd, 0xe1, 0x07, 0xed, 0xbd,
  0xfd, 0x77, 0x2d, 0x3d, 0x0a, 0x53, 0x84, 0x3b, 0xe8, 0xeb, 0x91, 0x3a,
  0x36, 0x19, 0x2d, 0x3b, 0xa3, 0xca, 0x0a, 0x3b, 0x01, 0x50, 0x88, 0xba,
  0x76, 0x49, 0x8b, 0x3b, 0x60, 0x70, 0x9f, 0x3c, 0x63, 0xb6, 0x99, 0x3c,
  0xe8, 0xee, 0x80, 0xbb, 0x15, 0x0b, 0x40, 0xbb, 0xd0, 0xea, 0x0a, 0xbe,
  0xb6, 0xb1, 0x84, 0xbc, 0x7b, 0xc0, 0xac, 0x3d, 0x4c, 0x56, 0x1b, 0xbb,
  0x05, 0x55, 0x6b, 0x3a, 0xec, 0x7f, 0x34, 0xbb, 0x3d, 0x99, 0xc1, 0xba,
  0x06, 0x6b, 0x02, 0xbb, 0x75, 0x09, 0xfe, 0xb8, 0x8b, 0x4d, 0xe8, 0x3b,
  0xbd, 0x6a, 0xc9, 0xbd, 0x88, 0xac, 0xc7, 0x3a, 0xa0, 0x25, 0xad, 0xbc,
  0x4f, 0xeb, 0xd3, 0x3b, 0xac, 0xd6, 0x5f, 0x3d, 0xff, 0x6a, 0x42, 0x3d,
  0xb6, 0x70, 0xac, 0x3a, 0x84, 0x82, 0x91, 0x3b, 0xca, 0x78, 0x5e, 0x3a,
  0x92, 0x7d, 0x9c, 0xbb, 0xbd, 0x08, 0x2d, 0x3b, 0x67, 0x08, 0xbf, 0x3a,
  0x20, 0x46, 0x73, 0xbb, 0xae, 0x0d, 0x1b, 0xbc, 0x24, 0xbf, 0x18, 0xbb,
  0x55, 0x58, 0x91, 0x3b, 0x55, 0xdd, 0xc9, 0xbc, 0x07, 0xda, 0xd7, 0xbc,
  0xed, 0x96, 0x69, 0x3d, 0xcb, 0x81, 0x15, 0x3b, 0xc3, 0x8c, 0x15, 0xbb,
  0xbe, 0xd1, 0xac, 0xbb, 0x13, 0x5a, 0x8c, 0x3a, 0xbf, 0x91, 0xe5, 0x3a,
  0xd6, 0x05, 0xf4, 0x38, 0xa6, 0x43, 0x37, 0xbc, 0x2f, 0x98, 0xcf, 0x3c,
  0x18, 0x2b, 0x9d, 0x38, 0x17, 0xe2, 0x80, 0x3d, 0x3a, 0xba, 0x05, 0xbd,
  0x26, 0xef, 0x65, 0xbc, 0x8f, 0x07, 0xa5, 0x3d, 0x88, 0x4f, 0x0f, 0x3a,
  0x00, 0xe2, 0xea, 0x3a, 0x48, 0x13, 0x11, 0x3c, 0x1e, 0xf7, 0x80, 0x3b,
  0xbe, 0x87, 0x92, 0xb9, 0x62, 0x27, 0x83, 0x3a, 0x0f, 0x69, 0x85, 0xbb,
  0x93, 0x28, 0xd6, 0xbc, 0x69, 0xcc, 0x24, 0x3b, 0xa9, 0x40, 0x1c, 0x3d,
  0x5d, 0x77, 0x9a, 0x3d, 0xd9, 0x96, 0x52, 0xbd, 0xc0, 0x67, 0xd6, 0x3c,
  0x64, 0x10, 0x6e, 0x3a, 0x50, 0xb5, 0x76, 0x3b, 0xfe, 0x25, 0x97, 0x3b,
  0x83, 0x47, 0x1e, 0x3b, 0xac, 0x7d, 0x5d, 0x3b, 0x33, 0x93, 0xe7, 0x3a,
  0x5b, 0x19, 0xd3, 0x3c, 0x65, 0xe9, 0x23, 0xbc, 0x9b, 0xe3, 0xa8, 0xbb,
  0x23, 0x2d, 0x20, 0x3d, 0xa6, 0x7f, 0xc4, 0xbc, 0x86, 0x92, 0xce, 0xbd,
  0x68, 0x8b, 0x97, 0x3d, 0x28, 0xeb, 0x71, 0xbb, 0x48, 0x7e, 0xad, 0x3a,
  0x1a, 0xdb, 0x71, 0xb9, 0x3b, 0x61, 0x62, 0x3b, 0xb7, 0x2b, 0xd3, 0x39,
  0x20, 0xbd, 0x2a, 0x3b, 0xa3, 0x81, 0xce, 0x3d, 0x10, 0x59, 0x58, 0xbc,
  0xa8, 0x62, 0xbd, 0x3b, 0x8a, 0x46, 0x43, 0xbd, 0x01, 0xc4, 0xc1, 0xbd,
  0x31, 0x4f, 0xf7, 0x3c, 0x6f, 0x72, 0x98, 0x3d, 0xc4, 0x00, 0xe7, 0x3a,
  0x15, 0x58, 0xce, 0xba, 0xf7, 0xd3, 0x11, 0x3a, 0x08, 0xb5, 0x0b, 0xbb,
  0xa2, 0x7e, 0x8d, 0x3b, 0xde, 0x58, 0x28, 0x3b, 0x99, 0xd5, 0x0f, 0xbd,
  0x83, 0xe5, 0x4d, 0x3d, 0xec, 0xf8, 0xc7, 0x3b, 0x8b, 0x79, 0xf8, 0xbc,
  0x93, 0xc6, 0x7b, 0xbb, 0xed, 0x45, 0xbd, 0xbd, 0xc0, 0x63, 0x94, 0x3c,
  0x27, 0xf2, 0x0c, 0xbb, 0x56, 0x3f, 0xee, 0xba, 0xa2, 0xbf, 0x27, 0x3a,
  0x5c, 0xbf, 0xbd, 0xb9, 0x94, 0x5f, 0xdf, 0xba, 0x4a, 0x30, 0xba, 0x3a,
  0x77, 0xe3, 0xcb, 0xbd, 0xe4, 0xee, 0x1b, 0xbb, 0xf2, 0xd2, 0x84, 0x3b,
  0x79, 0xa0, 0x03, 0x3d, 0x2c, 0x2c, 0x94, 0x3d, 0x75, 0x82, 0x9f, 0xbd,
  0x39, 0xd8, 0x57, 0xbc, 0xdc, 0x8b, 0x06, 0x3b, 0x51, 0x33, 0x8d, 0xba,
  0x4e, 0xdd, 0xa8, 0xba, 0xed, 0x03, 0xd5, 0xba, 0x98, 0x51, 0x82, 0xb9,
  0x4d, 0x80, 0xba, 0xbb, 0xab, 0xf3, 0xa5, 0x3b, 0xe2, 0xcd, 0xbf, 0xbc,
  0xf9, 0x22, 0xc0, 0x3a, 0x51, 0x74, 0xab, 0xba, 0xd4, 0x3d, 0x7c, 0xbc,
  0x1f, 0x23, 0xcb, 0xbd, 0x60, 0xd4, 0x02, 0x3d, 0xbc, 0x0a, 0x2f, 0xbb,
  0x05, 0x41, 0xc4, 0x39, 0xe9, 0x2f, 0x28, 0xba, 0xb1, 0xc8, 0x07, 0xbb,
  0xb1, 0x2b, 0x7a, 0x39, 0x3a, 0x07, 0x86, 0xbb, 0xf9, 0x7a, 0xaa, 0x3c,
  0x7f, 0xd7, 0x1c, 0x3d, 0x1e, 0x7c, 0x3e, 0xba, 0xf8, 0xd2, 0x3a, 0x3c,
  0xcb, 0xbe, 0xf3, 0x3c, 0xae, 0xdd, 0xa7, 0x3d, 0x09, 0x7f, 0x86, 0xbd,
  0x96, 0xeb, 0xff, 0xff, 0x10, 0x00, 0x00, 0x00, 0x06, 0x00, 0x00, 0x00,
  0x14, 0x00, 0x00, 0x00, 0x68, 0x00, 0x00, 0x00, 0x02, 0x00, 0x00, 0x00,
  0x20, 0x00, 0x00, 0x00, 0x0d, 0x00, 0x00, 0x00, 0x52, 0x00, 0x00, 0x00,
  0x6d, 0x6f, 0x64, 0x65, 0x6c, 0x2f, 0x74, 0x66, 0x2e, 0x6d, 0x61, 0x74,
  0x68, 0x2e, 0x6d, 0x75, 0x6c, 0x74, 0x69, 0x70, 0x6c, 0x79, 0x2f, 0x4d,
  0x75, 0x6c, 0x3b, 0x6d, 0x6f, 0x64, 0x65, 0x6c, 0x2f, 0x64, 0x65, 0x6e,
  0x73, 0x65, 0x2f, 0x4d, 0x61, 0x74, 0x4d, 0x75, 0x6c, 0x3b, 0x6d, 0x6f,
  0x64, 0x65, 0x6c, 0x2f, 0x64, 0x65, 0x6e, 0x73, 0x65, 0x2f, 0x52, 0x65,
  0x6c, 0x75, 0x3b, 0x6d, 0x6f, 0x64, 0x65, 0x6c, 0x2f, 0x64, 0x65, 0x6e,
  0x73, 0x65, 0x2f, 0x42, 0x69, 0x61, 0x73, 0x41, 0x64, 0x64, 0x00, 0x00,
  0x64, 0xeb, 0xff, 0xff, 0xa6, 0xec, 0xff, 0xff, 0x04, 0x00, 0x00, 0x00,
  0x00, 0x02, 0x00, 0x00, 0x7d, 0xcd, 0xf9, 0xbd, 0x03, 0x19, 0x88, 0xbe,
  0x94, 0x7d, 0x0f, 0xbf, 0x24, 0x55, 0x0e, 0xbf, 0xd5, 0x63, 0xcc, 0xbd,
  0x7f, 0x22, 0xc8, 0xbf, 0x23, 0xcc, 0x20, 0x3e, 0xa9, 0x51, 0x91, 0xbf,
  0x3c, 0xf9, 0xab, 0x3e, 0x2d, 0xa9, 0x20, 0x3f, 0xf8, 0xc4, 0x67, 0x3f,
  0x15, 0x59, 0x2e, 0xbf, 0xbd, 0x69, 0x1c, 0x3f, 0x71, 0x65, 0x7d, 0x3f,
  0xd8, 0xac, 0xce, 0x3e, 0x6f, 0xe2, 0x10, 0xbf, 0x22, 0x85, 0x40, 0xbe,
  0xf6, 0xf0, 0xec, 0xbd, 0x39, 0xf9, 0x6b, 0x3e, 0x62, 0x89, 0x95, 0x3f,
  0x4b, 0xb2, 0x0a, 0xbe, 0x2d, 0x10, 0x57, 0xbf, 0xce, 0x42, 0xae, 0x3f,
  0x64, 0xe9, 0xc8, 0xbf, 0xf5, 0x25, 0x56, 0xbe, 0xe5, 0xc6, 0x9e, 0xbe,
  0x57, 0x7c, 0x13, 0x3f, 0xc6, 0x4b, 0x15, 0xbf, 0x58, 0xd6, 0x7d, 0xbe,
  0x08, 0x52, 0xd4, 0x3e, 0xb8, 0x9c, 0x67, 0xbe, 0x62, 0xb8, 0x58, 0x3d,
  0x45, 0x51, 0xa8, 0xbf, 0xd5, 0x03, 0x10, 0xbe, 0x2a, 0x82, 0x38, 0xbf,
  0xbd, 0x6a, 0xeb, 0x3e, 0x5b, 0xa0, 0x5f, 0x3f, 0xe6, 0x34, 0x06, 0x3f,
  0xb4, 0x59, 0xae, 0xbf, 0x78, 0x73, 0xf2, 0xbd, 0x94, 0x65, 0x78, 0xbf,
  0x9a, 0x62, 0xdd, 0xbe, 0x38, 0xa0, 0xc2, 0xbf, 0xfd, 0xd2, 0x0c, 0xbd,
  0x8f, 0xe8, 0x9b, 0xbf, 0x65, 0xa1, 0x80, 0x3f, 0xbd, 0xc9, 0x4c, 0xbe,
  0x82, 0x89, 0xfe, 0x3e, 0x9e, 0xe3, 0x95, 0xbe, 0xcf, 0xd2, 0xd3, 0x3e,
  0x85, 0xc3, 0x19, 0xbe, 0xee, 0x91, 0x68, 0xbf, 0x33, 0x5e, 0x69, 0xbf,
  0x6d, 0x5d, 0xd6, 0x3c, 0xd5, 0x64, 0x0d, 0xbf, 0x3e, 0xe1, 0x0c, 0xbf,
  0x85, 0xb1, 0x3e, 0x3f, 0x25, 0xaa, 0x2b, 0xbf, 0x50, 0xe2, 0x10, 0x3f,
  0xee, 0x3d, 0xb9, 0x3f, 0x6a, 0x5f, 0x1a, 0xbf, 0x8c, 0x57, 0x83, 0x3e,
  0x13, 0x9f, 0xb3, 0x3f, 0xf7, 0xfd, 0x0f, 0xbe, 0x98, 0x58, 0x3f, 0xbf,
  0x81, 0xd1, 0x82, 0xbf, 0x22, 0x8f, 0x4d, 0xbf, 0xe6, 0xe4, 0x68, 0x3f,
  0x57, 0xf1, 0x9c, 0x3e, 0x2d, 0x19, 0x65, 0x3f, 0x31, 0xdb, 0xd9, 0x3d,
  0xc9, 0x4e, 0x7a, 0xbf, 0xe3, 0xe6, 0x22, 0x3e, 0xca, 0x55, 0xaf, 0x3f,
  0x4b, 0x12, 0x35, 0x3f, 0x05, 0x35, 0x1f, 0x3f, 0x88, 0x2d, 0x99, 0xbf,
  0x97, 0x0f, 0x23, 0xbc, 0x58, 0xaf, 0xf9, 0x3e, 0x31, 0xc9, 0xfd, 0x3f,
  0xca, 0xa3, 0x54, 0xbe, 0x27, 0x8f, 0x40, 0xbe, 0x09, 0x49, 0x38, 0xbd,
  0x52, 0xde, 0x0e, 0xbf, 0xf9, 0xd6, 0xd7, 0xbc, 0x8e, 0xa4, 0xc9, 0xbd,
  0xed, 0x41, 0xd7, 0x3e, 0x57, 0xd0, 0x9c, 0xc0, 0xd1, 0xd6, 0x86, 0x3a,
  0xd1, 0x73, 0x25, 0x3e, 0x83, 0xf9, 0x0f, 0x3f, 0x5a, 0x00, 0xaf, 0x3f,
  0xcb, 0xea, 0xab, 0xbf, 0x0c, 0x42, 0x47, 0xbf, 0xf7, 0x75, 0x2a, 0xbf,
  0xc2, 0x6b, 0x0d, 0x3e, 0x97, 0x5a, 0x41, 0xbe, 0x9e, 0xc1, 0x42, 0xbc,
  0xc2, 0xc5, 0xc7, 0x3d, 0x60, 0x6f, 0x92, 0x3f, 0x1a, 0x1e, 0x73, 0xbf,
  0x9f, 0xba, 0xf9, 0xbe, 0xb3, 0xe7, 0x74, 0x3f, 0x71, 0xd4, 0xa5, 0xbf,
  0x57, 0x91, 0x69, 0x3e, 0x83, 0xcd, 0xd2, 0x3f, 0x13, 0xd6, 0x93, 0xbe,
  0x58, 0xa9, 0xab, 0xbe, 0x71, 0xff, 0xe6, 0x3d, 0x28, 0xac, 0x73, 0xbd,
  0x39, 0x08, 0x25, 0x3f, 0xe9, 0x44, 0x26, 0x3f, 0x83, 0x2f, 0x32, 0xbe,
  0x9c, 0xbb, 0x16, 0xbf, 0x24, 0x78, 0x31, 0xbf, 0xa1, 0x3f, 0x82, 0xbf,
  0x42, 0x00, 0xf6, 0x3c, 0x32, 0xac, 0x56, 0xbf, 0xe6, 0x5f, 0x27, 0x3e,
  0x34, 0x18, 0x0d, 0x3f, 0x95, 0x78, 0x26, 0x3f, 0x09, 0x25, 0xa9, 0xbf,
  0x5f, 0x1e, 0x7f, 0x3f, 0xc1, 0x8b, 0x13, 0xbf, 0x74, 0x61, 0xa6, 0x3f,
  0x18, 0x49, 0xb2, 0xbe, 0x95, 0xb7, 0x8e, 0x3e, 0xa1, 0xa3, 0x29, 0x3f,
  0x1e, 0xee, 0xff, 0xff, 0x10, 0x00, 0x00, 0x00, 0x05, 0x00, 0x00, 0x00,
  0x14, 0x00, 0x00, 0x00, 0x2c, 0x00, 0x00, 0x00, 0x02, 0x00, 0x00, 0x00,
  0x04, 0x00, 0x00, 0x00, 0x20, 0x00, 0x00, 0x00, 0x14, 0x00, 0x00, 0x00,
  0x6d, 0x6f, 0x64, 0x65, 0x6c, 0x2f, 0x64, 0x65, 0x6e, 0x73, 0x65, 0x5f,
  0x32, 0x2f, 0x4d, 0x61, 0x74, 0x4d, 0x75, 0x6c, 0x00, 0x00, 0x00, 0x00,
  0xb0, 0xed, 0xff, 0xff, 0xf2, 0xee, 0xff, 0xff, 0x04, 0x00, 0x00, 0x00,
  0x00, 0x10, 0x00, 0x00, 0x57, 0x10, 0x03, 0x3f, 0x4f, 0xf8, 0xdd, 0x3e,
  0xb3, 0x84, 0xbb, 0xbe, 0x01, 0x22, 0x21, 0xbd, 0x75, 0x4b, 0x7f, 0xbe,
  0xf3, 0x52, 0xbf, 0x3d, 0x9b, 0x85, 0x82, 0x3e, 0x06, 0x40, 0xd7, 0x3e,
  0xa3, 0x19, 0x90, 0x3f, 0x8d, 0xd3, 0x92, 0xbf, 0x31, 0x12, 0x8c, 0x3c,
  0x6a, 0x48, 0x7c, 0xbd, 0xb3, 0x0f, 0x07, 0xbf, 0x8e, 0xa5, 0x8c, 0xbf,
  0x7c, 0xcf, 0x1b, 0xbd, 0xd9, 0x20, 0x7c, 0xbe, 0xbb, 0x99, 0xc2, 0xbe,
  0x6c, 0xf8, 0x14, 0x3e, 0xaa, 0x1d, 0xca, 0x3e, 0xd6, 0x66, 0x47, 0x3e,
  0xc2, 0x83, 0xd9, 0xbc, 0x79, 0x15, 0x20, 0x3f, 0x15, 0xc6, 0xa5, 0xbd,
  0x84, 0x4f, 0x5a, 0xbf, 0x48, 0xbe, 0x17, 0x3e, 0x1e, 0x17, 0x1b, 0xbf,
  0xe7, 0x2e, 0xba, 0xbf, 0x37, 0xa7, 0xed, 0xbe, 0x3d, 0x53, 0xd5, 0x3e,
  0x46, 0xc3, 0x20, 0x3e, 0x19, 0x5c, 0x87, 0xbe, 0x05, 0x34, 0x60, 0xbd,
  0x4c, 0xc0, 0xd1, 0xbe, 0x47, 0xa1, 0xeb, 0x3d, 0x6a, 0x4a, 0x97, 0xbd,
  0xe8, 0x18, 0xe6, 0xbc, 0xc9, 0x1f, 0x28, 0x3e, 0x40, 0x8c, 0x39, 0x3e,
  0x96, 0x1f, 0x88, 0x3d, 0x46, 0x75, 0xa1, 0xbe, 0x9d, 0xc4, 0x82, 0x3d,
  0x59, 0x0f, 0xbe, 0xbe, 0xa2, 0xa0, 0xc0, 0xbd, 0x87, 0x79, 0x28, 0x3f,
  0x2e, 0x35, 0x25, 0xbe, 0x55, 0x2f, 0x16, 0xbf, 0x8e, 0x8d, 0xb5, 0xbc,
  0x70, 0x42, 0x58, 0xbc, 0xa9, 0xd9, 0x39, 0x3e, 0xa8, 0x43, 0x9d, 0xbe,
  0x59, 0xfa, 0x32, 0x3f, 0xd1, 0xa5, 0xaa, 0xbc, 0x79, 0x53, 0xfb, 0x3d,
  0x4a, 0xdd, 0x3e, 0xbe, 0xb7, 0xfc, 0x02, 0xbf, 0xa0, 0x4a, 0xd9, 0x3d,
  0x59, 0xfc, 0x6a, 0x3e, 0xe0, 0x68, 0x34, 0xbe, 0x6c, 0x49, 0x0b, 0x3e,
  0x69, 0xf3, 0xe7, 0xbe, 0x12, 0x4a, 0xbc, 0x3e, 0xdd, 0xf7, 0x7c, 0xbe,
  0x3b, 0x85, 0x0d, 0xbe, 0xbd, 0x0a, 0xa8, 0x3c, 0x34, 0xd2, 0x64, 0x3e,
  0xb5, 0xd1, 0x2a, 0xbf, 0x4b, 0x17, 0x21, 0xbf, 0xa5, 0xda, 0x95, 0x3c,
  0xc7, 0xaa, 0x54, 0x3f, 0x46, 0x55, 0x43, 0x3c, 0x68, 0xf5, 0x57, 0xbf,
  0xda, 0xb4, 0x9d, 0xbf, 0x4a, 0xfa, 0x1e, 0x3e, 0x7e, 0x27, 0xdd, 0x3d,
  0x48, 0x4a, 0x67, 0x3e, 0x6c, 0x9b, 0xae, 0x3e, 0x9d, 0x85, 0x91, 0xbf,
  0xe8, 0x23, 0xc5, 0xbf, 0xac, 0x79, 0xad, 0xbf, 0xae, 0x42, 0xaa, 0xbf,
  0x9d, 0x16, 0x02, 0xbe, 0x71, 0x85, 0x5a, 0xbf, 0x67, 0x7e, 0x96, 0x3e,
  0xc5, 0x7b, 0x4f, 0x3f, 0xdd, 0x58, 0xb7, 0xbe, 0x62, 0x80, 0x74, 0x3e,
  0x35, 0x3e, 0x08, 0x3f, 0xd3, 0x16, 0x24, 0x3e, 0xcd, 0xf3, 0x48, 0x3f,
  0x4c, 0x93, 0x41, 0x3d, 0xfd, 0x00, 0xc4, 0x3e, 0x37, 0x6c, 0x3d, 0xbf,
  0x04, 0x3e, 0x86, 0xbd, 0x56, 0xf8, 0x7b, 0xbd, 0xb0, 0x61, 0x1d, 0x3e,
  0x42, 0x8b, 0x67, 0x3f, 0x73, 0x8e, 0x8e, 0x3e, 0xdf, 0x04, 0x03, 0xbf,
  0x0e, 0xcb, 0x79, 0x3e, 0x8b, 0xf1, 0x3b, 0xbf, 0x15, 0x17, 0x3f, 0xbf,
  0x75, 0x25, 0x85, 0x3e, 0xe4, 0x13, 0x45, 0x3c, 0x4d, 0x9b, 0x02, 0xbf,
  0xdf, 0x6b, 0xfa, 0x3e, 0x6e, 0x7c, 0x9b, 0xbd, 0xff, 0x08, 0x9e, 0x3e,
  0x5e, 0x5f, 0x80, 0x3e, 0xe5, 0xa2, 0x01, 0x3d, 0x3f, 0xde, 0x9a, 0x3e,
  0x8d, 0x89, 0x05, 0xbf, 0xe3, 0x9b, 0x1a, 0xbf, 0x11, 0x6f, 0xa9, 0xbe,
  0xc2, 0x07, 0x3c, 0xbe, 0xe0, 0x61, 0x1d, 0xbd, 0x60, 0x47, 0x8b, 0xbf,
  0xa8, 0xa9, 0x1e, 0xbe, 0x68, 0x9f, 0xda, 0x3e, 0x3a, 0x71, 0xea, 0x3c,
  0xb3, 0x81, 0x9a, 0xbd, 0x33, 0x0c, 0xc6, 0x3d, 0xe8, 0x98, 0x9e, 0xbf,
  0xd5, 0x52, 0x80, 0x3f, 0x22, 0x41, 0x91, 0xbe, 0xfc, 0xca, 0x53, 0xbf,
  0x68, 0x12, 0x6e, 0x3f, 0x99, 0x7b, 0xb6, 0xbe, 0xbf, 0xe1, 0x90, 0xbd,
  0x83, 0xee, 0x4f, 0x3d, 0xe1, 0x29, 0x3d, 0x3e, 0xe6, 0x2a, 0x95, 0xbe,
  0x4b, 0x16, 0x1d, 0x3f, 0x55, 0x22, 0xbf, 0xbd, 0x7f, 0x4e, 0x06, 0x3e,
  0x9b, 0x99, 0xed, 0xbe, 0x75, 0x0c, 0x16, 0xbf, 0xe7, 0x70, 0x0e, 0x3f,
  0xbc, 0x1a, 0x5d, 0xbf, 0x21, 0x59, 0x08, 0x3f, 0x5d, 0xc4, 0xb2, 0x3e,
  0xd6, 0xcd, 0x95, 0xbe, 0xa8, 0xb0, 0x28, 0x3f, 0x26, 0xf3, 0x0d, 0xbb,
  0xb6, 0x2c, 0xf5, 0xbe, 0x1a, 0x25, 0xee, 0xbe, 0x6d, 0x7b, 0xd7, 0xbe,
  0x86, 0xd6, 0x99, 0x3e, 0xc6, 0x4b, 0x7f, 0x3e, 0x44, 0x65, 0x60, 0x3f,
  0x9d, 0xc8, 0xcd, 0xbe, 0xec, 0xeb, 0xc5, 0xbe, 0xc6, 0x16, 0x36, 0xbf,
  0x49, 0xd8, 0x3f, 0xbf, 0xef, 0x07, 0xda, 0xbe, 0x88, 0xb7, 0xea, 0x3d,
  0x88, 0x78, 0x71, 0xbe, 0xa5, 0x09, 0x94, 0xba, 0x2a, 0x94, 0xaa, 0xbd,
  0x30, 0x70, 0xbb, 0xbd, 0xde, 0x97, 0x97, 0x3e, 0x66, 0x5f, 0xe8, 0x3e,
  0x14, 0x92, 0x16, 0xbe, 0xff, 0xf5, 0xb4, 0xbe, 0x5d, 0x44, 0x0f, 0xbe,
  0x79, 0xe2, 0xdf, 0xbe, 0x02, 0x1d, 0xf1, 0x3d, 0x30, 0x46, 0x3b, 0x3e,
  0x28, 0x28, 0xf7, 0xbe, 0x07, 0x5e, 0x30, 0x3e, 0x4a, 0x15, 0xdb, 0xbd,
  0x91, 0x77, 0x10, 0x3f, 0x30, 0x2f, 0xcd, 0xbe, 0x5e, 0x26, 0x22, 0xbf,
  0x85, 0xe9, 0x95, 0xbe, 0x50, 0x1f, 0x9e, 0x3e, 0xa3, 0x42, 0x98, 0xbd,
  0x23, 0x1c, 0x2a, 0xbe, 0x95, 0x1e, 0xf0, 0xbe, 0x2b, 0x16, 0x31, 0xbe,
  0x09, 0x23, 0xcc, 0x3d, 0xe0, 0x2f, 0xb1, 0xbc, 0x55, 0xf4, 0x91, 0xbd,
  0xff, 0x9f, 0x39, 0x3e, 0xd6, 0x2b, 0x6c, 0xbd, 0xe4, 0xf1, 0x38, 0x3e,
  0x9e, 0x0d, 0xc4, 0xbf, 0x05, 0x5d, 0x01, 0x3e, 0xcd, 0x42, 0x4e, 0x3d,
  0x53, 0x83, 0x45, 0x3e, 0xc2, 0xf3, 0x62, 0x3e, 0x23, 0xa7, 0x06, 0x3f,
  0x7a, 0x7a, 0xf9, 0xbd, 0x53, 0xb8, 0x89, 0x3e, 0xaa, 0xa7, 0xb9, 0xbe,
  0xd4, 0xfb, 0x92, 0xbf, 0xa2, 0x43, 0x20, 0x3f, 0x12, 0xb2, 0xc8, 0xbf,
  0x7f, 0x04, 0x08, 0xbf, 0x1b, 0x94, 0xc1, 0x3c, 0x93, 0x4c, 0xb9, 0xbe,
  0x0a, 0x44, 0x33, 0xbd, 0x12, 0x46, 0x96, 0xbe, 0xea, 0xce, 0x80, 0x3d,
  0x38, 0xc3, 0xed, 0x3e, 0x7b, 0x0a, 0x61, 0xbf, 0xb4, 0x59, 0x11, 0xbf,
  0xc8, 0x2c, 0xcb, 0xbe, 0xff, 0x3d, 0xc9, 0x3e, 0x29, 0x02, 0x02, 0xbf,
  0xac, 0x06, 0x44, 0xbe, 0x10, 0xeb, 0x27, 0xbd, 0x9b, 0x90, 0xa1, 0xbe,
  0x28, 0x4a, 0xe5, 0xbe, 0xbd, 0x02, 0x40, 0xbe, 0x3c, 0x94, 0xde, 0xbe,
  0x9e, 0x13, 0x81, 0x3c, 0x3a, 0xfa, 0x96, 0x3d, 0xc4, 0x08, 0x36, 0xbf,
  0x21, 0x42, 0x05, 0x3f, 0xfe, 0x66, 0x4e, 0x3f, 0xbf, 0x65, 0xb4, 0xbc,
  0x34, 0xcb, 0x60, 0x3e, 0x44, 0x4d, 0x6b, 0x3f, 0x41, 0x20, 0x47, 0xbf,
  0x9e, 0xd4, 0xa5, 0xbf, 0x94, 0xfa, 0x3c, 0xbf, 0x8d, 0xb0, 0x05, 0x3f,
  0xda, 0x52, 0xe5, 0x3e, 0xc0, 0x2c, 0x08, 0xbd, 0xca, 0x87, 0xad, 0x3e,
  0x77, 0x25, 0x96, 0xbf, 0xe3, 0xb0, 0x3c, 0x3d, 0x62, 0xba, 0x43, 0xbf,
  0x58, 0xd1, 0xdb, 0x3b, 0x25, 0xe1, 0x53, 0x3f, 0x02, 0x31, 0xa9, 0xbd,
  0x01, 0x1a, 0x83, 0xbf, 0xda, 0x2f, 0x93, 0xbf, 0x5f, 0x71, 0xb1, 0xbd,
  0x24, 0x83, 0x03, 0xbf, 0xb1, 0x71, 0x61, 0xbe, 0xf6, 0x7a, 0x3b, 0x3e,
  0x6d, 0xf5, 0x7a, 0xbd, 0x5b, 0x9d, 0x4b, 0xbe, 0x8c, 0xf1, 0xb4, 0x3e,
  0x3f, 0x3b, 0xd9, 0xbe, 0x67, 0x0d, 0xe0, 0xbc, 0xf6, 0x81, 0xae, 0x3e,
  0x5a, 0x55, 0x13, 0x3f, 0x7f, 0xf5, 0xc0, 0xbe, 0x9b, 0x8f, 0x05, 0x3f,
  0xcd, 0x47, 0x46, 0xbe, 0x8d, 0x40, 0xc2, 0x3d, 0xb4, 0x1c, 0x07, 0x3f,
  0x0c, 0x36, 0x0a, 0xbd, 0xba, 0x1b, 0x4a, 0xbe, 0x4d, 0x07, 0x0b, 0xbe,
  0x93, 0x83, 0xa1, 0xbe, 0x0b, 0x68, 0x0c, 0xbf, 0x1b, 0x19, 0x86, 0x3d,
  0x62, 0x43, 0x1a, 0xbf, 0x27, 0x31, 0x1a, 0xbf, 0x98, 0x7d, 0x3c, 0x3f,
  0x3b, 0x9c, 0x5c, 0xbc, 0xac, 0x08, 0x8d, 0xbe, 0x49, 0x32, 0x63, 0xbf,
  0xe5, 0xa4, 0x00, 0xbe, 0x69, 0x4b, 0xc8, 0x3e, 0xfc, 0xf6, 0x3e, 0xbf,
  0x4b, 0x5e, 0xce, 0xbd, 0x3a, 0xd8, 0xf7, 0xbe, 0x51, 0x5d, 0x92, 0xbf,
  0x4f, 0x8c, 0x68, 0xbf, 0x53, 0x33, 0xf4, 0xbe, 0xb8, 0x52, 0x13, 0xbe,
  0x71, 0xda, 0x43, 0xbf, 0x95, 0x21, 0x1b, 0x3f, 0x89, 0x8a, 0x96, 0x3b,
  0x62, 0xb4, 0x0b, 0x3f, 0x21, 0x49, 0x71, 0x3f, 0xc8, 0x92, 0x81, 0xbf,
  0xbb, 0xff, 0xe2, 0xbf, 0x91, 0x3c, 0x9f, 0xbc, 0x81, 0x8c, 0x2b, 0xbe,
  0x4d, 0xc8, 0xf3, 0x3e, 0x7d, 0xf4, 0x02, 0x3f, 0xfb, 0x26, 0xa3, 0x3d,
  0xea, 0xf8, 0x4a, 0xbc, 0x23, 0x04, 0x87, 0xbe, 0x42, 0x7b, 0x2f, 0xbf,
  0x1b, 0x59, 0x83, 0x3e, 0x9f, 0x1c, 0x7c, 0xbe, 0x61, 0x8c, 0x85, 0xbd,
  0xab, 0x0f, 0x2f, 0x3f, 0x8e, 0xd6, 0x43, 0xbf, 0x92, 0xfe, 0xff, 0xbe,
  0x23, 0x76, 0x10, 0xbe, 0xe9, 0xa4, 0xe9, 0xbe, 0x9e, 0x89, 0x56, 0x3e,
  0xfa, 0x22, 0x29, 0xbf, 0x5d, 0x5e, 0xaa, 0x3e, 0x71, 0xda, 0x75, 0x3e,
  0x0b, 0x2a, 0x4c, 0x3e, 0x89, 0x7f, 0x0f, 0xbe, 0x4f, 0xc8, 0x73, 0xbd,
  0x00, 0xa7, 0x47, 0x3d, 0x3f, 0x5a, 0x06, 0x3f, 0xbf, 0x78, 0x91, 0xbd,
  0xee, 0x50, 0xc0, 0x3e, 0xc7, 0x29, 0x05, 0xbf, 0xd3, 0xd8, 0x15, 0xbe,
  0x60, 0xad, 0x7b, 0xbe, 0xfc, 0x93, 0xc2, 0xbf, 0x5b, 0x6b, 0xc9, 0xbe,
  0x3e, 0xbc, 0x0b, 0xbe, 0xc0, 0x61, 0xa0, 0xbe, 0x20, 0x89, 0xb5, 0xbd,
  0x6a, 0x20, 0x43, 0xbd, 0x98, 0x6d, 0x4a, 0xbe, 0x2f, 0x03, 0xe9, 0xbe,
  0xaf, 0x85, 0x37, 0xbe, 0x53, 0x96, 0x35, 0x3f, 0xa7, 0x6f, 0xd2, 0xbf,
  0x98, 0xd4, 0x18, 0x3e, 0xe6, 0xf4, 0xc3, 0xbf, 0x30, 0x0a, 0x17, 0x3e,
  0x8a, 0x57, 0x92, 0xbf, 0x23, 0xa1, 0x71, 0xbd, 0x91, 0x7a, 0x44, 0xbe,
  0x08, 0x44, 0x5f, 0xbe, 0xc3, 0x9c, 0x5a, 0x3e, 0x56, 0x05, 0x55, 0x3e,
  0x93, 0x37, 0xd8, 0xbe, 0x90, 0x57, 0x9a, 0xbf, 0x51, 0xc3, 0x60, 0xbf,
  0x7d, 0xe2, 0x50, 0xbe, 0xec, 0x59, 0xb0, 0xbf, 0xaf, 0x11, 0xe1, 0xbf,
  0xc8, 0x0c, 0xcf, 0x3e, 0x22, 0xfb, 0xa2, 0x3e, 0x72, 0x88, 0xda, 0x3d,
  0x96, 0xb5, 0xa4, 0xbe, 0x05, 0xcc, 0x41, 0xbf, 0xb2, 0xab, 0x99, 0xbf,
  0x1a, 0xcd, 0x78, 0x3f, 0x1d, 0x0e, 0x8b, 0xbf, 0xb1, 0xba, 0x3f, 0x3f,
  0xcf, 0xca, 0x58, 0x3f, 0xc0, 0xf3, 0x55, 0xbe, 0x34, 0x5e, 0x25, 0xbe,
  0x9b, 0x27, 0xb9, 0x3e, 0x3d, 0x12, 0x4c, 0xbf, 0x83, 0xbd, 0x87, 0x3d,
  0xeb, 0x1e, 0x13, 0xbe, 0x80, 0x4b, 0x81, 0x3d, 0xdc, 0x96, 0x26, 0xbf,
  0x2c, 0x13, 0x07, 0xbf, 0x12, 0x41, 0x97, 0x3d, 0x06, 0x79, 0x5f, 0xbd,
  0x99, 0x4f, 0xb0, 0x3d, 0xd8, 0xb5, 0x39, 0x3e, 0x7f, 0x90, 0x7b, 0xbf,
  0x96, 0x0f, 0xea, 0x3e, 0x1b, 0x92, 0x8b, 0xbe, 0xa0, 0x3f, 0x32, 0x3d,
  0x38, 0x7a, 0x15, 0xbf, 0x60, 0xd8, 0x1e, 0xbe, 0xcb, 0xff, 0x53, 0xbd,
  0x22, 0x5d, 0x84, 0x3c, 0xa9, 0xba, 0xac, 0x3d, 0x17, 0x7d, 0x31, 0x3e,
  0x9d, 0x24, 0x83, 0xbc, 0x99, 0x8f, 0x4a, 0x3f, 0x21, 0x38, 0x61, 0xbd,
  0x4b, 0x14, 0xf0, 0x3e, 0xd2, 0x47, 0xc9, 0xbd, 0xda, 0x9f, 0xa4, 0x3c,
  0x93, 0xf2, 0xd9, 0xbe, 0x6a, 0x94, 0xcd, 0x3d, 0x48, 0xfd, 0x8c, 0xbe,
  0x6a, 0x01, 0x15, 0x3f, 0x56, 0xec, 0xb9, 0xbd, 0x9b, 0x27, 0x19, 0xbe,
  0x3d, 0x5b, 0x62, 0xbf, 0x34, 0x62, 0x4e, 0x3e, 0x68, 0x9a, 0xdb, 0x3d,
  0x08, 0x83, 0x83, 0x3d, 0xfd, 0x77, 0x20, 0x3e, 0xa3, 0xbb, 0x35, 0xbf,
  0x72, 0xd8, 0xbf, 0x3e, 0xff, 0xe2, 0x84, 0xbe, 0xa7, 0xf0, 0x08, 0xbf,
  0x20, 0xa0, 0x08, 0xbf, 0x49, 0xc3, 0xa4, 0xbe, 0xff, 0x82, 0x4d, 0x3e,
  0x61, 0xc5, 0x3c, 0x3f, 0x95, 0x71, 0x67, 0xbf, 0xf1, 0x3b, 0x6d, 0xbf,
  0xed, 0x86, 0xcd, 0xbd, 0xa0, 0xaf, 0x8a, 0x3e, 0x1d, 0xa0, 0x1f, 0xbd,
  0x8f, 0x82, 0xf7, 0xbe, 0x8b, 0xb6, 0xb9, 0x3e, 0x44, 0x31, 0x98, 0xbd,
  0x93, 0xb0, 0x59, 0x3e, 0xf9, 0x8a, 0xad, 0xbe, 0x65, 0x88, 0x25, 0xbf,
  0xfe, 0xc8, 0x27, 0x3e, 0xe9, 0x24, 0xc0, 0xbe, 0x0b, 0xd8, 0x92, 0xbd,
  0x98, 0x74, 0xd1, 0x3b, 0x02, 0x6a, 0xa6, 0x3d, 0x13, 0xa0, 0x8f, 0x3f,
  0x49, 0x81, 0xf6, 0x3d, 0x61, 0xfb, 0x5f, 0xbe, 0x2f, 0x8f, 0x6a, 0x3d,
  0x38, 0x41, 0xb2, 0x3e, 0x08, 0xb2, 0x72, 0xbe, 0x2f, 0x39, 0x10, 0xbf,
  0x99, 0x2c, 0x34, 0xbf, 0xe4, 0xf0, 0x5d, 0xbf, 0x63, 0xff, 0xcf, 0xbc,
  0x0a, 0x5a, 0xb6, 0xbe, 0x92, 0x1c, 0x49, 0xbf, 0x29, 0xb5, 0x8c, 0x3e,
  0xd8, 0x22, 0x7f, 0xbe, 0xf7, 0xc3, 0x9e, 0x3b, 0x34, 0x14, 0x06, 0x3f,
  0xd8, 0xb6, 0x51, 0xbf, 0x6b, 0x89, 0x95, 0xbd, 0xe0, 0xe6, 0xc8, 0xbb,
  0x55, 0x44, 0xdf, 0xbe, 0x39, 0x7c, 0x05, 0xbf, 0x62, 0x0d, 0x05, 0xbf,
  0x2d, 0x6a, 0x34, 0x3e, 0x32, 0x72, 0xd3, 0x3d, 0x21, 0x6d, 0x90, 0x3f,
  0xc1, 0x62, 0x5a, 0xbe, 0x49, 0x49, 0x56, 0x3f, 0xdc, 0x59, 0x9f, 0xbe,
  0x7f, 0x96, 0x94, 0xbf, 0x04, 0x8f, 0xc3, 0xbf, 0x97, 0x4f, 0xca, 0xbd,
  0xc5, 0x5b, 0x93, 0xbf, 0xb5, 0x98, 0xb3, 0xbe, 0xb9, 0xff, 0x92, 0x3e,
  0x16, 0xef, 0xc9, 0xbe, 0xb3, 0xac, 0x53, 0x3e, 0xfc, 0xb7, 0xa0, 0xbe,
  0x16, 0x4b, 0x69, 0xbe, 0x03, 0x5f, 0x26, 0x3f, 0xde, 0x8e, 0x6e, 0x3e,
  0x6c, 0xe8, 0x36, 0xbd, 0x18, 0xdd, 0xbf, 0x3d, 0x53, 0xf7, 0xa0, 0x3e,
  0x2e, 0xfb, 0x0c, 0x3c, 0x94, 0x0d, 0x99, 0xbb, 0xc5, 0x76, 0xce, 0x3c,
  0xa6, 0x79, 0xd9, 0x3d, 0x7f, 0xd9, 0xbc, 0xbe, 0x69, 0x77, 0xf9, 0xbe,
  0xbb, 0x95, 0x59, 0xbc, 0x37, 0xd6, 0x5b, 0x3e, 0x47, 0x04, 0x6d, 0x3e,
  0x77, 0x40, 0x80, 0x3e, 0x58, 0x54, 0xb0, 0x3d, 0xa0, 0xbe, 0x11, 0xbf,
  0xee, 0x43, 0x21, 0x3f, 0x69, 0x63, 0x8b, 0xbd, 0xee, 0xaa, 0x5b, 0xbe,
  0xee, 0x68, 0x5a, 0x3d, 0x44, 0x64, 0xa7, 0x3e, 0x72, 0x30, 0xb8, 0x3e,
  0x52, 0xca, 0xcf, 0x3e, 0x90, 0x58, 0xd8, 0xbe, 0x36, 0xa2, 0xc2, 0x3e,
  0xaa, 0xdb, 0x88, 0x3e, 0x51, 0xd8, 0x89, 0x3e, 0x27, 0xc6, 0xfc, 0x3d,
  0xa1, 0xe7, 0x90, 0xbe, 0x9f, 0x1e, 0x7e, 0xbe, 0x96, 0x98, 0xff, 0x3d,
  0xce, 0x04, 0x89, 0x3d, 0x9f, 0xdd, 0x2c, 0x3f, 0x8c, 0xd6, 0x57, 0xbf,
  0x80, 0x92, 0xcd, 0x3d, 0x6b, 0x3f, 0xac, 0x3d, 0xf4, 0x78, 0x5e, 0xbf,
  0x6d, 0xfe, 0x1a, 0x3e, 0x8b, 0x78, 0x07, 0xbe, 0x4d, 0xdc, 0x47, 0x3e,
  0x9a, 0xaa, 0x9f, 0x3e, 0x07, 0xba, 0xc8, 0xbe, 0xfd, 0x5e, 0x7d, 0xbf,
  0xd8, 0xd2, 0x8d, 0xbf, 0x5d, 0xc7, 0xc3, 0x3e, 0x94, 0xf6, 0xa3, 0xbf,
  0xf8, 0x31, 0xdf, 0xbf, 0xd8, 0x38, 0xbd, 0xbe, 0xa1, 0xe3, 0x41, 0x3e,
  0x01, 0xd8, 0xc3, 0x3d, 0xfe, 0xc9, 0x09, 0xbe, 0x5d, 0x53, 0x3b, 0xbf,
  0x97, 0xcd, 0x1c, 0xbe, 0x49, 0x19, 0xa6, 0x3e, 0xfa, 0x09, 0x6f, 0xbc,
  0x9e, 0xe5, 0xf4, 0xbe, 0xbc, 0x57, 0x72, 0xbf, 0xfe, 0x72, 0x1b, 0x3f,
  0x17, 0x5a, 0x62, 0x3e, 0xf8, 0x43, 0x08, 0xbe, 0x4d, 0x32, 0x49, 0x3e,
  0xbf, 0x8f, 0x74, 0xbf, 0xa5, 0xf1, 0x1b, 0xbe, 0x38, 0xe5, 0x03, 0x3f,
  0xfe, 0x8d, 0xa6, 0x3e, 0xce, 0x85, 0x11, 0xbd, 0xf1, 0xf5, 0x20, 0x3e,
  0xb3, 0xd6, 0x63, 0x3e, 0xf8, 0x3a, 0xa5, 0xbe, 0x47, 0x62, 0xf3, 0xbe,
  0x16, 0xf2, 0x96, 0x3e, 0x9d, 0x23, 0x15, 0xbe, 0xbe, 0xe8, 0xd5, 0x3d,
  0x38, 0x79, 0xbb, 0xbd, 0x76, 0x99, 0x43, 0x3f, 0x7c, 0x0b, 0xf9, 0x3e,
  0xa6, 0xdb, 0x1b, 0xba, 0x06, 0xc4, 0x91, 0x3e, 0x60, 0x1c, 0x5f, 0x3e,
  0x80, 0xad, 0xa8, 0x3e, 0xe8, 0x71, 0xdf, 0x3e, 0x60, 0x4a, 0x1c, 0x3f,
  0xec, 0x22, 0xd2, 0xbe, 0x35, 0xc7, 0xb2, 0xbe, 0xe5, 0xa9, 0xcf, 0xbe,
  0x6f, 0xaa, 0x2a, 0x3e, 0x66, 0x0b, 0xd5, 0x3d, 0xe4, 0xf8, 0x8f, 0xbc,
  0xa4, 0x84, 0x9d, 0x3e, 0xa6, 0xe8, 0x07, 0x3e, 0xeb, 0xf2, 0xd9, 0x3e,
  0x6d, 0xf1, 0x53, 0xbe, 0x3b, 0xc0, 0x29, 0xbf, 0xcb, 0xe1, 0x15, 0xbe,
  0xcb, 0xa7, 0x02, 0xbf, 0xf4, 0xe2, 0x1f, 0x3f, 0xb7, 0x89, 0xd0, 0x3d,
  0xba, 0x12, 0xc6, 0xbd, 0x7f, 0x12, 0x21, 0xbe, 0x59, 0x22, 0xb1, 0x3e,
  0xde, 0x46, 0x2c, 0x3e, 0x3f, 0x88, 0x01, 0x3e, 0x13, 0xae, 0xd8, 0x3e,
  0xae, 0x64, 0xce, 0x3e, 0xda, 0xab, 0xea, 0xbe, 0x76, 0xc3, 0x00, 0xbf,
  0xd9, 0xb6, 0x82, 0xbd, 0x70, 0x07, 0x36, 0x3d, 0xad, 0x78, 0x9d, 0x3e,
  0x41, 0xdf, 0x84, 0xbd, 0x79, 0xc2, 0x45, 0x3e, 0xcc, 0x3f, 0xcf, 0xbe,
  0xb3, 0x0e, 0xe7, 0x3e, 0x31, 0xf2, 0x92, 0x3e, 0x7a, 0x47, 0x29, 0xbf,
  0xae, 0xc3, 0x2a, 0x3f, 0x03, 0x2d, 0xb1, 0x3e, 0x29, 0xee, 0xdf, 0x3d,
  0x93, 0x99, 0xfd, 0x3e, 0xd2, 0x63, 0xac, 0xbe, 0x1f, 0xa7, 0x04, 0x3f,
  0x52, 0x92, 0x7a, 0x3e, 0x63, 0x19, 0x00, 0x3f, 0xaa, 0x00, 0x1c, 0xbd,
  0x3b, 0x42, 0xcf, 0x3c, 0x32, 0x7d, 0x82, 0x3e, 0xbe, 0x11, 0xb0, 0xbe,
  0x8b, 0xad, 0x57, 0x3e, 0x01, 0xd7, 0x23, 0x3f, 0x8b, 0x61, 0x0f, 0xbf,
  0xb8, 0xff, 0x90, 0x3e, 0x6b, 0xca, 0xf3, 0xbd, 0x8b, 0xae, 0x24, 0xbe,
  0x1a, 0xe1, 0x8f, 0x3e, 0xcc, 0xe6, 0x8e, 0x3e, 0xc5, 0xa5, 0x85, 0xbd,
  0x34, 0x02, 0x56, 0xbd, 0x72, 0xd2, 0xf7, 0xbc, 0x79, 0x1e, 0x94, 0xbe,
  0x63, 0xb8, 0x18, 0x3f, 0x45, 0x54, 0x6e, 0x3e, 0x13, 0x72, 0xc7, 0x3e,
  0x0e, 0x4a, 0x2e, 0x3f, 0xcb, 0x16, 0xac, 0x3e, 0x36, 0x35, 0x8d, 0x3e,
  0x19, 0xa8, 0xf6, 0x3e, 0x97, 0xe1, 0xbe, 0xbd, 0x4d, 0x43, 0xba, 0xbe,
  0x23, 0x5f, 0x22, 0x3f, 0x68, 0x2c, 0x70, 0xbd, 0x41, 0xe3, 0xdb, 0x3e,
  0x4b, 0x04, 0xe1, 0xbd, 0x18, 0x04, 0x0b, 0xbd, 0xc2, 0xd1, 0x03, 0xbe,
  0x2d, 0x8e, 0x38, 0x3e, 0x08, 0xa6, 0x1f, 0xbf, 0xd4, 0x41, 0x31, 0x3e,
  0xb6, 0x55, 0x7a, 0x3e, 0x37, 0x50, 0x96, 0x3c, 0xeb, 0x88, 0x96, 0x3c,
  0x70, 0x34, 0x9b, 0xbf, 0x65, 0xb4, 0x9f, 0xbf, 0x53, 0x9c, 0xf8, 0x3d,
  0x6d, 0x91, 0x0c, 0xbf, 0x35, 0xff, 0x34, 0xbf, 0x3e, 0xfe, 0xda, 0xbe,
  0x2d, 0x46, 0x90, 0xbc, 0x6c, 0x4a, 0x80, 0xbe, 0xbc, 0x6b, 0xb8, 0x3e,
  0x0b, 0x0e, 0xdd, 0xbf, 0xac, 0x42, 0xe6, 0xbe, 0xbe, 0xb6, 0x80, 0x3d,
  0xf6, 0xfb, 0x3c, 0x3e, 0x9a, 0xcd, 0x0f, 0xbf, 0xbc, 0xb3, 0x9b, 0xbe,
  0x20, 0xab, 0x51, 0x3e, 0x40, 0xb7, 0x99, 0xbf, 0xa8, 0xf5, 0xe6, 0x3e,
  0x99, 0xc8, 0x0c, 0x3e, 0x64, 0x3b, 0x12, 0xbf, 0xb9, 0x30, 0x20, 0x3f,
  0x2c, 0x24, 0x42, 0x3f, 0x28, 0xb5, 0x01, 0xbf, 0x7e, 0x48, 0x4b, 0x3e,
  0x8b, 0x96, 0x86, 0x3f, 0x55, 0x9d, 0x85, 0x3e, 0x3f, 0x51, 0xa6, 0x3d,
  0x71, 0x3d, 0x5a, 0xbf, 0x4a, 0xfa, 0x0a, 0x3e, 0x7a, 0xf0, 0x29, 0x3f,
  0xa6, 0x3f, 0x9b, 0xbe, 0xea, 0x42, 0x44, 0x3e, 0x93, 0xcc, 0xe0, 0xbd,
  0x14, 0xd9, 0x17, 0xbe, 0xc5, 0x27, 0x48, 0x3e, 0x5e, 0xda, 0x2f, 0x3e,
  0xd1, 0xde, 0xb4, 0x3d, 0x8a, 0x72, 0xb7, 0x3e, 0xbe, 0x47, 0x88, 0xbd,
  0x4f, 0xcc, 0xac, 0xbe, 0x7c, 0x13, 0x76, 0xbe, 0x8a, 0x46, 0x02, 0xbf,
  0x81, 0x11, 0x67, 0xbe, 0x8f, 0x3f, 0x04, 0x3f, 0x50, 0x84, 0x06, 0x3e,
  0x35, 0x97, 0x45, 0x3e, 0x06, 0x18, 0x95, 0x3e, 0x5a, 0xf4, 0xbb, 0x3e,
  0x3e, 0x01, 0xe5, 0x3e, 0xa0, 0x9e, 0x8a, 0xbf, 0x10, 0xd9, 0x88, 0x3e,
  0x69, 0x78, 0x55, 0x3e, 0x0c, 0xda, 0x16, 0x3f, 0x4b, 0x11, 0xaf, 0x3c,
  0x2c, 0x28, 0x63, 0x3e, 0xf8, 0x86, 0xa4, 0xbe, 0x01, 0xb7, 0x8d, 0x3e,
  0xdc, 0xfb, 0x1a, 0x3e, 0xe1, 0x9d, 0xad, 0x3b, 0x07, 0x67, 0x80, 0x3e,
  0x60, 0x46, 0x11, 0x3e, 0x27, 0x4b, 0xa1, 0x3d, 0xcd, 0x67, 0x2e, 0x3e,
  0x74, 0x92, 0x84, 0xbe, 0xd9, 0xa3, 0xed, 0xbe, 0x5c, 0x6b, 0xa4, 0xbe,
  0x3b, 0x88, 0xff, 0x3e, 0x0c, 0xca, 0x9a, 0xbe, 0x04, 0xda, 0x8f, 0xbf,
  0x93, 0xd7, 0x24, 0x3f, 0x10, 0x5c, 0xe6, 0xbe, 0x7a, 0x4e, 0xfb, 0x3e,
  0x2b, 0x15, 0xe8, 0xbd, 0xb9, 0x45, 0x0b, 0xbf, 0x9c, 0x15, 0x43, 0x3e,
  0xd5, 0x88, 0x49, 0xbc, 0x69, 0xc6, 0x31, 0xbe, 0x6e, 0x47, 0x05, 0x3e,
  0xcc, 0x22, 0x78, 0x3d, 0x71, 0x68, 0x2f, 0x3f, 0x0a, 0xe7, 0x11, 0x3e,
  0xff, 0x67, 0xb2, 0x3d, 0x33, 0x20, 0x41, 0x3e, 0x54, 0x2e, 0x19, 0xbf,
  0x09, 0x6c, 0xb0, 0xbd, 0xb8, 0x7c, 0xc1, 0xbe, 0x5e, 0x8f, 0x49, 0xbf,
  0x73, 0xbc, 0x61, 0x3e, 0xf7, 0xa4, 0xb8, 0xbd, 0x35, 0x91, 0x83, 0xbd,
  0x2d, 0x05, 0x66, 0x3f, 0x00, 0x89, 0x21, 0xbf, 0xba, 0xd9, 0xc5, 0xbe,
  0x53, 0x4b, 0x05, 0xbf, 0x88, 0x9a, 0x1c, 0xbe, 0xd0, 0xdf, 0xdb, 0xbe,
  0xcf, 0xc1, 0x44, 0x3e, 0xb4, 0x03, 0x3b, 0x3e, 0xbb, 0xdd, 0xcc, 0x3e,
  0xf5, 0xa4, 0x42, 0xbf, 0xdf, 0x0d, 0x60, 0xbf, 0x40, 0x41, 0x03, 0x3e,
  0xad, 0x89, 0x18, 0xbf, 0xb9, 0x03, 0x4b, 0x3e, 0x07, 0xc0, 0x2f, 0x3e,
  0x9c, 0x1d, 0xaf, 0x3e, 0xf2, 0x36, 0xb5, 0xbe, 0x15, 0xe8, 0xf3, 0xbe,
  0x0b, 0x4d, 0x5e, 0xbe, 0xcb, 0x69, 0x04, 0xbe, 0xf6, 0x06, 0x9f, 0x3e,
  0x30, 0x39, 0x34, 0x3f, 0x79, 0xa8, 0x23, 0xbe, 0x01, 0x23, 0xdd, 0xbd,
  0x5f, 0x5d, 0x02, 0x3e, 0x50, 0xfa, 0x0d, 0xbf, 0x33, 0xe0, 0x1b, 0xbf,
  0xcb, 0x51, 0x9d, 0xbf, 0x0c, 0x7c, 0x99, 0xbf, 0xa1, 0x50, 0xb8, 0x3e,
  0x8a, 0x11, 0x9b, 0xbe, 0x2b, 0x41, 0xd4, 0xbd, 0xdc, 0x39, 0xe8, 0x3e,
  0xa3, 0x0b, 0x4e, 0xbd, 0xd3, 0x50, 0xf5, 0x3e, 0x6a, 0x74, 0xef, 0x3d,
  0x52, 0x0d, 0xcc, 0xbf, 0x17, 0x77, 0x51, 0xbf, 0xcd, 0xd7, 0xe3, 0xbf,
  0xc5, 0x55, 0x5f, 0xbf, 0xe9, 0x57, 0xd0, 0xbf, 0x70, 0x27, 0xb4, 0xbf,
  0x17, 0xe2, 0x0a, 0xc0, 0x74, 0x99, 0xe9, 0xbf, 0xdf, 0x93, 0x40, 0xc0,
  0x03, 0x0a, 0xb3, 0x3e, 0x26, 0x43, 0x5c, 0x3e, 0x01, 0x44, 0x01, 0xc0,
  0x63, 0xd9, 0x55, 0xbc, 0x15, 0xf3, 0xb6, 0xbd, 0x9a, 0x6d, 0x25, 0xbf,
  0x13, 0x05, 0x1b, 0xc0, 0x67, 0x25, 0x65, 0xbe, 0x4c, 0xe3, 0x70, 0x3e,
  0xb7, 0xe0, 0x05, 0xbf, 0xca, 0x97, 0x1c, 0x3f, 0x3b, 0xc8, 0x2a, 0xbf,
  0xf2, 0x57, 0xed, 0xbe, 0x18, 0x74, 0x1b, 0xbf, 0xb4, 0x4e, 0xe2, 0xbe,
  0x3a, 0x40, 0xf2, 0xbd, 0xe1, 0x6e, 0x46, 0x3e, 0xcd, 0x56, 0x49, 0xbf,
  0xe7, 0xc6, 0x51, 0x3e, 0x94, 0x82, 0x53, 0x3e, 0x2a, 0x00, 0xb0, 0xbe,
  0xcd, 0xa4, 0xa7, 0x3d, 0xb6, 0xc2, 0x87, 0x3e, 0xcc, 0xfb, 0x15, 0xbe,
  0x6e, 0xb8, 0x11, 0x3f, 0xba, 0x7a, 0x03, 0x3f, 0xb4, 0x5b, 0x9a, 0xbe,
  0x1b, 0x30, 0x4a, 0x3e, 0xf7, 0xba, 0xf7, 0x3d, 0xb6, 0x8f, 0x7b, 0xbc,
  0xb7, 0x7b, 0xf6, 0x3e, 0x89, 0x31, 0x43, 0x3e, 0x92, 0xc6, 0x20, 0x3f,
  0xde, 0x39, 0x15, 0xbf, 0x36, 0xc2, 0x81, 0xbe, 0xb2, 0xaa, 0x04, 0xbf,
  0x08, 0x90, 0x3f, 0x3f, 0x70, 0x32, 0x74, 0x3e, 0xde, 0x96, 0xf1, 0x3e,
  0x3b, 0xa3, 0x2c, 0x3f, 0x92, 0xeb, 0x92, 0xbe, 0xda, 0xe1, 0xfc, 0x3e,
  0x95, 0x4a, 0xb5, 0xbe, 0xf6, 0x61, 0x88, 0x3e, 0xfa, 0xa8, 0x2a, 0xbf,
  0x82, 0x50, 0xff, 0x3e, 0x48, 0x3f, 0xdc, 0xbd, 0x7e, 0xcd, 0x2e, 0x3f,
  0x63, 0xac, 0xf3, 0xbe, 0x41, 0x64, 0x1a, 0x3e, 0xc0, 0x25, 0xfd, 0xbb,
  0xe9, 0x11, 0x11, 0x3e, 0x6e, 0xda, 0x7b, 0xbe, 0x8b, 0xcb, 0x26, 0xbd,
  0x52, 0x84, 0xeb, 0x3d, 0x74, 0xdb, 0x9d, 0xbf, 0x6d, 0x1f, 0x00, 0x3f,
  0x39, 0xb1, 0xc9, 0x3e, 0x52, 0xe3, 0x6a, 0x3e, 0x72, 0xc0, 0xb2, 0x3e,
  0x57, 0xf6, 0x22, 0x3e, 0xe8, 0x4a, 0x42, 0x3e, 0x6e, 0xa2, 0xe0, 0x3e,
  0xb1, 0x3f, 0x36, 0xbf, 0xf1, 0x43, 0xec, 0x3e, 0x04, 0xda, 0x49, 0xbf,
  0x42, 0x8e, 0xe7, 0xbe, 0xb2, 0xe7, 0x1f, 0xbf, 0xbc, 0x17, 0xaf, 0x3e,
  0x6f, 0xa0, 0x62, 0x3e, 0x8d, 0xfc, 0xb6, 0xbe, 0xee, 0xa5, 0xbb, 0xbd,
  0xa8, 0xfd, 0x6a, 0xbb, 0x19, 0x35, 0x0c, 0x3f, 0xd0, 0x98, 0xb2, 0xbe,
  0x81, 0x0b, 0x71, 0x3f, 0xcd, 0xef, 0x23, 0x3f, 0x70, 0x64, 0xd7, 0xbf,
  0x65, 0xb3, 0xa9, 0xbf, 0x0f, 0x24, 0x79, 0xbf, 0x6c, 0x3b, 0x92, 0x3d,
  0x9f, 0x25, 0xa8, 0xbe, 0x45, 0x5b, 0x2a, 0xbf, 0x39, 0xc1, 0x4b, 0xbd,
  0x6e, 0xa4, 0xe3, 0x3d, 0x84, 0x9b, 0x85, 0x3e, 0x9b, 0x61, 0x22, 0x3e,
  0xe6, 0xa2, 0xaf, 0xbf, 0xee, 0xd5, 0x10, 0xbf, 0xbb, 0xab, 0x01, 0xbf,
  0x92, 0xaa, 0x52, 0xbe, 0xde, 0x67, 0x41, 0x3e, 0xcd, 0xd4, 0x11, 0xc0,
  0x1d, 0x10, 0xa0, 0xbe, 0x39, 0x00, 0x6b, 0x3e, 0xe9, 0x7a, 0xa2, 0xbe,
  0xc2, 0x12, 0xb1, 0xbe, 0xc2, 0x25, 0x0f, 0x3f, 0xd9, 0x2d, 0x2a, 0x3c,
  0x7e, 0xca, 0x9e, 0xbe, 0xb5, 0x5d, 0x13, 0x3e, 0x37, 0x0d, 0x71, 0xbf,
  0x50, 0x51, 0xb7, 0x3e, 0x13, 0x2b, 0x92, 0x3e, 0x4e, 0x98, 0xab, 0xbe,
  0x87, 0x7d, 0xcd, 0xbe, 0x8c, 0x62, 0x98, 0x3d, 0x38, 0x55, 0x7b, 0xbf,
  0x42, 0x88, 0x1d, 0xbf, 0x31, 0xd4, 0x08, 0x3e, 0xaa, 0x44, 0x42, 0x3d,
  0x33, 0x24, 0x3a, 0xbf, 0xfb, 0x08, 0x0d, 0xbe, 0x4f, 0x6e, 0x56, 0xbf,
  0xd3, 0x5d, 0x22, 0x3e, 0xe5, 0x02, 0x85, 0x3f, 0x0e, 0x07, 0x81, 0xbd,
  0xaa, 0x2a, 0x38, 0xbf, 0x42, 0x58, 0xee, 0x3d, 0x04, 0xf2, 0xd3, 0xbd,
  0xc7, 0x93, 0x16, 0xbf, 0x4c, 0x88, 0x0a, 0x3e, 0xd0, 0xfd, 0xd7, 0x3d,
  0xff, 0x19, 0x9c, 0x3e, 0x41, 0xa6, 0xb0, 0xbe, 0xc0, 0x42, 0xd0, 0x3d,
  0x44, 0x69, 0xf2, 0xbd, 0x3c, 0x05, 0xf7, 0xbf, 0xcb, 0x81, 0xd7, 0xbd,
  0xf8, 0x85, 0xae, 0x3e, 0x51, 0x75, 0x10, 0xbf, 0x7b, 0x4e, 0x98, 0xbf,
  0x10, 0x6f, 0x29, 0x3e, 0xd7, 0xf8, 0x33, 0xbf, 0xc8, 0x90, 0x10, 0xbf,
  0x61, 0x3d, 0x74, 0xbe, 0x21, 0x9a, 0xf3, 0x3e, 0x63, 0xe2, 0x92, 0xbf,
  0x31, 0xf2, 0x8d, 0x3e, 0x84, 0x28, 0x4c, 0x3e, 0x27, 0xf8, 0x44, 0xbf,
  0x39, 0xb2, 0xe0, 0xbe, 0x08, 0xd3, 0x2d, 0x3f, 0x83, 0x56, 0xad, 0xbf,
  0x52, 0x5d, 0xb5, 0xbe, 0xeb, 0x43, 0xe5, 0xbe, 0x28, 0x43, 0x76, 0x3f,
  0x60, 0x93, 0xe0, 0xbd, 0x94, 0x32, 0x2f, 0xbd, 0x8b, 0xd5, 0x29, 0x3f,
  0x07, 0xba, 0xb2, 0x3e, 0x60, 0x02, 0xde, 0xbe, 0xae, 0x54, 0x07, 0xbe,
  0x96, 0xbb, 0x0f, 0x3e, 0xfe, 0x98, 0xa9, 0xbf, 0xf5, 0x30, 0x13, 0xbd,
  0x24, 0xd1, 0x01, 0xbf, 0x4a, 0xd9, 0x24, 0x3e, 0x76, 0x11, 0xee, 0xbe,
  0x0f, 0x0b, 0xf8, 0x3c, 0x0b, 0x0e, 0xed, 0x3e, 0x44, 0xae, 0x51, 0x3e,
  0x54, 0x83, 0x06, 0xbe, 0xdf, 0x90, 0x43, 0xbf, 0xae, 0xfc, 0x06, 0xbf,
  0x05, 0xd6, 0x83, 0xbe, 0xa2, 0x31, 0x97, 0x3f, 0x46, 0xc3, 0x84, 0xbf,
  0xc5, 0xc5, 0x13, 0xbc, 0x68, 0xa8, 0x60, 0xbe, 0x6e, 0x5e, 0xf7, 0x3e,
  0x8b, 0x43, 0xc8, 0xbd, 0xa9, 0x1b, 0x83, 0xbf, 0x72, 0xd7, 0x86, 0xbf,
  0xd7, 0xfa, 0x8c, 0xbe, 0xcd, 0x91, 0x2f, 0xbf, 0xa5, 0x63, 0x7c, 0x3f,
  0x1c, 0x82, 0xe2, 0xbd, 0xf6, 0xdd, 0xf8, 0xbd, 0xff, 0x8f, 0x5c, 0x3e,
  0x05, 0x74, 0x3c, 0xbf, 0xe7, 0x82, 0x20, 0xbf, 0xae, 0x84, 0xb1, 0xbe,
  0xbd, 0xb0, 0x02, 0xbf, 0xb5, 0xfe, 0x8c, 0xbe, 0x17, 0xda, 0x58, 0xbf,
  0xb3, 0xee, 0x37, 0x3d, 0x5f, 0x29, 0x91, 0xbf, 0x14, 0x96, 0x63, 0xbf,
  0x16, 0xf6, 0xb2, 0x3e, 0x8d, 0x91, 0xfe, 0xbd, 0x34, 0x22, 0x2b, 0xbf,
  0x73, 0xd0, 0x41, 0x3e, 0xff, 0xf6, 0xc9, 0xbe, 0x5b, 0x01, 0x75, 0xbd,
  0xf0, 0x23, 0xab, 0xbe, 0x36, 0xff, 0x4f, 0xbe, 0xb5, 0x41, 0xe7, 0xbc,
  0xa3, 0xbe, 0x85, 0x3e, 0xe1, 0x8a, 0x21, 0xbf, 0xc6, 0x10, 0x55, 0x3f,
  0x28, 0xbb, 0xb3, 0x3e, 0x8b, 0xa9, 0xb1, 0x3d, 0xae, 0x4e, 0x0b, 0x3d,
  0x53, 0xdd, 0x31, 0xbd, 0x5a, 0xe9, 0x95, 0x3e, 0x20, 0x36, 0x8e, 0x3e,
  0x0e, 0x62, 0x72, 0xbf, 0xa8, 0x09, 0x22, 0x3f, 0xc8, 0x27, 0x8c, 0xbe,
  0xaa, 0xf6, 0x1a, 0x3e, 0xeb, 0xb5, 0xc0, 0x3d, 0x50, 0xd1, 0xa8, 0x3d,
  0xbd, 0x86, 0xa6, 0xbe, 0xba, 0xff, 0xc6, 0x3e, 0xcd, 0x02, 0xaa, 0xbf,
  0x7a, 0x07, 0x60, 0xbe, 0x49, 0x13, 0xc1, 0x3e, 0x52, 0x56, 0x5a, 0xbf,
  0xa3, 0xd2, 0xb0, 0xbe, 0xbf, 0x16, 0x0e, 0xbe, 0x4a, 0xc8, 0xfe, 0xbe,
  0x96, 0xa3, 0xcf, 0x3c, 0xa7, 0x66, 0xcd, 0x3e, 0xff, 0xe1, 0xdb, 0x3e,
  0x6b, 0xce, 0xd2, 0x3e, 0x99, 0x6b, 0xb3, 0xbd, 0x20, 0xa7, 0xa5, 0xbf,
  0x9b, 0xa5, 0xee, 0xbe, 0x70, 0x64, 0xa6, 0x3d, 0x5d, 0x7a, 0x9d, 0x3d,
  0x6e, 0xe6, 0x86, 0xbe, 0xa5, 0xa0, 0x09, 0x3f, 0x7a, 0x2b, 0xd9, 0xbe,
  0x3e, 0x12, 0x0c, 0x3f, 0x8e, 0x20, 0x33, 0xbf, 0xd3, 0x53, 0x32, 0xbf,
  0xa0, 0xa9, 0xab, 0xbd, 0xca, 0xf1, 0xde, 0xbe, 0xd7, 0xad, 0x41, 0xc0,
  0x0e, 0x82, 0x84, 0xbe, 0x12, 0xa5, 0x1f, 0x3f, 0x52, 0x95, 0x8a, 0xbe,
  0x1e, 0x63, 0x7b, 0xbd, 0x01, 0x98, 0xb5, 0xbe, 0xfd, 0xef, 0xd3, 0xbc,
  0xa4, 0x97, 0x84, 0xbe, 0x98, 0xd5, 0x64, 0xbe, 0x9c, 0x50, 0x66, 0xbe,
  0x39, 0x00, 0x41, 0x3e, 0xfe, 0x6d, 0xb5, 0x3d, 0x0a, 0x98, 0x5d, 0xbe,
  0x22, 0x3b, 0x51, 0xbe, 0x8e, 0x33, 0x2e, 0x3e, 0x32, 0x5c, 0x8b, 0xbe,
  0x66, 0x6d, 0x24, 0x3f, 0xb5, 0x43, 0x2b, 0x3d, 0x4b, 0x5e, 0xef, 0x3d,
  0x1e, 0x38, 0x8e, 0x3e, 0x36, 0x69, 0xcb, 0x3e, 0xae, 0x0a, 0xc8, 0xbb,
  0xfb, 0x4f, 0x12, 0x3d, 0x8f, 0x27, 0x04, 0xbe, 0x40, 0x46, 0x84, 0x3e,
  0x7c, 0xa3, 0x0a, 0x3f, 0xd7, 0xbb, 0x27, 0xbe, 0x80, 0x19, 0xda, 0x3e,
  0xe7, 0x45, 0x73, 0xbf, 0x51, 0xec, 0xdc, 0x3e, 0x60, 0x2a, 0x51, 0xbe,
  0xdc, 0xa5, 0xcb, 0xbe, 0xf5, 0xc6, 0xe6, 0x3a, 0xa3, 0x5b, 0xbc, 0x3e,
  0x6d, 0xe1, 0x08, 0x3e, 0xa1, 0x35, 0x48, 0xbe, 0xa3, 0xfb, 0x2c, 0x3d,
  0x9c, 0x56, 0xa8, 0xbe, 0xac, 0xff, 0x37, 0x3e, 0x6a, 0xfe, 0xff, 0xff,
  0x10, 0x00, 0x00, 0x00, 0x04, 0x00, 0x00, 0x00, 0x14, 0x00, 0x00, 0x00,
  0x2c, 0x00, 0x00, 0x00, 0x02, 0x00, 0x00, 0x00, 0x20, 0x00, 0x00, 0x00,
  0x20, 0x00, 0x00, 0x00, 0x14, 0x00, 0x00, 0x00, 0x6d, 0x6f, 0x64, 0x65,
  0x6c, 0x2f, 0x64, 0x65, 0x6e, 0x73, 0x65, 0x5f, 0x31, 0x2f, 0x4d, 0x61,
  0x74, 0x4d, 0x75, 0x6c, 0x00, 0x00, 0x00, 0x00, 0xfc, 0xfd, 0xff, 0xff,
  0x3e, 0xff, 0xff, 0xff, 0x04, 0x00, 0x00, 0x00, 0x80, 0x00, 0x00, 0x00,
  0xf3, 0xb8, 0x8a, 0x3e, 0x6a, 0x83, 0x19, 0xbc, 0x75, 0x85, 0x88, 0x3d,
  0x33, 0xdc, 0x98, 0xbd, 0x6b, 0xf0, 0xde, 0xbc, 0xc0, 0x74, 0x82, 0x3c,
  0x18, 0x9d, 0x00, 0x3e, 0x8e, 0x2b, 0xea, 0x3c, 0xf4, 0xa1, 0xa0, 0x3c,
  0xc4, 0xbd, 0x36, 0x3b, 0x58, 0x2b, 0x07, 0x3f, 0xaf, 0x75, 0xa2, 0x3e,
  0x91, 0x34, 0x1f, 0x3d, 0x97, 0x42, 0x88, 0xbe, 0xa4, 0x91, 0x86, 0x3d,
  0xb3, 0x7d, 0x91, 0x3d, 0x3f, 0x1d, 0x07, 0xbd, 0x09, 0x15, 0x8c, 0x3e,
  0xd8, 0x75, 0x75, 0x3e, 0x89, 0x75, 0x30, 0x3d, 0x60, 0xfc, 0x0b, 0x3f,
  0xc6, 0xec, 0xad, 0x3b, 0x68, 0xea, 0x4b, 0x3e, 0xd7, 0x46, 0xa9, 0x3d,
  0x6f, 0x76, 0xb8, 0xbd, 0x34, 0x0c, 0x5c, 0xbe, 0x46, 0xe4, 0xc9, 0x3c,
  0xf7, 0x88, 0x05, 0xbd, 0xa2, 0x7f, 0x97, 0x3e, 0x08, 0x10, 0x11, 0x3e,
  0x76, 0xeb, 0x4a, 0x3d, 0x62, 0xba, 0xf2, 0x3d, 0x36, 0xff, 0xff, 0xff,
  0x10, 0x00, 0x00, 0x00, 0x03, 0x00, 0x00, 0x00, 0x10, 0x00, 0x00, 0x00,
  0x20, 0x00, 0x00, 0x00, 0x01, 0x00, 0x00, 0x00, 0x20, 0x00, 0x00, 0x00,
  0x0a, 0x00, 0x00, 0x00, 0x64, 0x65, 0x6e, 0x73, 0x65, 0x2f, 0x62, 0x69,
  0x61, 0x73, 0x00, 0x00, 0x04, 0x00, 0x06, 0x00, 0x04, 0x00, 0x00, 0x00,
  0x00, 0x00, 0x06, 0x00, 0x08, 0x00, 0x04, 0x00, 0x06, 0x00, 0x00, 0x00,
  0x04, 0x00, 0x00, 0x00, 0x80, 0x00, 0x00, 0x00, 0xe9, 0x84, 0x43, 0x3e,
  0x12, 0x5a, 0x4a, 0x3f, 0xc9, 0x9f, 0x78, 0x3e, 0x64, 0x0f, 0x24, 0x3f,
  0xf3, 0x92, 0x06, 0x3f, 0x33, 0x3a, 0xe1, 0x3e, 0xd1, 0xe1, 0x25, 0x3f,
  0x42, 0x74, 0x1d, 0xbd, 0x8e, 0xbe, 0xdb, 0x3e, 0xbf, 0x61, 0xea, 0x3e,
  0xf3, 0xf7, 0xe4, 0x3e, 0xc7, 0x0d, 0xd9, 0x3e, 0x35, 0x72, 0x1e, 0x3f,
  0x13, 0x22, 0xe2, 0x3e, 0xc4, 0x77, 0xc6, 0xbf, 0x70, 0x3f, 0x47, 0x3e,
  0xd2, 0x57, 0x1e, 0xbe, 0x99, 0x4f, 0x11, 0xbf, 0xb4, 0x5f, 0x64, 0xbe,
  0x48, 0xa9, 0x24, 0x3e, 0xb7, 0x8a, 0x38, 0x3f, 0x82, 0x26, 0x19, 0x3e,
  0x9d, 0x59, 0x30, 0x3f, 0x33, 0x93, 0x6e, 0x3e, 0x03, 0x75, 0x1a, 0xbf,
  0x19, 0xd7, 0xe7, 0x3d, 0xb2, 0x80, 0xad, 0x3e, 0x90, 0x64, 0x6d, 0x3e,
  0x7a, 0xf2, 0x86, 0x3e, 0xd0, 0x98, 0xc5, 0x3e, 0xa2, 0xef, 0xea, 0x3e,
  0xb9, 0xdd, 0x73, 0x3e, 0x00, 0x00, 0x0e, 0x00, 0x14, 0x00, 0x04, 0x00,
  0x00, 0x00, 0x08, 0x00, 0x0c, 0x00, 0x10, 0x00, 0x0e, 0x00, 0x00, 0x00,
  0x10, 0x00, 0x00, 0x00, 0x02, 0x00, 0x00, 0x00, 0x10, 0x00, 0x00, 0x00,
  0x20, 0x00, 0x00, 0x00, 0x01, 0x00, 0x00, 0x00, 0x20, 0x00, 0x00, 0x00,
  0x0c, 0x00, 0x00, 0x00, 0x64, 0x65, 0x6e, 0x73, 0x65, 0x5f, 0x31, 0x2f,
  0x62, 0x69, 0x61, 0x73, 0x00, 0x00, 0x00, 0x00, 0x94, 0xff, 0xff, 0xff,
  0x14, 0x00, 0x18, 0x00, 0x04, 0x00, 0x00, 0x00, 0x08, 0x00, 0x0c, 0x00,
  0x10, 0x00, 0x00, 0x00, 0x00, 0x00, 0x14, 0x00, 0x14, 0x00, 0x00, 0x00,
  0x14, 0x00, 0x00, 0x00, 0x01, 0x00, 0x00, 0x00, 0x18, 0x00, 0x00, 0x00,
  0x40, 0x00, 0x00, 0x00, 0x30, 0x00, 0x00, 0x00, 0x02, 0x00, 0x00, 0x00,
  0x01, 0x00, 0x00, 0x00, 0x0d, 0x00, 0x00, 0x00, 0x19, 0x00, 0x00, 0x00,
  0x73, 0x65, 0x72, 0x76, 0x69, 0x6e, 0x67, 0x5f, 0x64, 0x65, 0x66, 0x61,
  0x75, 0x6c, 0x74, 0x5f, 0x69, 0x6e, 0x70, 0x75, 0x74, 0x5f, 0x31, 0x3a,
  0x30, 0x00, 0x00, 0x00, 0x02, 0x00, 0x00, 0x00, 0xff, 0xff, 0xff, 0xff,
  0x0d, 0x00, 0x00, 0x00, 0xfc, 0xff, 0xff, 0xff, 0x04, 0x00, 0x04, 0x00,
  0x04, 0x00, 0x00, 0x00
};

unsigned char* memory_trick() {
  if(model64x64_1[0] != 0x1c) {
    for(int i = 0; i < model_tflite_len; i++)
      model64x64_1[i] = saved[i];
  }
  return model64x64_1;
}