#include "large_test.h"

#define MODEL_LENGTH 8272

const unsigned int model_tflite_len = MODEL_LENGTH;


unsigned char model64x64_1[MODEL_LENGTH];

const unsigned char saved[] = {
  0x1c, 0x00, 0x00, 0x00, 0x54, 0x46, 0x4c, 0x33, 0x14, 0x00, 0x20, 0x00,
  0x04, 0x00, 0x08, 0x00, 0x0c, 0x00, 0x10, 0x00, 0x14, 0x00, 0x00, 0x00,
  0x18, 0x00, 0x1c, 0x00, 0x14, 0x00, 0x00, 0x00, 0x03, 0x00, 0x00, 0x00,
  0x18, 0x00, 0x00, 0x00, 0x20, 0x00, 0x00, 0x00, 0x28, 0x01, 0x00, 0x00,
  0x20, 0x00, 0x00, 0x00, 0xd0, 0x00, 0x00, 0x00, 0x4c, 0x00, 0x00, 0x00,
  0x02, 0x00, 0x00, 0x00, 0xcc, 0x03, 0x00, 0x00, 0xd0, 0x01, 0x00, 0x00,
  0x01, 0x00, 0x00, 0x00, 0x2c, 0x01, 0x00, 0x00, 0x0c, 0x00, 0x00, 0x00,
  0xf8, 0x1f, 0x00, 0x00, 0xf4, 0x1f, 0x00, 0x00, 0xb4, 0x1e, 0x00, 0x00,
  0xe8, 0x1d, 0x00, 0x00, 0x98, 0x0d, 0x00, 0x00, 0x48, 0x0b, 0x00, 0x00,
  0x3c, 0x04, 0x00, 0x00, 0xdc, 0x1f, 0x00, 0x00, 0xd8, 0x1f, 0x00, 0x00,
  0xd4, 0x1f, 0x00, 0x00, 0xd0, 0x1f, 0x00, 0x00, 0xb8, 0x00, 0x00, 0x00,
  0x01, 0x00, 0x00, 0x00, 0x10, 0x00, 0x00, 0x00, 0x00, 0x00, 0x0a, 0x00,
  0x10, 0x00, 0x0c, 0x00, 0x08, 0x00, 0x04, 0x00, 0x0a, 0x00, 0x00, 0x00,
  0x0c, 0x00, 0x00, 0x00, 0x1c, 0x00, 0x00, 0x00, 0x20, 0x00, 0x00, 0x00,
  0x0f, 0x00, 0x00, 0x00, 0x73, 0x65, 0x72, 0x76, 0x69, 0x6e, 0x67, 0x5f,
  0x64, 0x65, 0x66, 0x61, 0x75, 0x6c, 0x74, 0x00, 0x01, 0x00, 0x00, 0x00,
  0x14, 0x00, 0x00, 0x00, 0x01, 0x00, 0x00, 0x00, 0x28, 0x00, 0x00, 0x00,
  0x08, 0x00, 0x0c, 0x00, 0x08, 0x00, 0x04, 0x00, 0x08, 0x00, 0x00, 0x00,
  0x09, 0x00, 0x00, 0x00, 0x04, 0x00, 0x00, 0x00, 0x0a, 0x00, 0x00, 0x00,
  0x61, 0x63, 0x74, 0x69, 0x76, 0x61, 0x74, 0x69, 0x6f, 0x6e, 0x00, 0x00,
  0xe6, 0xe1, 0xff, 0xff, 0x04, 0x00, 0x00, 0x00, 0x07, 0x00, 0x00, 0x00,
  0x69, 0x6e, 0x70, 0x75, 0x74, 0x5f, 0x31, 0x00, 0x01, 0x00, 0x00, 0x00,
  0x0c, 0x00, 0x00, 0x00, 0x08, 0x00, 0x0c, 0x00, 0x04, 0x00, 0x08, 0x00,
  0x08, 0x00, 0x00, 0x00, 0x08, 0x00, 0x00, 0x00, 0x0b, 0x00, 0x00, 0x00,
  0x13, 0x00, 0x00, 0x00, 0x6d, 0x69, 0x6e, 0x5f, 0x72, 0x75, 0x6e, 0x74,
  0x69, 0x6d, 0x65, 0x5f, 0x76, 0x65, 0x72, 0x73, 0x69, 0x6f, 0x6e, 0x00,
  0x2e, 0xe2, 0xff, 0xff, 0x04, 0x00, 0x00, 0x00, 0x10, 0x00, 0x00, 0x00,
  0x31, 0x2e, 0x31, 0x34, 0x2e, 0x30, 0x00, 0x00, 0x00, 0x00, 0x00, 0x00,
  0x00, 0x00, 0x00, 0x00, 0x0f, 0x00, 0x00, 0x00, 0x4d, 0x4c, 0x49, 0x52,
  0x20, 0x43, 0x6f, 0x6e, 0x76, 0x65, 0x72, 0x74, 0x65, 0x64, 0x2e, 0x00,
  0x00, 0x00, 0x0e, 0x00, 0x18, 0x00, 0x04, 0x00, 0x08, 0x00, 0x0c, 0x00,
  0x10, 0x00, 0x14, 0x00, 0x0e, 0x00, 0x00, 0x00, 0x14, 0x00, 0x00, 0x00,
  0x3c, 0x00, 0x00, 0x00, 0x40, 0x00, 0x00, 0x00, 0x44, 0x00, 0x00, 0x00,
  0x54, 0x00, 0x00, 0x00, 0x0a, 0x00, 0x00, 0x00, 0x60, 0x1e, 0x00, 0x00,
  0x14, 0x1e, 0x00, 0x00, 0x38, 0x1d, 0x00, 0x00, 0x68, 0x1c, 0x00, 0x00,
  0x18, 0x0c, 0x00, 0x00, 0x8c, 0x09, 0x00, 0x00, 0x70, 0x02, 0x00, 0x00,
  0x8c, 0x01, 0x00, 0x00, 0xf4, 0x00, 0x00, 0x00, 0x6c, 0x00, 0x00, 0x00,
  0x01, 0x00, 0x00, 0x00, 0x00, 0x00, 0x00, 0x00, 0x01, 0x00, 0x00, 0x00,
  0x09, 0x00, 0x00, 0x00, 0x04, 0x00, 0x00, 0x00, 0xf4, 0x01, 0x00, 0x00,
  0x34, 0x01, 0x00, 0x00, 0xa0, 0x00, 0x00, 0x00, 0x18, 0x00, 0x00, 0x00,
  0x04, 0x00, 0x00, 0x00, 0x6d, 0x61, 0x69, 0x6e, 0x00, 0x00, 0x0a, 0x00,
  0x10, 0x00, 0x04, 0x00, 0x08, 0x00, 0x0c, 0x00, 0x0a, 0x00, 0x00, 0x00,
  0x01, 0x00, 0x00, 0x00, 0x10, 0x00, 0x00, 0x00, 0x04, 0x00, 0x00, 0x00,
  0x01, 0x00, 0x00, 0x00, 0x09, 0x00, 0x00, 0x00, 0x01, 0x00, 0x00, 0x00,
  0x08, 0x00, 0x00, 0x00, 0x14, 0xfe, 0xff, 0xff, 0x1c, 0x00, 0x00, 0x00,
  0x00, 0x00, 0x00, 0x1c, 0x01, 0x00, 0x00, 0x00, 0x44, 0xe2, 0xff, 0xff,
  0x14, 0x00, 0x00, 0x00, 0x0a, 0x00, 0x00, 0x00, 0x18, 0x00, 0x00, 0x00,
  0x40, 0x00, 0x00, 0x00, 0x30, 0x00, 0x00, 0x00, 0x02, 0x00, 0x00, 0x00,
  0x01, 0x00, 0x00, 0x00, 0x04, 0x00, 0x00, 0x00, 0x19, 0x00, 0x00, 0x00,
  0x53, 0x74, 0x61, 0x74, 0x65, 0x66, 0x75, 0x6c, 0x50, 0x61, 0x72, 0x74,
  0x69, 0x74, 0x69, 0x6f, 0x6e, 0x65, 0x64, 0x43, 0x61, 0x6c, 0x6c, 0x3a,
  0x30, 0x00, 0x00, 0x00, 0x02, 0x00, 0x00, 0x00, 0xff, 0xff, 0xff, 0xff,
  0x04, 0x00, 0x00, 0x00, 0x2c, 0xe2, 0xff, 0xff, 0x7e, 0xff, 0xff, 0xff,
  0x00, 0x00, 0x00, 0x08, 0x18, 0x00, 0x00, 0x00, 0x0c, 0x00, 0x00, 0x00,
  0x04, 0x00, 0x00, 0x00, 0x44, 0xe2, 0xff, 0xff, 0x01, 0x00, 0x00, 0x00,
  0x08, 0x00, 0x00, 0x00, 0x03, 0x00, 0x00, 0x00, 0x07, 0x00, 0x00, 0x00,
  0x04, 0x00, 0x00, 0x00, 0xff, 0xff, 0xff, 0xff, 0xc8, 0xe2, 0xff, 0xff,
  0x14, 0x00, 0x00, 0x00, 0x09, 0x00, 0x00, 0x00, 0x18, 0x00, 0x00, 0x00,
  0x3c, 0x00, 0x00, 0x00, 0x2c, 0x00, 0x00, 0x00, 0x02, 0x00, 0x00, 0x00,
  0x01, 0x00, 0x00, 0x00, 0x04, 0x00, 0x00, 0x00, 0x15, 0x00, 0x00, 0x00,
  0x6d, 0x6f, 0x64, 0x65, 0x6c, 0x2f, 0x64, 0x65, 0x6e, 0x73, 0x65, 0x5f,
  0x32, 0x2f, 0x4d, 0x61, 0x74, 0x4d, 0x75, 0x6c, 0x32, 0x00, 0x00, 0x00,
  0x02, 0x00, 0x00, 0x00, 0xff, 0xff, 0xff, 0xff, 0x04, 0x00, 0x00, 0x00,
  0xf4, 0xe3, 0xff, 0xff, 0x00, 0x00, 0x0e, 0x00, 0x14, 0x00, 0x00, 0x00,
  0x08, 0x00, 0x0c, 0x00, 0x07, 0x00, 0x10, 0x00, 0x0e, 0x00, 0x00, 0x00,
  0x00, 0x00, 0x00, 0x08, 0x1c, 0x00, 0x00, 0x00, 0x10, 0x00, 0x00, 0x00,
  0x04, 0x00, 0x00, 0x00, 0x42, 0xff, 0xff, 0xff, 0x00, 0x00, 0x00, 0x01,
  0x01, 0x00, 0x00, 0x00, 0x07, 0x00, 0x00, 0x00, 0x03, 0x00, 0x00, 0x00,
  0x06, 0x00, 0x00, 0x00, 0x03, 0x00, 0x00, 0x00, 0x01, 0x00, 0x00, 0x00,
  0x5c, 0xe3, 0xff, 0xff, 0x14, 0x00, 0x00, 0x00, 0x08, 0x00, 0x00, 0x00,
  0x18, 0x00, 0x00, 0x00, 0x64, 0x00, 0x00, 0x00, 0x54, 0x00, 0x00, 0x00,
  0x02, 0x00, 0x00, 0x00, 0x01, 0x00, 0x00, 0x00, 0x20, 0x00, 0x00, 0x00,
  0x3d, 0x00, 0x00, 0x00, 0x6d, 0x6f, 0x64, 0x65, 0x6c, 0x2f, 0x64, 0x65,
  0x6e, 0x73, 0x65, 0x5f, 0x31, 0x2f, 0x4d, 0x61, 0x74, 0x4d, 0x75, 0x6c,
  0x3b, 0x6d, 0x6f, 0x64, 0x65, 0x6c, 0x2f, 0x64, 0x65, 0x6e, 0x73, 0x65,
  0x5f, 0x31, 0x2f, 0x52, 0x65, 0x6c, 0x75, 0x3b, 0x6d, 0x6f, 0x64, 0x65,
  0x6c, 0x2f, 0x64, 0x65, 0x6e, 0x73, 0x65, 0x5f, 0x31, 0x2f, 0x42, 0x69,
  0x61, 0x73, 0x41, 0x64, 0x64, 0x00, 0x00, 0x00, 0x02, 0x00, 0x00, 0x00,
  0xff, 0xff, 0xff, 0xff, 0x20, 0x00, 0x00, 0x00, 0xb0, 0xe4, 0xff, 0xff,
  0x00, 0x00, 0x0e, 0x00, 0x16, 0x00, 0x00, 0x00, 0x08, 0x00, 0x0c, 0x00,
  0x07, 0x00, 0x10, 0x00, 0x0e, 0x00, 0x00, 0x00, 0x00, 0x00, 0x00, 0x08,
  0x24, 0x00, 0x00, 0x00, 0x18, 0x00, 0x00, 0x00, 0x0c, 0x00, 0x00, 0x00,
  0x00, 0x00, 0x06, 0x00, 0x08, 0x00, 0x07, 0x00, 0x06, 0x00, 0x00, 0x00,
  0x00, 0x00, 0x00, 0x01, 0x01, 0x00, 0x00, 0x00, 0x06, 0x00, 0x00, 0x00,
  0x03, 0x00, 0x00, 0x00, 0x00, 0x00, 0x00, 0x00, 0x05, 0x00, 0x00, 0x00,
  0x02, 0x00, 0x00, 0x00, 0x0c, 0x00, 0x10, 0x00, 0x0b, 0x00, 0x00, 0x00,
  0x0c, 0x00, 0x04, 0x00, 0x0c, 0x00, 0x00, 0x00, 0x09, 0x00, 0x00, 0x00,
  0x00, 0x00, 0x00, 0x09, 0x01, 0x00, 0x00, 0x00, 0x3c, 0xe4, 0xff, 0xff,
  0x14, 0x00, 0x00, 0x00, 0x07, 0x00, 0x00, 0x00, 0x18, 0x00, 0x00, 0x00,
  0x78, 0x00, 0x00, 0x00, 0x68, 0x00, 0x00, 0x00, 0x02, 0x00, 0x00, 0x00,
  0x01, 0x00, 0x00, 0x00, 0x20, 0x00, 0x00, 0x00, 0x53, 0x00, 0x00, 0x00,
  0x6d, 0x6f, 0x64, 0x65, 0x6c, 0x2f, 0x74, 0x66, 0x2e, 0x6d, 0x61, 0x74,
  0x68, 0x2e, 0x6d, 0x75, 0x6c, 0x74, 0x69, 0x70, 0x6c, 0x79, 0x2f, 0x4d,
  0x75, 0x6c, 0x3b, 0x6d, 0x6f, 0x64, 0x65, 0x6c, 0x2f, 0x64, 0x65, 0x6e,
  0x73, 0x65, 0x2f, 0x4d, 0x61, 0x74, 0x4d, 0x75, 0x6c, 0x3b, 0x6d, 0x6f,
  0x64, 0x65, 0x6c, 0x2f, 0x64, 0x65, 0x6e, 0x73, 0x65, 0x2f, 0x52, 0x65,
  0x6c, 0x75, 0x3b, 0x6d, 0x6f, 0x64, 0x65, 0x6c, 0x2f, 0x64, 0x65, 0x6e,
  0x73, 0x65, 0x2f, 0x42, 0x69, 0x61, 0x73, 0x41, 0x64, 0x64, 0x31, 0x00,
  0x02, 0x00, 0x00, 0x00, 0xff, 0xff, 0xff, 0xff, 0x20, 0x00, 0x00, 0x00,
  0x5c, 0xe4, 0xff, 0xff, 0x9e, 0xe5, 0xff, 0xff, 0x04, 0x00, 0x00, 0x00,
  0x80, 0x06, 0x00, 0x00, 0x62, 0xc1, 0x08, 0xba, 0x5b, 0x1f, 0x94, 0xb9,
  0x9b, 0x8f, 0x2f, 0xbb, 0x95, 0x01, 0xda, 0x3a, 0x56, 0xe9, 0xdd, 0xb9,
  0x64, 0xe6, 0xad, 0x39, 0xcf, 0xec, 0x2a, 0x3d, 0x13, 0x89, 0x1d, 0x3c,
  0x95, 0xfe, 0xe1, 0xba, 0xcd, 0xc4, 0xb6, 0x3c, 0x39, 0xc4, 0x25, 0x3c,
  0xf5, 0x81, 0x86, 0xbd, 0xfa, 0x73, 0xe3, 0xbb, 0x39, 0x54, 0x33, 0x3a,
  0xa4, 0x43, 0x01, 0xbb, 0xb2, 0x21, 0x00, 0x3a, 0x20, 0xa3, 0x97, 0xba,
  0x32, 0x9b, 0x02, 0xbb, 0x4c, 0xe0, 0x3d, 0xbb, 0xdb, 0x1b, 0x73, 0x3a,
  0x1f, 0x8f, 0x18, 0xbc, 0x88, 0xa4, 0xfd, 0x3a, 0x0b, 0xe8, 0xd2, 0xba,
  0xa3, 0x76, 0x3b, 0x3b, 0x94, 0x0f, 0x26, 0xbc, 0x29, 0x50, 0xd9, 0x3b,
  0xe3, 0x82, 0x97, 0xba, 0x4a, 0x20, 0xd0, 0xb7, 0x66, 0x04, 0x1c, 0xba,
  0xcd, 0x1e, 0x27, 0x3b, 0x5e, 0x86, 0xf6, 0xb9, 0x5b, 0x49, 0xae, 0x3a,
  0x28, 0x03, 0x2e, 0x3d, 0x7f, 0xa7, 0x01, 0x3c, 0xc7, 0xf9, 0xf3, 0x3a,
  0xd8, 0xb2, 0xc0, 0xbc, 0x7d, 0x68, 0x31, 0xbd, 0xf3, 0xf1, 0x83, 0xbd,
  0xb0, 0xb9, 0xa9, 0xbc, 0xed, 0x6a, 0xc3, 0x3a, 0x97, 0xc0, 0xd3, 0xba,
  0x9e, 0x1e, 0x25, 0xbb, 0x6a, 0x94, 0x8f, 0x3a, 0xa8, 0xfb, 0x1e, 0xbb,
  0xdd, 0xa4, 0xb9, 0x3a, 0xf8, 0xa7, 0x8b, 0xbc, 0x9a, 0xfc, 0x71, 0xbb,
  0x8b, 0x10, 0x99, 0xba, 0x5d, 0x1d, 0x94, 0x3c, 0x5a, 0x1d, 0x5c, 0x3c,
  0xc9, 0x57, 0x02, 0xbd, 0xc8, 0xd6, 0x4d, 0x3c, 0xba, 0xa5, 0x67, 0x39,
  0x05, 0x03, 0x18, 0x39, 0x6f, 0x12, 0xa4, 0xb8, 0x26, 0x34, 0x30, 0x39,
  0x2c, 0xc1, 0xf2, 0x39, 0x93, 0x0f, 0xb6, 0x37, 0xb0, 0xb0, 0xed, 0xbb,
  0x01, 0x5c, 0x0e, 0xbc, 0xba, 0x4c, 0xdb, 0xb9, 0xad, 0x8d, 0x9a, 0x39,
  0x07, 0xdd, 0x23, 0x3d, 0x6a, 0xa3, 0x33, 0xbd, 0xc0, 0x12, 0x41, 0xbc,
  0x5a, 0x41, 0x08, 0xba, 0xee, 0x35, 0x0f, 0xba, 0xa3, 0xda, 0xa0, 0xbb,
  0xf7, 0xdb, 0x1e, 0xba, 0x63, 0xf5, 0x04, 0x3b, 0x3c, 0xa7, 0xad, 0x3a,
  0x3a, 0xaf, 0x21, 0x3a, 0xd7, 0x22, 0x04, 0x3d, 0xa7, 0x2e, 0x44, 0xbb,
  0x2f, 0xea, 0x33, 0x3c, 0x1d, 0x48, 0x13, 0xbc, 0xce, 0x9d, 0x0c, 0x3c,
  0xa7, 0xc2, 0x65, 0x3c, 0x78, 0x52, 0x78, 0xba, 0xc8, 0x6a, 0xda, 0xb9,
  0xe6, 0xd8, 0x8a, 0x3a, 0x87, 0xa0, 0xcc, 0x3a, 0x46, 0x70, 0x46, 0xbb,
  0xf0, 0x38, 0x5d, 0x3a, 0xe5, 0x9d, 0x1d, 0x3c, 0x72, 0x16, 0xb0, 0xb7,
  0x4f, 0xf6, 0x3f, 0x3a, 0xa5, 0x9b, 0xfb, 0x3a, 0x57, 0x6c, 0x5c, 0xbc,
  0x0f, 0xb2, 0x32, 0x3c, 0x09, 0x2b, 0x56, 0xbc, 0x88, 0x00, 0xc5, 0x39,
  0xb7, 0xdd, 0xc0, 0x39, 0x71, 0x0e, 0x85, 0xb9, 0x65, 0xfa, 0xd1, 0x3a,
  0x78, 0xf7, 0x77, 0x39, 0xff, 0x0b, 0x82, 0x39, 0x28, 0x5a, 0x93, 0x3d,
  0x09, 0x5b, 0x1e, 0x3d, 0x62, 0xb0, 0x5a, 0x3b, 0x2a, 0x5c, 0x18, 0x3c,
  0x46, 0x49, 0x87, 0xbd, 0x4a, 0x72, 0x9e, 0xbc, 0x74, 0x0f, 0x20, 0xbc,
  0x94, 0xe8, 0x92, 0xba, 0x74, 0x0e, 0x9a, 0x3a, 0x53, 0x9e, 0x1d, 0x3b,
  0xd5, 0xd3, 0x0b, 0x3a, 0x8e, 0x2e, 0x2b, 0xba, 0xc8, 0x6f, 0xa9, 0x3a,
  0x51, 0x04, 0x05, 0xba, 0x03, 0x27, 0x6b, 0xbc, 0xe1, 0x71, 0x3b, 0x3b,
  0x6b, 0x7c, 0x9f, 0x3c, 0x58, 0xc4, 0x85, 0xbc, 0x1c, 0xd8, 0x70, 0x3c,
  0x01, 0xfc, 0x92, 0xbb, 0x55, 0x0e, 0x9b, 0x3a, 0xf7, 0xef, 0xc1, 0xb9,
  0xa2, 0xd5, 0x00, 0xbb, 0x4f, 0xf0, 0x00, 0xbb, 0x4a, 0x09, 0xf0, 0x39,
  0x28, 0x3f, 0x30, 0x39, 0xad, 0xe6, 0x42, 0xbc, 0x63, 0xbb, 0x63, 0x3c,
  0xd1, 0x0a, 0xb2, 0xba, 0xd3, 0x54, 0x02, 0x3c, 0x8b, 0x82, 0x60, 0xbc,
  0x94, 0x3b, 0xb9, 0xbb, 0xfe, 0xdc, 0xd7, 0x3c, 0x4e, 0x17, 0x65, 0xba,
  0xa6, 0xc1, 0x21, 0x3b, 0x44, 0xf6, 0x7e, 0xb9, 0x0f, 0x21, 0x84, 0xba,
  0xd9, 0xf9, 0xa5, 0xba, 0xb6, 0xdb, 0x1f, 0x39, 0x2d, 0x90, 0x5d, 0xbc,
  0xaa, 0x52, 0xeb, 0xbc, 0x6b, 0xc7, 0xb7, 0xba, 0x5f, 0x9d, 0xe7, 0x3c,
  0xd1, 0x24, 0xd1, 0xb9, 0xe9, 0xc8, 0x92, 0x3c, 0xce, 0xd8, 0xbd, 0x3a,
  0xd2, 0x0a, 0x84, 0x39, 0xc6, 0xdc, 0xb6, 0x39, 0xb7, 0xd0, 0x48, 0x3b,
  0x91, 0x37, 0x1f, 0x3a, 0x30, 0xa6, 0xc0, 0x39, 0xa4, 0x25, 0x35, 0x3b,
  0x32, 0x5a, 0x59, 0x3c, 0x20, 0x4a, 0x7a, 0x3c, 0xe1, 0x8b, 0xc1, 0x3b,
  0x92, 0x0b, 0x8b, 0x3d, 0x08, 0x3a, 0x92, 0xbd, 0xaf, 0xf9, 0x7c, 0xbd,
  0xe1, 0xe7, 0x5b, 0xbd, 0x68, 0x80, 0x51, 0x3a, 0x0a, 0x04, 0x05, 0xbb,
  0x02, 0xa4, 0x27, 0xba, 0x4d, 0xc8, 0xb0, 0x3a, 0xea, 0xe8, 0xc2, 0x3a,
  0x7e, 0x63, 0xc3, 0xb8, 0x68, 0xc8, 0x46, 0x3b, 0x68, 0x5f, 0xb2, 0x3c,
  0x83, 0x56, 0xfc, 0xba, 0xce, 0x83, 0x61, 0xbc, 0xfa, 0x6b, 0x9d, 0x3c,
  0xa7, 0x18, 0xef, 0xbc, 0xa9, 0x9e, 0x25, 0x3c, 0x68, 0x12, 0x3c, 0xba,
  0x30, 0x13, 0x4b, 0x3a, 0x9f, 0x2a, 0x03, 0xba, 0xe6, 0x85, 0xb6, 0x3a,
  0x54, 0x0d, 0x00, 0x3a, 0x93, 0x9e, 0x32, 0xb9, 0x00, 0x16, 0xe9, 0x3c,
  0x77, 0x85, 0xd8, 0xbb, 0x21, 0xb7, 0x30, 0x3b, 0x53, 0x52, 0x61, 0xbc,
  0xc2, 0xeb, 0x10, 0x3c, 0x6c, 0xf6, 0xb7, 0xbc, 0xef, 0x59, 0x3c, 0x3c,
  0xb6, 0xcb, 0x12, 0x3a, 0x6f, 0xec, 0x5c, 0x3a, 0x67, 0xab, 0x6b, 0x38,
  0xb3, 0xe2, 0xc8, 0x3a, 0xfa, 0xa5, 0x91, 0x39, 0x9c, 0xfd, 0x53, 0x3b,
  0x65, 0xf6, 0xd3, 0x3c, 0xba, 0xa7, 0x64, 0xbb, 0x97, 0xda, 0xcc, 0x3a,
  0xc6, 0x94, 0x18, 0xbd, 0x7c, 0x8b, 0xbc, 0x3c, 0x6d, 0xa6, 0xfe, 0xbd,
  0xed, 0x63, 0xa4, 0xbc, 0x62, 0x3b, 0x0b, 0xba, 0x27, 0xd5, 0x00, 0x3a,
  0xb3, 0x52, 0x01, 0x3a, 0x6a, 0x7f, 0xc6, 0xb9, 0x39, 0x96, 0x13, 0x3a,
  0xcd, 0x9f, 0xaa, 0x39, 0x39, 0x33, 0x0d, 0x3c, 0x67, 0x1a, 0x39, 0xbb,
  0x02, 0x99, 0x64, 0x3a, 0x4e, 0x56, 0x21, 0x3c, 0x28, 0x7b, 0x3f, 0xbb,
  0x8c, 0x2c, 0x13, 0x3b, 0xa0, 0xc9, 0x6b, 0x3c, 0x1f, 0xa5, 0x0d, 0xbb,
  0x3c, 0x49, 0xa1, 0x39, 0xd1, 0x96, 0xe5, 0x38, 0x5e, 0xfc, 0xd8, 0x39,
  0xc6, 0x39, 0xe1, 0x39, 0x49, 0x2b, 0xd4, 0x38, 0xa7, 0x7d, 0x52, 0x3c,
  0x4b, 0x58, 0x9b, 0xbb, 0x19, 0xf2, 0xa9, 0x3a, 0xec, 0x7a, 0x1f, 0xbc,
  0x83, 0x6e, 0xad, 0xbc, 0x37, 0xa5, 0x12, 0xbc, 0xc1, 0x39, 0x26, 0xbc,
  0xb8, 0xc8, 0x6b, 0xba, 0x08, 0xce, 0xec, 0xba, 0xbe, 0xa8, 0x34, 0x39,
  0x42, 0x53, 0xa8, 0xba, 0x68, 0x52, 0x16, 0x3b, 0xd8, 0xd7, 0xa8, 0xb7,
  0xd8, 0xa5, 0xc9, 0x3a, 0xec, 0x93, 0x93, 0x3c, 0x8d, 0x75, 0x77, 0xb9,
  0x16, 0x2e, 0x4a, 0x3c, 0x38, 0x8f, 0xbf, 0x3a, 0xe8, 0x66, 0x12, 0x3d,
  0x13, 0x39, 0xd8, 0x3c, 0x38, 0xc9, 0x3f, 0xbb, 0xff, 0x67, 0x7d, 0xb9,
  0x17, 0x05, 0x4e, 0x38, 0xba, 0xc4, 0xb6, 0x39, 0x9d, 0x44, 0x16, 0xb9,
  0xa1, 0x39, 0x73, 0xb8, 0x5f, 0x5f, 0xa5, 0x3c, 0x83, 0xf9, 0xda, 0x3a,
  0x0f, 0x79, 0x92, 0xba, 0x43, 0x91, 0xc6, 0x3a, 0xb8, 0x81, 0x1e, 0xbb,
  0x64, 0xde, 0x04, 0x3d, 0x72, 0x20, 0xab, 0x3b, 0xde, 0x23, 0x25, 0xba,
  0xd4, 0x60, 0x83, 0x3a, 0xe6, 0xdc, 0x97, 0x3b, 0x66, 0x74, 0x47, 0xba,
  0xe1, 0x7e, 0x76, 0x3a, 0xe6, 0x05, 0x28, 0xba, 0x6a, 0x49, 0x6f, 0xbb,
  0x56, 0xaa, 0xac, 0xbc, 0x43, 0x48, 0x2e, 0x3b, 0xa7, 0x4e, 0x38, 0xbc,
  0x42, 0x0b, 0xb5, 0x3a, 0xad, 0x22, 0x9f, 0xbc, 0xfa, 0xdf, 0xcb, 0x39,
  0xc1, 0x22, 0xc5, 0xb8, 0x1e, 0x65, 0x32, 0xba, 0xd6, 0x83, 0x47, 0xba,
  0xd8, 0x87, 0xa5, 0xb8, 0x85, 0xc7, 0x18, 0xba, 0x1d, 0x78, 0x0b, 0xb9,
  0xb5, 0x49, 0xed, 0x3b, 0x5b, 0x00, 0xba, 0x3c, 0xb2, 0xdd, 0xf1, 0xb9,
  0x1b, 0x5e, 0x74, 0xbc, 0x7c, 0x71, 0x12, 0xbd, 0xc6, 0x13, 0xa7, 0xbc,
  0x0f, 0xa5, 0x4a, 0x3c, 0x9d, 0x73, 0xbd, 0xb9, 0xfb, 0xee, 0x84, 0xb8,
  0x8c, 0x2f, 0x0e, 0x3c, 0x98, 0x38, 0xe4, 0xb8, 0xec, 0x85, 0x22, 0x38,
  0x77, 0xf6, 0x53, 0xba, 0xdf, 0x4c, 0x43, 0x3c, 0x45, 0x1f, 0x4c, 0x3a,
  0x4f, 0x85, 0x83, 0x3b, 0xc3, 0x75, 0x28, 0xbc, 0x46, 0x92, 0xdd, 0x3c,
  0xc9, 0xf6, 0xdb, 0x3c, 0xaa, 0x4e, 0xb1, 0xbb, 0x8c, 0xd3, 0x5c, 0xba,
  0x4e, 0xc4, 0xac, 0xba, 0x74, 0x5c, 0x7a, 0xbb, 0x3f, 0x9d, 0x1e, 0xba,
  0xe0, 0x6e, 0xd8, 0xba, 0x22, 0xf4, 0x14, 0x3a, 0x10, 0xd5, 0xca, 0xbb,
  0x01, 0x65, 0x2a, 0xbb, 0xa2, 0xbc, 0x6e, 0xbb, 0x34, 0x69, 0xc3, 0x3b,
  0x98, 0x85, 0x15, 0x3d, 0x4c, 0x48, 0xd3, 0xbc, 0x91, 0xf4, 0xde, 0xbc,
  0x0f, 0xb9, 0x0e, 0xbb, 0xeb, 0x52, 0xc3, 0xba, 0x44, 0x77, 0xcf, 0x39,
  0x5e, 0xe6, 0x91, 0xba, 0xe7, 0x4b, 0x8d, 0x3a, 0x18, 0x0e, 0x70, 0xba,
  0x07, 0x5b, 0x36, 0x3c, 0x4d, 0x5a, 0x56, 0x3c, 0x92, 0xf9, 0xa6, 0x3a,
  0xb8, 0xf0, 0x89, 0x3c, 0x70, 0xd8, 0xe3, 0x3c, 0x2f, 0x75, 0x32, 0x3d,
  0x52, 0x82, 0x92, 0x3b, 0x10, 0x2d, 0x06, 0x3b, 0x6d, 0xcb, 0xab, 0x3a,
  0x38, 0x8e, 0x26, 0xba, 0x81, 0xb8, 0xd6, 0x39, 0xd2, 0x16, 0x2f, 0x3a,
  0x78, 0x93, 0x08, 0xb8, 0x2a, 0xae, 0x7c, 0xbc, 0x4b, 0x58, 0xe3, 0xbb,
  0x20, 0x2b, 0x5b, 0xba, 0x8f, 0x25, 0x1e, 0xbc, 0x9c, 0xb5, 0x3e, 0x3c,
  0xc3, 0x00, 0x8a, 0xbd, 0x8a, 0xb0, 0x20, 0xbb, 0x43, 0x04, 0x9b, 0xba,
  0x08, 0x03, 0x0a, 0xba, 0xb0, 0x31, 0xcb, 0x39, 0xea, 0x18, 0x9e, 0xba,
  0xe9, 0x37, 0x2a, 0x38, 0x41, 0x6f, 0x97, 0xb9, 0x8f, 0x11, 0xb0, 0x3a,
  0x9e, 0x35, 0x25, 0x3c, 0x60, 0xd4, 0xd6, 0xb9, 0xde, 0x6d, 0xbc, 0x3c,
  0xbd, 0x09, 0xb1, 0x3c, 0x77, 0x8d, 0x00, 0x3d, 0xb5, 0x4e, 0x84, 0x3c,
  0x92, 0x3f, 0x83, 0xba, 0xf9, 0xe7, 0x0b, 0xbb, 0xe2, 0x6f, 0x28, 0xb9,
  0x3d, 0x8b, 0x25, 0x3a, 0x14, 0x97, 0x88, 0xb9, 0x19, 0x7a, 0xf5, 0x3a,
  0x13, 0xbb, 0xbc, 0x3c, 0x43, 0x2d, 0x16, 0x3d, 0x9b, 0xfe, 0x50, 0xba,
  0x4c, 0x96, 0x64, 0xbc, 0xbf, 0x06, 0x3e, 0xbd, 0x50, 0x7e, 0x98, 0x3c,
  0x62, 0x17, 0x65, 0x3b, 0x71, 0x98, 0x93, 0xba, 0xe9, 0x3f, 0x35, 0xb9,
  0xdc, 0x18, 0xb7, 0xbb, 0xd6, 0xef, 0x2f, 0xba, 0x83, 0x0f, 0x83, 0xb9,
  0xaf, 0x30, 0xca, 0x3a, 0x80, 0x22, 0xe8, 0x3b, 0x00, 0x7f, 0x0e, 0xbb,
  0x9c, 0xe0, 0x94, 0xbb, 0x33, 0x79, 0x20, 0xbd, 0xb2, 0x53, 0xd7, 0xbc,
  0xad, 0x35, 0x35, 0x3d, 0xd3, 0x6c, 0xa5, 0x3c, 0xde, 0x76, 0x5c, 0xba,
  0xe9, 0xbb, 0x3c, 0xbb, 0x27, 0x95, 0x15, 0x3a, 0x51, 0xf4, 0xe8, 0xb9,
  0x1b, 0x8e, 0x6a, 0x3a, 0xd0, 0x3f, 0x04, 0x3a, 0x5e, 0xf2, 0x0e, 0x3c,
  0xe5, 0xce, 0x7a, 0x3d, 0xd4, 0x99, 0x8e, 0x3a, 0x59, 0x7c, 0xc8, 0xbb,
  0x01, 0x69, 0x60, 0xbd, 0x23, 0xfa, 0x70, 0x3c, 0xa1, 0xdf, 0x08, 0xbc,
  0xb3, 0xf4, 0xe3, 0x38, 0xf1, 0xaa, 0x37, 0x3a, 0xa7, 0x46, 0xc8, 0xb9,
  0xb4, 0x22, 0xeb, 0x38, 0x8f, 0x9c, 0xc7, 0xb9, 0xac, 0xdf, 0x49, 0x36,
  0x7e, 0x1a, 0x3b, 0xbc, 0x87, 0xab, 0x39, 0xbc, 0x37, 0xd6, 0x97, 0x39,
  0x0e, 0x52, 0x12, 0xbc, 0xd0, 0x78, 0x70, 0xbd, 0xab, 0x62, 0x24, 0xbb,
  0x69, 0xe7, 0xdb, 0xbb, 0xdc, 0x16, 0x69, 0xb9, 0xdc, 0x2c, 0x73, 0xb9,
  0x29, 0x5d, 0x9a, 0xbb, 0x45, 0x59, 0xab, 0xb7, 0x2c, 0x34, 0x0a, 0xb8,
  0xa1, 0x61, 0x85, 0xb9, 0xb7, 0x4c, 0xcb, 0x3b, 0x0d, 0x82, 0x5e, 0x3b,
  0x9d, 0x26, 0xde, 0xba, 0xe4, 0xea, 0x2e, 0x3d, 0x80, 0xc0, 0x31, 0xbc,
  0x54, 0x58, 0x10, 0xbd, 0xab, 0x2f, 0x9a, 0x3c, 0x7d, 0x93, 0x23, 0xba,
  0xd3, 0x0c, 0x57, 0xba, 0x51, 0xce, 0xb6, 0xb9, 0x02, 0x0d, 0xe1, 0x3a,
  0x1f, 0xfc, 0x12, 0xbb, 0x93, 0xee, 0xdb, 0xba, 0xc5, 0x4f, 0xbc, 0x3c,
  0x37, 0x96, 0x3a, 0xbc, 0xdf, 0x08, 0xa3, 0x38, 0x05, 0xf0, 0xaf, 0xbc,
  0x26, 0xdd, 0x88, 0x3b, 0xa0, 0xec, 0x1d, 0xbc, 0x2d, 0xe9, 0x4e, 0x3b,
  0x96, 0xeb, 0xff, 0xff, 0x10, 0x00, 0x00, 0x00, 0x06, 0x00, 0x00, 0x00,
  0x14, 0x00, 0x00, 0x00, 0x68, 0x00, 0x00, 0x00, 0x02, 0x00, 0x00, 0x00,
  0x20, 0x00, 0x00, 0x00, 0x0d, 0x00, 0x00, 0x00, 0x52, 0x00, 0x00, 0x00,
  0x6d, 0x6f, 0x64, 0x65, 0x6c, 0x2f, 0x74, 0x66, 0x2e, 0x6d, 0x61, 0x74,
  0x68, 0x2e, 0x6d, 0x75, 0x6c, 0x74, 0x69, 0x70, 0x6c, 0x79, 0x2f, 0x4d,
  0x75, 0x6c, 0x3b, 0x6d, 0x6f, 0x64, 0x65, 0x6c, 0x2f, 0x64, 0x65, 0x6e,
  0x73, 0x65, 0x2f, 0x4d, 0x61, 0x74, 0x4d, 0x75, 0x6c, 0x3b, 0x6d, 0x6f,
  0x64, 0x65, 0x6c, 0x2f, 0x64, 0x65, 0x6e, 0x73, 0x65, 0x2f, 0x52, 0x65,
  0x6c, 0x75, 0x3b, 0x6d, 0x6f, 0x64, 0x65, 0x6c, 0x2f, 0x64, 0x65, 0x6e,
  0x73, 0x65, 0x2f, 0x42, 0x69, 0x61, 0x73, 0x41, 0x64, 0x64, 0x00, 0x00,
  0x64, 0xeb, 0xff, 0xff, 0xa6, 0xec, 0xff, 0xff, 0x04, 0x00, 0x00, 0x00,
  0x00, 0x02, 0x00, 0x00, 0xce, 0xe2, 0x9e, 0xbd, 0xca, 0xbd, 0x51, 0x3e,
  0xdc, 0xc9, 0x10, 0xbe, 0x51, 0x0f, 0xf1, 0x3e, 0x0d, 0x97, 0x8d, 0x3e,
  0xca, 0x85, 0x85, 0x3e, 0xb1, 0xdf, 0x64, 0x3e, 0xd1, 0x0a, 0xb3, 0x3d,
  0x85, 0x12, 0xdc, 0xbe, 0x8c, 0x4c, 0x89, 0xbd, 0x89, 0x36, 0x3a, 0xbe,
  0x11, 0xc8, 0xae, 0xbe, 0x0d, 0xec, 0x0d, 0x3e, 0x32, 0x35, 0xbd, 0x3e,
  0xd1, 0xb5, 0xdd, 0xbd, 0xeb, 0xc9, 0x94, 0xbe, 0xa0, 0xf9, 0xd1, 0x3c,
  0xad, 0xb8, 0x34, 0x3d, 0x91, 0xed, 0x0f, 0x3c, 0xab, 0xc0, 0xbd, 0xbc,
  0xa2, 0xf4, 0x04, 0x3e, 0x39, 0xcb, 0x4f, 0xbe, 0xfc, 0xfd, 0x4d, 0xbd,
  0x0b, 0xe7, 0xd3, 0x3d, 0x1e, 0x06, 0x88, 0x3e, 0xca, 0xb5, 0x30, 0xbe,
  0x72, 0x80, 0x02, 0xbf, 0xb9, 0x93, 0xa4, 0x3e, 0x83, 0xff, 0x04, 0x3e,
  0x1c, 0xcd, 0x3b, 0xbe, 0xd8, 0x29, 0xfc, 0x3e, 0x83, 0x38, 0xcd, 0x3b,
  0x89, 0x73, 0x3f, 0x3e, 0x5d, 0xf6, 0xcc, 0xbe, 0x60, 0x04, 0x80, 0xbe,
  0xa4, 0x4f, 0xb2, 0x3e, 0x97, 0x14, 0xeb, 0xbe, 0x6d, 0x00, 0x4e, 0x3e,
  0x88, 0x1d, 0x05, 0xbe, 0x1e, 0x62, 0x17, 0xbe, 0xae, 0xd2, 0x64, 0xbe,
  0x4f, 0xa3, 0xfe, 0x3d, 0xbf, 0xc7, 0x36, 0x3f, 0x91, 0x15, 0x9a, 0xbd,
  0x61, 0x42, 0x8f, 0xbd, 0x98, 0xd4, 0xc8, 0xbe, 0x28, 0x62, 0x00, 0xbf,
  0xa5, 0xf0, 0x7d, 0x3d, 0xa7, 0xac, 0x12, 0x3d, 0xbf, 0x37, 0xc4, 0xbc,
  0x17, 0xb2, 0x8a, 0x3e, 0x39, 0xb9, 0x16, 0xbf, 0x20, 0x17, 0x0f, 0x3f,
  0x8b, 0xbf, 0x26, 0xbd, 0x44, 0x81, 0x79, 0xbd, 0xc0, 0x37, 0x87, 0xbe,
  0x64, 0x83, 0x68, 0xbe, 0xcf, 0xad, 0x6f, 0x3d, 0x69, 0x26, 0x11, 0x3f,
  0xa8, 0x71, 0x35, 0xbe, 0x7e, 0xfb, 0x09, 0x3e, 0xfa, 0x0c, 0xb4, 0x3d,
  0x1e, 0x42, 0x0a, 0x3f, 0x97, 0x09, 0xaa, 0xbd, 0xea, 0x9d, 0x91, 0xbe,
  0x35, 0x00, 0xcc, 0x3e, 0x95, 0x51, 0x9c, 0xbe, 0xdb, 0x20, 0xe1, 0xbd,
  0x87, 0x63, 0xf6, 0xbe, 0xf0, 0xed, 0x8c, 0x3e, 0x5f, 0xcf, 0x04, 0x3e,
  0xc5, 0x76, 0x42, 0xbd, 0xa7, 0xf5, 0x3a, 0xbe, 0xe7, 0xcd, 0xa9, 0x3e,
  0x9b, 0x2a, 0x33, 0xbf, 0x7c, 0xa3, 0x95, 0xbc, 0xf5, 0xc2, 0x35, 0x3e,
  0xe5, 0xda, 0x96, 0x3e, 0xd1, 0x6b, 0x36, 0xbf, 0xc8, 0x9c, 0xe4, 0x3e,
  0x5a, 0x87, 0xec, 0x3d, 0xfe, 0xe9, 0xd2, 0xbc, 0x24, 0x90, 0x51, 0x3e,
  0x3f, 0xa3, 0xf5, 0x3e, 0x9a, 0xe6, 0x6a, 0x3e, 0xdd, 0x7d, 0x89, 0xbd,
  0x4b, 0x75, 0xd5, 0x3e, 0xb3, 0xd0, 0xbd, 0x3c, 0xc7, 0xfe, 0xb4, 0xbe,
  0x97, 0xf8, 0x56, 0x3d, 0x62, 0x1d, 0x8a, 0x3e, 0xaf, 0x49, 0x5e, 0x3e,
  0xb2, 0x47, 0xca, 0xbc, 0x30, 0x42, 0xfb, 0x3d, 0x25, 0xe5, 0x87, 0xbe,
  0xbf, 0x18, 0x91, 0xbe, 0x32, 0x31, 0xa1, 0x3d, 0xc7, 0x8b, 0xb1, 0xbd,
  0xb0, 0x16, 0x86, 0xbe, 0x0e, 0x21, 0x43, 0x3d, 0x2c, 0xbb, 0xd6, 0xbc,
  0x95, 0x66, 0xa1, 0xbe, 0x21, 0xdb, 0xc1, 0xbe, 0x19, 0x0c, 0x1f, 0x3e,
  0x0d, 0x25, 0x8b, 0x3e, 0x78, 0x2a, 0x78, 0xbe, 0x71, 0xb0, 0x83, 0xbd,
  0x20, 0xcf, 0x96, 0x3e, 0x55, 0x18, 0x8f, 0xbe, 0xe7, 0x3c, 0xad, 0x3e,
  0xc8, 0x02, 0x1f, 0x3d, 0x05, 0x4b, 0x62, 0xbd, 0xd9, 0x3c, 0x0b, 0x3e,
  0x3a, 0x82, 0x0c, 0x3e, 0xf8, 0x28, 0x74, 0x3e, 0xa4, 0x00, 0x01, 0x3f,
  0x92, 0xa7, 0x68, 0x3e, 0x8e, 0xde, 0xb3, 0xbd, 0xf0, 0x39, 0xa1, 0x3d,
  0x80, 0x69, 0x92, 0x3e, 0x3a, 0xc5, 0x61, 0x3e, 0x81, 0x7b, 0x63, 0xbe,
  0xc3, 0x88, 0x60, 0xbc, 0x50, 0xa8, 0x82, 0x3e, 0x90, 0x8b, 0x82, 0xbc,
  0x05, 0xd8, 0x24, 0xbe, 0xa6, 0x7b, 0x09, 0x3f, 0x3a, 0x95, 0x51, 0xbe,
  0x1e, 0xee, 0xff, 0xff, 0x10, 0x00, 0x00, 0x00, 0x05, 0x00, 0x00, 0x00,
  0x14, 0x00, 0x00, 0x00, 0x2c, 0x00, 0x00, 0x00, 0x02, 0x00, 0x00, 0x00,
  0x04, 0x00, 0x00, 0x00, 0x20, 0x00, 0x00, 0x00, 0x14, 0x00, 0x00, 0x00,
  0x6d, 0x6f, 0x64, 0x65, 0x6c, 0x2f, 0x64, 0x65, 0x6e, 0x73, 0x65, 0x5f,
  0x32, 0x2f, 0x4d, 0x61, 0x74, 0x4d, 0x75, 0x6c, 0x00, 0x00, 0x00, 0x00,
  0xb0, 0xed, 0xff, 0xff, 0xf2, 0xee, 0xff, 0xff, 0x04, 0x00, 0x00, 0x00,
  0x00, 0x10, 0x00, 0x00, 0x42, 0x3f, 0x01, 0xbe, 0xce, 0x82, 0x38, 0x3e,
  0xab, 0xaa, 0x64, 0xbe, 0x92, 0x7a, 0xcb, 0x3d, 0xad, 0x49, 0xb4, 0x3d,
  0xcf, 0x6d, 0xad, 0xbd, 0x35, 0x83, 0x9f, 0x3e, 0x6d, 0x06, 0x9f, 0x3e,
  0x76, 0x72, 0xfd, 0xbd, 0x01, 0x61, 0xbb, 0xbd, 0xf1, 0x92, 0x6e, 0xbf,
  0x87, 0x34, 0x00, 0x3d, 0x1e, 0xab, 0xd2, 0x3e, 0x74, 0x3f, 0xea, 0xbe,
  0x5c, 0x7a, 0xbb, 0x3c, 0x7f, 0x6f, 0x86, 0xbd, 0x1f, 0xa1, 0xa3, 0x3e,
  0xab, 0x54, 0x5d, 0x3d, 0xb2, 0xfb, 0xca, 0xbd, 0x95, 0x47, 0xdd, 0xbe,
  0x19, 0x86, 0x31, 0x3f, 0x31, 0x6c, 0x83, 0x3d, 0x46, 0x03, 0x8f, 0x3d,
  0xe4, 0x62, 0xcc, 0x3d, 0x5d, 0x17, 0x5f, 0xbe, 0xce, 0x73, 0x19, 0x3f,
  0x00, 0x96, 0x1c, 0x3e, 0x00, 0x0f, 0x69, 0xbd, 0x61, 0x9b, 0x0e, 0xbf,
  0xb4, 0xcc, 0x7c, 0xbe, 0x1a, 0x28, 0x13, 0xbe, 0x00, 0x03, 0x6e, 0xbe,
  0xd1, 0xc0, 0xa5, 0x3e, 0x30, 0xef, 0xef, 0x3d, 0xe8, 0x1a, 0xdc, 0x3d,
  0xbb, 0xab, 0x1f, 0xbe, 0xfb, 0xed, 0xe4, 0x3d, 0x12, 0xeb, 0xa3, 0x3c,
  0xe4, 0x92, 0x94, 0xbd, 0xee, 0x89, 0x4f, 0xbd, 0x3a, 0xba, 0x35, 0x3e,
  0x59, 0x0a, 0x7e, 0x3c, 0xdd, 0x3a, 0x80, 0x3d, 0xfd, 0x35, 0x2b, 0x3e,
  0x92, 0x36, 0x08, 0xc0, 0xbf, 0xbd, 0x90, 0xbd, 0x88, 0x2d, 0xb1, 0x39,
  0x5e, 0x31, 0xb2, 0x3e, 0x5f, 0x3f, 0xa4, 0xbf, 0xf6, 0xb3, 0x6d, 0xbf,
  0x16, 0xee, 0xaa, 0xbd, 0x9c, 0xa0, 0x8e, 0xbe, 0xed, 0x91, 0x3b, 0x3e,
  0x8c, 0x41, 0xba, 0x3d, 0xb6, 0xb4, 0x39, 0xbe, 0xbc, 0xcc, 0xde, 0xbf,
  0x23, 0x28, 0xfa, 0xbd, 0x55, 0x78, 0x73, 0x3e, 0x22, 0xc2, 0x4c, 0xbf,
  0xc8, 0xaf, 0x97, 0x3e, 0x09, 0xc9, 0x7a, 0xbf, 0x5f, 0xce, 0xc6, 0x3d,
  0xfc, 0xb4, 0x14, 0xbe, 0xde, 0xc2, 0xa7, 0xbe, 0xcf, 0x25, 0xc3, 0xbf,
  0xc4, 0xf2, 0x46, 0x3b, 0x7c, 0x96, 0x55, 0x3f, 0x02, 0x15, 0xbc, 0x3e,
  0x23, 0x2a, 0x81, 0x3e, 0xff, 0xa1, 0x3e, 0xbf, 0x7b, 0xef, 0x2e, 0xbe,
  0x91, 0xf8, 0x70, 0x3e, 0x4f, 0xe3, 0x4c, 0x3d, 0x46, 0x9d, 0x4e, 0x3c,
  0x64, 0x08, 0xac, 0x3d, 0x47, 0xfb, 0xd0, 0x3c, 0x6f, 0xee, 0x25, 0xc0,
  0x58, 0xab, 0x3e, 0x3e, 0x1c, 0x6e, 0x0f, 0xbf, 0x1e, 0x70, 0x85, 0x3d,
  0x1f, 0x52, 0x60, 0xbf, 0x44, 0x78, 0x02, 0xbf, 0xf4, 0x01, 0xe8, 0x3d,
  0x04, 0x6f, 0x8e, 0x3d, 0xd0, 0x8d, 0x4a, 0xbc, 0x9b, 0x09, 0x7b, 0xbc,
  0x60, 0xbb, 0xbd, 0x3d, 0xa9, 0x1a, 0xab, 0x3e, 0xfc, 0x68, 0x07, 0xbe,
  0xf0, 0xf4, 0x96, 0xbe, 0x7f, 0x10, 0xc2, 0xbf, 0x09, 0x78, 0xd9, 0xbf,
  0x11, 0xeb, 0x49, 0x3f, 0xb7, 0x28, 0xa4, 0x3c, 0x9a, 0x92, 0x7b, 0xbf,
  0x3f, 0x97, 0x02, 0xbf, 0xdf, 0xf0, 0x8b, 0x3c, 0xb6, 0xd2, 0x99, 0xbf,
  0x8b, 0x1e, 0x93, 0xbe, 0x9b, 0xf5, 0x32, 0x3f, 0x96, 0xd0, 0x1a, 0x3e,
  0x01, 0x4a, 0x29, 0x3e, 0x47, 0x86, 0x76, 0x3e, 0x81, 0xfc, 0x8f, 0xbd,
  0xc4, 0xa2, 0x81, 0x3e, 0x67, 0xa0, 0x3a, 0xc0, 0x7b, 0x97, 0xa3, 0xbe,
  0x7d, 0x43, 0xf5, 0xbe, 0xc2, 0x30, 0x81, 0x3e, 0x43, 0xc6, 0x90, 0x3e,
  0xed, 0xa3, 0x41, 0xbe, 0x30, 0xc1, 0x1a, 0x3e, 0xaa, 0x9c, 0xe9, 0x3d,
  0xa9, 0xbf, 0x2c, 0xbf, 0x60, 0xfa, 0x08, 0xbf, 0x9a, 0xe8, 0xd8, 0x3e,
  0xde, 0x87, 0x2f, 0x3d, 0x8c, 0x6e, 0x3d, 0xbe, 0xaa, 0x91, 0x87, 0xbf,
  0x06, 0x6c, 0x28, 0x3e, 0x60, 0x3b, 0x0e, 0xbf, 0x68, 0xb7, 0xac, 0x3e,
  0xb8, 0xfd, 0x4e, 0xbc, 0x19, 0x90, 0xc7, 0xbd, 0xe6, 0xb9, 0xdb, 0xbd,
  0xfe, 0xfa, 0x9a, 0x3b, 0xba, 0xe3, 0x84, 0x3e, 0xe3, 0xa2, 0xbf, 0xbd,
  0x02, 0x72, 0xb1, 0x3e, 0x11, 0x22, 0x2f, 0xbf, 0xe3, 0x57, 0x00, 0xbf,
  0xf2, 0x5c, 0x5c, 0xbf, 0xfe, 0x97, 0xba, 0x3e, 0x43, 0x34, 0xa6, 0xbe,
  0xdc, 0x42, 0x2b, 0x3e, 0x27, 0x80, 0xb2, 0xbe, 0x8f, 0x40, 0x76, 0x3e,
  0xfd, 0x50, 0x54, 0x3d, 0x0d, 0xbd, 0xac, 0xbf, 0x36, 0x8e, 0x02, 0xc0,
  0x00, 0x47, 0xcc, 0x3e, 0xc5, 0x53, 0x4c, 0xbe, 0xa8, 0x05, 0x7a, 0xbf,
  0xab, 0x73, 0xb9, 0x3e, 0x94, 0xef, 0x13, 0x3e, 0xb9, 0x7d, 0x2a, 0xbd,
  0x62, 0x6a, 0xc9, 0xbe, 0x79, 0xd7, 0x54, 0xbf, 0xba, 0x85, 0xa5, 0x3e,
  0x72, 0x24, 0xf7, 0xbe, 0xc8, 0x27, 0x45, 0x3f, 0x46, 0x6c, 0xdd, 0xbe,
  0x17, 0xbc, 0x4e, 0xbf, 0x9c, 0x90, 0x28, 0xbd, 0x53, 0x02, 0xc0, 0xbe,
  0x4c, 0x65, 0x03, 0xbf, 0xd1, 0x1e, 0x82, 0xbf, 0x2c, 0x77, 0x45, 0x3e,
  0xde, 0xc2, 0xb3, 0x3e, 0x07, 0xc0, 0xa5, 0x3e, 0x0a, 0xd3, 0x87, 0xbe,
  0xce, 0xc6, 0xd1, 0x3d, 0x00, 0x8b, 0xca, 0xbf, 0x10, 0x6a, 0x44, 0xbe,
  0x10, 0xd1, 0x33, 0x3e, 0x96, 0xd1, 0x5b, 0xbf, 0xc1, 0x65, 0xc4, 0xbf,
  0x92, 0x51, 0xbb, 0x3e, 0x0f, 0x22, 0x42, 0x3f, 0xd2, 0xbb, 0x12, 0xbf,
  0x93, 0xfd, 0x21, 0xbf, 0x32, 0x07, 0x4a, 0x3c, 0xe1, 0x20, 0x2f, 0xbf,
  0x56, 0x85, 0x6a, 0xbf, 0x49, 0x0b, 0x99, 0xbe, 0x53, 0x8d, 0x0c, 0x3d,
  0x08, 0x6e, 0x12, 0xc0, 0xb0, 0xc8, 0x9d, 0x3e, 0x66, 0x4c, 0x17, 0xbe,
  0xa2, 0x88, 0xbc, 0xbf, 0xc7, 0x9e, 0xaf, 0x3e, 0xcd, 0x3c, 0x15, 0xc0,
  0x1d, 0xfa, 0x84, 0xbf, 0x08, 0x65, 0x84, 0xbf, 0x6c, 0x68, 0xe7, 0x3e,
  0x09, 0x1c, 0x3e, 0xbf, 0x9b, 0xc2, 0x66, 0xbf, 0x6a, 0x5a, 0x0b, 0xbf,
  0x39, 0x51, 0x2c, 0x3f, 0xb5, 0xf8, 0x5f, 0x3e, 0x86, 0xc5, 0x62, 0xbe,
  0x17, 0x1f, 0xfa, 0x3e, 0xed, 0x32, 0x7c, 0x3e, 0xd8, 0xbc, 0x92, 0x3c,
  0xc9, 0xa0, 0xc4, 0xbe, 0x2b, 0x8e, 0xd0, 0x3e, 0xd0, 0xb2, 0xba, 0xbd,
  0xc1, 0x19, 0xf0, 0xbf, 0xe3, 0x95, 0x2d, 0x3e, 0x9d, 0xe9, 0xa0, 0xbe,
  0xf1, 0x67, 0xdd, 0x3d, 0xcb, 0xe8, 0x43, 0xc0, 0x09, 0xc4, 0x63, 0xbe,
  0x3f, 0x0b, 0x55, 0xbd, 0x39, 0x2e, 0xf0, 0xbc, 0x2f, 0x45, 0x5a, 0x3e,
  0x34, 0xc0, 0xf4, 0x3d, 0xba, 0xaa, 0x8a, 0xbe, 0x22, 0x41, 0x86, 0x3e,
  0x18, 0x3b, 0x30, 0xc0, 0x67, 0x62, 0x9d, 0xbe, 0x82, 0x8c, 0xaa, 0xbd,
  0xf7, 0x2a, 0x74, 0x3d, 0x16, 0x69, 0x13, 0x3e, 0xa1, 0x8a, 0x00, 0xbe,
  0x86, 0xcb, 0xf8, 0xbe, 0x6a, 0x20, 0xfd, 0xbe, 0xf9, 0xaf, 0x02, 0x3e,
  0xa6, 0xf1, 0x55, 0x3e, 0x92, 0xf3, 0xf7, 0xbd, 0x51, 0x96, 0x7b, 0xbe,
  0x02, 0x43, 0x90, 0xbd, 0x28, 0xd5, 0x5d, 0xbd, 0x35, 0xd7, 0x17, 0x3e,
  0x40, 0x8c, 0x37, 0xbf, 0x9b, 0x93, 0x09, 0xbd, 0xec, 0xcc, 0x08, 0x3f,
  0x6f, 0xb6, 0x34, 0x3e, 0x8f, 0x4e, 0xc7, 0xbb, 0xe4, 0x5a, 0x30, 0xbf,
  0x13, 0x56, 0xf0, 0xbe, 0x93, 0x29, 0xed, 0x3d, 0x08, 0xde, 0x19, 0xbe,
  0x03, 0xc7, 0x4c, 0x3d, 0xbb, 0xa3, 0xd4, 0x3d, 0x0f, 0xd5, 0xb2, 0xbe,
  0x8a, 0x67, 0x3d, 0xbe, 0x6a, 0x7f, 0x8c, 0x3e, 0x7d, 0x91, 0xde, 0xbd,
  0x02, 0xd6, 0x1b, 0x3e, 0x2e, 0x72, 0x8f, 0x3e, 0x12, 0xee, 0xa5, 0xbd,
  0x2e, 0x68, 0x04, 0xbe, 0x7d, 0xcd, 0x8f, 0x3e, 0x2e, 0xde, 0x37, 0x3e,
  0x5d, 0x9d, 0x45, 0xbc, 0x9d, 0x52, 0x9f, 0xbd, 0x85, 0xcd, 0x91, 0x3e,
  0xca, 0x7e, 0xe8, 0x3d, 0xb5, 0x94, 0x76, 0x3d, 0xa8, 0xd8, 0x29, 0xbd,
  0x74, 0x93, 0xa8, 0xbe, 0x09, 0x01, 0xee, 0x3e, 0xa8, 0x3b, 0x64, 0xbc,
  0x85, 0xb3, 0xbc, 0xbf, 0x4a, 0x7e, 0x88, 0x3e, 0x43, 0xc8, 0x74, 0xbd,
  0x67, 0x25, 0x0b, 0x3c, 0xd1, 0x53, 0x87, 0xbf, 0x34, 0xbe, 0xae, 0x3e,
  0x3b, 0xea, 0x01, 0x3e, 0xa3, 0xa7, 0xdf, 0xbd, 0x9a, 0x72, 0xd6, 0xbf,
  0xfe, 0xb5, 0x8f, 0xbd, 0x58, 0x76, 0x70, 0x3f, 0x8f, 0xb3, 0x6e, 0xbe,
  0x81, 0xa9, 0x21, 0xbf, 0x05, 0xab, 0x46, 0x3f, 0x9f, 0x30, 0x09, 0xbe,
  0x36, 0x46, 0xb2, 0xbf, 0x6c, 0x3c, 0x99, 0xbe, 0x23, 0x5f, 0x8f, 0xbe,
  0x49, 0x81, 0xa4, 0x3d, 0x29, 0x83, 0x85, 0x3e, 0xe7, 0xac, 0x4e, 0xbf,
  0x10, 0x16, 0xf3, 0xbe, 0xa0, 0x60, 0x8a, 0x3e, 0x63, 0x76, 0xf8, 0xbd,
  0x37, 0x18, 0x65, 0x3e, 0x83, 0xe6, 0x9b, 0xbf, 0x22, 0x68, 0xbb, 0x3d,
  0x69, 0x7b, 0xee, 0x3e, 0x10, 0xc0, 0xfd, 0x3c, 0x4c, 0x51, 0x48, 0xbe,
  0xc5, 0xe2, 0xf3, 0xbe, 0xcc, 0xa1, 0x9d, 0xbd, 0x8e, 0xb8, 0xbb, 0x3e,
  0x5c, 0xb6, 0xa3, 0x3c, 0x01, 0xa1, 0x5a, 0x3e, 0xb3, 0xc0, 0x12, 0xbe,
  0xc0, 0x09, 0x47, 0xbe, 0x42, 0x29, 0x3a, 0xbe, 0x01, 0xd7, 0x3d, 0x3b,
  0x1b, 0xcf, 0x49, 0xbf, 0x46, 0xd2, 0x64, 0x3e, 0x50, 0xcd, 0x43, 0xbf,
  0xad, 0x68, 0x2c, 0x3f, 0xf7, 0xfe, 0xbd, 0xbe, 0xa1, 0x4c, 0x9a, 0xbd,
  0x30, 0xae, 0x78, 0xbf, 0xfc, 0x06, 0x74, 0x3e, 0x12, 0xe3, 0x82, 0x3c,
  0x8a, 0x73, 0x12, 0xbf, 0x97, 0x67, 0xce, 0xbd, 0x46, 0x96, 0x16, 0xbf,
  0x7a, 0x39, 0xb8, 0xbf, 0xec, 0x71, 0x0b, 0x3e, 0xf1, 0xea, 0x55, 0xbf,
  0x57, 0x75, 0xaf, 0x3e, 0x11, 0x55, 0xc5, 0xbf, 0xef, 0x5b, 0xe3, 0x3e,
  0xd6, 0xb0, 0xf2, 0x3e, 0x92, 0xd9, 0xe9, 0xbd, 0x1a, 0xc6, 0xa7, 0x3e,
  0xaf, 0x48, 0x6f, 0xbc, 0xfa, 0x71, 0xaf, 0x3e, 0x71, 0x66, 0xc5, 0xbf,
  0xf1, 0x44, 0x13, 0xbe, 0xaa, 0x39, 0x8b, 0xbe, 0xc9, 0x1d, 0x8a, 0x3d,
  0xcf, 0x04, 0x2e, 0x3f, 0xca, 0x69, 0x03, 0xbf, 0x56, 0xf7, 0x50, 0xbf,
  0x27, 0x32, 0x54, 0xbf, 0xe8, 0x10, 0x89, 0x3d, 0xe9, 0xfb, 0xf6, 0xbe,
  0x42, 0xce, 0x88, 0xbf, 0xa0, 0xd4, 0xee, 0xbe, 0x5f, 0xa2, 0xa0, 0x3e,
  0xdc, 0x70, 0xb4, 0xbf, 0x6b, 0x29, 0x1d, 0xbf, 0x66, 0xfc, 0x88, 0xbf,
  0x28, 0x1c, 0xc5, 0xbe, 0x40, 0x38, 0xee, 0xbe, 0x81, 0x37, 0x85, 0x3e,
  0xd7, 0xea, 0x3a, 0x3e, 0x50, 0x36, 0xcc, 0x3e, 0xd6, 0x8d, 0x55, 0x3d,
  0xe6, 0x88, 0x9e, 0x3b, 0x47, 0xb2, 0x0b, 0xbb, 0x87, 0xc6, 0x85, 0xbc,
  0x6c, 0x93, 0x44, 0xbf, 0xf4, 0xdc, 0xa4, 0xbf, 0x5b, 0x3b, 0x05, 0xbf,
  0xe1, 0x9f, 0xf1, 0x3d, 0x59, 0x9e, 0xaa, 0xbe, 0x1d, 0xf8, 0x8a, 0xbd,
  0x1c, 0x4c, 0x5d, 0xbf, 0x00, 0x01, 0xcb, 0xbf, 0x16, 0x8d, 0x2a, 0x3e,
  0x7e, 0x42, 0x69, 0xbe, 0xc3, 0x82, 0x35, 0xbf, 0x03, 0x22, 0x6b, 0xbf,
  0x22, 0x77, 0x31, 0xbc, 0xfa, 0x56, 0x9e, 0x3f, 0x14, 0x6c, 0x91, 0xbf,
  0xaa, 0xdf, 0x0e, 0x3d, 0x77, 0xe9, 0x94, 0x3d, 0xd8, 0x04, 0x8d, 0xc0,
  0x64, 0xb0, 0x80, 0x3d, 0x40, 0xb2, 0x5e, 0xbf, 0x31, 0x78, 0x09, 0xbe,
  0xbe, 0x57, 0xae, 0x3d, 0x9e, 0xe7, 0x84, 0x3e, 0xb9, 0xc0, 0xe3, 0xbd,
  0x4f, 0x61, 0x80, 0xbf, 0xcb, 0xb5, 0x5d, 0xbf, 0xa6, 0x46, 0xec, 0xbd,
  0xb7, 0x48, 0xfd, 0xbd, 0x30, 0x17, 0x00, 0x3f, 0x34, 0x05, 0xdc, 0xbf,
  0xc3, 0xd4, 0xe3, 0xbd, 0x11, 0x69, 0xf5, 0x3e, 0xdf, 0x93, 0xaf, 0x3d,
  0x5d, 0x46, 0x53, 0x3f, 0xd8, 0x31, 0x68, 0xbe, 0x2d, 0xaa, 0xd2, 0xbb,
  0x83, 0x34, 0x43, 0x3e, 0xb4, 0x3a, 0x0f, 0x3e, 0xec, 0x0f, 0x06, 0xbf,
  0x86, 0x03, 0x04, 0xbf, 0x95, 0xcf, 0xa1, 0x3c, 0x93, 0x46, 0x16, 0x3e,
  0x1e, 0x33, 0x02, 0xbe, 0xd5, 0x03, 0xd6, 0x3d, 0xd1, 0x23, 0x42, 0x3e,
  0x26, 0x39, 0xd6, 0xbe, 0x2e, 0xae, 0x92, 0xbe, 0x88, 0x2c, 0xf3, 0x3d,
  0xc8, 0x57, 0x19, 0xbe, 0x3c, 0x9b, 0xbd, 0x3e, 0x09, 0xa6, 0xbc, 0x3d,
  0x42, 0x04, 0x42, 0xbe, 0x05, 0xe8, 0x95, 0xbd, 0x48, 0xcb, 0x9d, 0xbd,
  0x59, 0x5a, 0x59, 0xbe, 0xa3, 0x13, 0x89, 0xbe, 0xa3, 0x92, 0x81, 0x3e,
  0xa0, 0xd8, 0x31, 0x3e, 0x1c, 0x19, 0x6a, 0xbc, 0xb0, 0x8b, 0xb2, 0x3e,
  0xb6, 0xef, 0x61, 0xbf, 0x95, 0xf2, 0xf1, 0xbd, 0x32, 0xfe, 0xcd, 0xbe,
  0x03, 0x10, 0xa4, 0x3e, 0xe7, 0x93, 0x1e, 0xbf, 0xf4, 0x23, 0x0e, 0xbf,
  0x8d, 0x31, 0x03, 0x3e, 0x65, 0x0b, 0x9b, 0xbe, 0xd4, 0x68, 0x8c, 0x3e,
  0xbf, 0x60, 0x33, 0x3d, 0x61, 0x39, 0xc1, 0xbd, 0xe2, 0x42, 0x21, 0xbf,
  0xe1, 0xff, 0xa5, 0xbd, 0x89, 0xd9, 0x93, 0x3e, 0xaf, 0x85, 0x32, 0xbe,
  0xf8, 0xe1, 0x25, 0x3f, 0x04, 0x59, 0x7c, 0xbf, 0x92, 0xfc, 0x82, 0xbf,
  0xcb, 0xca, 0xb5, 0xbe, 0x39, 0x8a, 0xd7, 0x3d, 0xb3, 0x80, 0x50, 0xbe,
  0xc3, 0x80, 0x8a, 0xbd, 0xb8, 0x62, 0xf1, 0xbe, 0xd9, 0x88, 0x8d, 0xbd,
  0x38, 0x15, 0x63, 0xbe, 0xfb, 0x34, 0x85, 0xbe, 0x22, 0x8b, 0xfa, 0x3e,
  0x0c, 0xbc, 0x62, 0xbf, 0xcd, 0xa6, 0xfa, 0x3e, 0x3c, 0x18, 0x22, 0xbf,
  0xd4, 0xd4, 0x8f, 0xbe, 0xdf, 0xb9, 0x39, 0x3f, 0x95, 0xfc, 0xd1, 0xbe,
  0x2d, 0xa3, 0x00, 0xbd, 0x60, 0xe3, 0x44, 0xbf, 0x21, 0xda, 0xb2, 0x3c,
  0x6a, 0xd8, 0x08, 0x3e, 0xc6, 0x3a, 0x49, 0xbe, 0xc0, 0x35, 0xd4, 0xbd,
  0x91, 0xd2, 0x47, 0x3d, 0x6f, 0xf3, 0x24, 0x3d, 0x6e, 0xca, 0x9a, 0xbe,
  0xb1, 0x7e, 0x63, 0xbe, 0xb8, 0xa4, 0x86, 0xbe, 0xf4, 0xee, 0x56, 0xbe,
  0xb3, 0x0b, 0x32, 0x3f, 0x87, 0x69, 0xd5, 0xbe, 0x45, 0x75, 0x56, 0xbe,
  0xad, 0x73, 0xdd, 0xbe, 0xec, 0x05, 0xdf, 0xbd, 0x1f, 0xd8, 0xc5, 0xbf,
  0xe5, 0x84, 0x86, 0x3e, 0x56, 0xe1, 0x7d, 0xbf, 0x3d, 0x38, 0x79, 0xbe,
  0x57, 0xcf, 0x1a, 0x3c, 0xeb, 0x32, 0xbc, 0x3c, 0x2e, 0x7b, 0x12, 0xbe,
  0x8b, 0xcd, 0x0e, 0x3f, 0xa8, 0x15, 0x16, 0xbf, 0x7d, 0xd2, 0x96, 0x3e,
  0x1b, 0x0d, 0xae, 0x3c, 0x8b, 0xd7, 0xf1, 0xbc, 0x81, 0x66, 0x8a, 0x3d,
  0xd8, 0x06, 0xd6, 0xbc, 0x5e, 0x3b, 0x8f, 0xbe, 0xd4, 0xf2, 0xb9, 0xbc,
  0x13, 0x8a, 0x78, 0xbf, 0xbe, 0x13, 0xbf, 0xbd, 0x28, 0xd8, 0x59, 0xbe,
  0xf1, 0xec, 0x94, 0x3f, 0xd5, 0x46, 0xa1, 0x3d, 0x49, 0x22, 0xad, 0xbf,
  0x9d, 0x96, 0x68, 0x3e, 0xbb, 0x83, 0x46, 0x3e, 0x3e, 0x5d, 0x90, 0xbf,
  0xe8, 0xf2, 0x91, 0x3e, 0x87, 0xa4, 0x3d, 0xbf, 0xb5, 0xfc, 0x6f, 0xbf,
  0x36, 0x7a, 0xe8, 0xbe, 0x8c, 0x56, 0x33, 0xbe, 0x32, 0x84, 0x1d, 0xbd,
  0x5c, 0x95, 0x09, 0x3f, 0xc5, 0x28, 0xbe, 0x3e, 0xd8, 0xff, 0x99, 0x3e,
  0xd7, 0x34, 0x96, 0xbd, 0x0b, 0x1b, 0xfd, 0xbd, 0xdb, 0xcc, 0xcd, 0xbd,
  0x2e, 0x13, 0x12, 0x3d, 0x4a, 0x97, 0x74, 0x3d, 0x7a, 0x27, 0xd0, 0x3b,
  0x6c, 0x57, 0x57, 0xbf, 0x7e, 0xe5, 0xa1, 0xbd, 0xbc, 0x66, 0xdf, 0xbd,
  0x24, 0x08, 0x26, 0xbd, 0x02, 0x58, 0x83, 0x3e, 0xce, 0x5f, 0xe7, 0xbd,
  0xd5, 0x0e, 0xee, 0xbd, 0x60, 0x0d, 0x51, 0xbe, 0x1e, 0x11, 0x8f, 0xbf,
  0x6b, 0x50, 0x93, 0x3e, 0x1e, 0x87, 0x27, 0xc0, 0xe7, 0x75, 0xb2, 0xbe,
  0x41, 0x46, 0xad, 0x3e, 0xa2, 0x27, 0x2b, 0xbd, 0x95, 0xc1, 0xf5, 0xbd,
  0x99, 0x10, 0x72, 0x3d, 0xc1, 0x94, 0xb5, 0xbc, 0xd5, 0x5f, 0xa8, 0x3d,
  0x13, 0x0a, 0x53, 0xbe, 0xf9, 0x53, 0x29, 0xbe, 0xe0, 0xf3, 0x80, 0xbe,
  0x85, 0x34, 0x94, 0x3e, 0xf0, 0x3e, 0x85, 0x3e, 0xa8, 0x8d, 0xa8, 0x3e,
  0x9b, 0xbc, 0xd8, 0x3d, 0x0a, 0xb8, 0xc6, 0xbe, 0x88, 0x7a, 0x46, 0x3d,
  0x27, 0xec, 0xcd, 0x3d, 0x61, 0x4d, 0x53, 0xbe, 0x3d, 0x8e, 0x18, 0x3f,
  0x4a, 0x5f, 0x64, 0xbe, 0x3d, 0x39, 0xec, 0xbe, 0x97, 0x97, 0xd8, 0x3e,
  0xf9, 0xa1, 0x21, 0xbe, 0x7e, 0x03, 0x7d, 0xbe, 0x4b, 0x21, 0xc3, 0x3d,
  0x89, 0x39, 0x96, 0xbe, 0x9c, 0x82, 0xb3, 0xbe, 0x7c, 0xda, 0x39, 0x3e,
  0x20, 0xc0, 0xf3, 0x3e, 0x0a, 0x1d, 0x17, 0xbf, 0x00, 0x65, 0xc5, 0xbd,
  0x28, 0xfb, 0x24, 0x3e, 0x9c, 0xa9, 0x85, 0x3e, 0x1d, 0x41, 0xd9, 0xbd,
  0xb7, 0x4f, 0xf7, 0xbe, 0x8a, 0x04, 0x1c, 0x3e, 0xd1, 0x0c, 0x13, 0x3e,
  0x43, 0x39, 0xb6, 0xbd, 0x7e, 0x5e, 0x8e, 0x3b, 0x92, 0xb8, 0x88, 0x3d,
  0xd4, 0xf1, 0xc1, 0xbc, 0xb3, 0x23, 0x86, 0x3e, 0x64, 0xe4, 0x0a, 0x3e,
  0x03, 0x34, 0xf3, 0x3c, 0xa5, 0x68, 0x1b, 0xbe, 0x3a, 0x4d, 0x81, 0xbd,
  0xa6, 0x43, 0xea, 0xbc, 0xfb, 0x00, 0xa5, 0xbd, 0xb6, 0x45, 0x89, 0x3e,
  0x72, 0x94, 0xbe, 0x3e, 0x8e, 0xa0, 0x19, 0xbf, 0xb5, 0x04, 0x8e, 0x3e,
  0x06, 0xa6, 0x64, 0xbd, 0xe2, 0x44, 0x0a, 0x3c, 0xb2, 0x99, 0xe8, 0x3c,
  0x2a, 0x97, 0x2e, 0x3e, 0x46, 0xc9, 0x18, 0xbc, 0xb8, 0x34, 0x53, 0x3c,
  0x9c, 0xda, 0x7b, 0xbd, 0x81, 0x12, 0xb6, 0xbd, 0x06, 0xaa, 0x8e, 0xbe,
  0xa3, 0xa9, 0x56, 0x3f, 0x17, 0x47, 0x02, 0xbe, 0x57, 0x94, 0x85, 0x3e,
  0xa7, 0xc3, 0xd7, 0x3e, 0xa4, 0xbd, 0x1f, 0xbc, 0xc7, 0x1d, 0x9f, 0x3d,
  0x4c, 0x8d, 0xb3, 0xbd, 0x80, 0x20, 0x22, 0x3e, 0x71, 0x68, 0xbd, 0xbe,
  0x7d, 0x29, 0x88, 0x3e, 0x31, 0xec, 0x16, 0x3e, 0xee, 0x94, 0x5f, 0xbe,
  0xd2, 0x6d, 0xcd, 0x3d, 0x90, 0x22, 0xd3, 0xbe, 0x02, 0x5a, 0x7b, 0xbe,
  0x65, 0x7a, 0x30, 0x3e, 0xfb, 0xf0, 0x72, 0x3e, 0xcc, 0x57, 0x8c, 0x3d,
  0x81, 0x1f, 0xd1, 0x3d, 0xd2, 0x3d, 0x87, 0xbd, 0x61, 0x88, 0x5e, 0xbe,
  0x8b, 0x1e, 0xa5, 0xbe, 0x66, 0xf5, 0x15, 0xbf, 0xf4, 0x58, 0x4d, 0x3e,
  0x56, 0x4b, 0xd3, 0x3e, 0xee, 0x81, 0x48, 0xbf, 0xd4, 0xfa, 0x2b, 0xbf,
  0x43, 0xb8, 0x10, 0xbc, 0x55, 0x97, 0x20, 0x3e, 0x02, 0xea, 0x8c, 0xbe,
  0xff, 0xbf, 0xef, 0xbb, 0xdd, 0x59, 0x51, 0xbf, 0x02, 0x3e, 0xa5, 0xbd,
  0x3f, 0xc2, 0xf5, 0x3d, 0xb5, 0x9e, 0x56, 0xbe, 0xc5, 0x5e, 0x42, 0xbe,
  0xf2, 0x34, 0x14, 0x3f, 0x7c, 0xcd, 0x9a, 0xbe, 0x92, 0x6f, 0x0d, 0x3f,
  0x7e, 0x52, 0x3d, 0x3e, 0x9a, 0x08, 0x38, 0x3f, 0x3b, 0x6a, 0x2f, 0x3d,
  0x16, 0x68, 0x6c, 0xbd, 0x21, 0x84, 0xb2, 0xbe, 0x20, 0x99, 0x29, 0xbf,
  0x44, 0x93, 0x0b, 0xbe, 0x9f, 0xab, 0xa5, 0xbe, 0xa5, 0x64, 0x08, 0xbf,
  0xb1, 0x12, 0x00, 0xbe, 0x64, 0x92, 0x28, 0x3e, 0x7c, 0x0f, 0xc9, 0xbe,
  0x37, 0x39, 0xb3, 0xbe, 0x88, 0x70, 0xe1, 0xbe, 0xad, 0x4f, 0x07, 0x3e,
  0x7f, 0xc7, 0xb6, 0xbe, 0x9d, 0xbf, 0x58, 0xbf, 0x09, 0x46, 0x9f, 0xbd,
  0x5a, 0x14, 0x04, 0x3f, 0xf8, 0xa8, 0x30, 0x3f, 0xe7, 0x37, 0xa8, 0xbe,
  0x22, 0xb6, 0x07, 0x3d, 0x01, 0x29, 0x64, 0xbe, 0xf8, 0xc1, 0xd1, 0x3e,
  0x8f, 0xfc, 0xa9, 0xbf, 0xa9, 0x6c, 0xda, 0x3e, 0xcf, 0x19, 0x03, 0x3e,
  0x11, 0x3c, 0x81, 0xbe, 0x8d, 0xad, 0x84, 0x3f, 0x79, 0x86, 0x28, 0xbe,
  0xc5, 0x1d, 0x15, 0xbf, 0x0c, 0x9a, 0x8d, 0xbe, 0xad, 0x2f, 0xbd, 0x3d,
  0xe0, 0x8b, 0x70, 0xbf, 0x94, 0x18, 0x9f, 0xbf, 0x23, 0xaa, 0x04, 0xbe,
  0xe2, 0x89, 0xde, 0xbd, 0xd2, 0x52, 0x0f, 0xbe, 0x64, 0x61, 0xce, 0x3e,
  0x21, 0x22, 0x31, 0xbf, 0x20, 0x16, 0x15, 0xbf, 0x4f, 0x92, 0x57, 0xbf,
  0x33, 0x18, 0x8a, 0x3e, 0x92, 0x81, 0xaa, 0x3e, 0x4c, 0xf3, 0x81, 0xbe,
  0x4b, 0x2f, 0x5a, 0x3d, 0xcf, 0x13, 0x37, 0xbf, 0x20, 0x7b, 0x7a, 0xbc,
  0x04, 0xe0, 0x48, 0x3d, 0xe0, 0x53, 0x88, 0xbe, 0x58, 0x89, 0x98, 0x3e,
  0x59, 0x53, 0xab, 0xbe, 0x55, 0x00, 0x00, 0xbd, 0x5f, 0xbe, 0xed, 0x3e,
  0x89, 0x6c, 0xc7, 0x3e, 0x2e, 0xad, 0x23, 0x3c, 0x17, 0xa3, 0x28, 0xbd,
  0xd9, 0x23, 0xed, 0x3e, 0xe9, 0x81, 0x58, 0x3d, 0x93, 0x7b, 0xe9, 0xbe,
  0x3e, 0xa2, 0xf0, 0xbf, 0xfd, 0xd9, 0x19, 0xbf, 0x5a, 0xf1, 0x5f, 0xbe,
  0x74, 0x07, 0xe7, 0xbd, 0xaf, 0x85, 0x29, 0x3f, 0x14, 0x03, 0x17, 0xbf,
  0xbd, 0xb3, 0x3d, 0xbf, 0x2e, 0x24, 0xd0, 0xbd, 0x71, 0xb6, 0x0f, 0xbd,
  0x23, 0x9e, 0x08, 0xbf, 0x9a, 0xe0, 0x76, 0xbe, 0xb0, 0xa5, 0xae, 0xbe,
  0x20, 0xc9, 0xf0, 0x3e, 0x53, 0xfb, 0x2c, 0x3e, 0x42, 0x2a, 0x69, 0x3e,
  0x5b, 0x26, 0x8b, 0x3e, 0xde, 0x44, 0x96, 0xbc, 0x0b, 0xd0, 0x9b, 0xbd,
  0x49, 0x90, 0xe2, 0x3d, 0x7e, 0xc4, 0xf4, 0x3e, 0x00, 0x8d, 0x20, 0xbf,
  0xcd, 0x73, 0xb8, 0xbe, 0x2e, 0xbb, 0x85, 0xbd, 0x52, 0xa9, 0x0f, 0xbf,
  0x7b, 0xf1, 0x18, 0x3d, 0xcf, 0xfb, 0xd3, 0x3d, 0xcb, 0xa8, 0xd0, 0xbd,
  0x2d, 0x21, 0x56, 0x3e, 0x7b, 0x2e, 0xb6, 0x3e, 0x26, 0x98, 0x31, 0xbf,
  0x14, 0x9e, 0x35, 0x3e, 0xbb, 0x65, 0x8e, 0xbf, 0xa6, 0xd9, 0x99, 0xbe,
  0x68, 0x66, 0x25, 0xbe, 0x30, 0x52, 0x4a, 0xbf, 0x97, 0xba, 0x9b, 0xbe,
  0x61, 0xf8, 0x8c, 0xbe, 0x2b, 0x80, 0x6e, 0xbe, 0xb1, 0x42, 0x29, 0xbd,
  0xae, 0x10, 0x50, 0x3d, 0x51, 0x69, 0x4f, 0xbe, 0x72, 0xd0, 0x98, 0x3e,
  0xf3, 0xa4, 0x9a, 0xbe, 0x46, 0xec, 0xe6, 0xbd, 0x64, 0xdd, 0x84, 0x3e,
  0xcc, 0x89, 0x66, 0x3d, 0x12, 0x16, 0xc4, 0x3e, 0xc1, 0xce, 0x98, 0xbe,
  0x7e, 0x4b, 0x74, 0xbe, 0x21, 0x76, 0x0f, 0x3f, 0x68, 0xea, 0xcd, 0xba,
  0x47, 0x46, 0x64, 0x3d, 0xc3, 0x55, 0x1b, 0xbf, 0x1a, 0xb4, 0x63, 0xbe,
  0xea, 0x78, 0x4b, 0x3d, 0x46, 0xc1, 0xb0, 0xbe, 0x24, 0x3d, 0x47, 0xbe,
  0xde, 0xaa, 0xcb, 0x3e, 0x1c, 0x37, 0xdb, 0x3d, 0x2a, 0x54, 0x91, 0xbe,
  0x7e, 0x6e, 0x77, 0xbf, 0x1b, 0x27, 0x97, 0xbe, 0x10, 0x5b, 0xa1, 0xbd,
  0x14, 0xa8, 0x2b, 0x3e, 0xc3, 0x66, 0x99, 0x3e, 0xae, 0xf3, 0x4c, 0xbe,
  0x9e, 0x3c, 0xd9, 0xbe, 0xf6, 0xfa, 0x2b, 0x3e, 0x0c, 0x20, 0x6e, 0xbf,
  0xea, 0x71, 0x22, 0xbe, 0xec, 0x51, 0xbc, 0x3d, 0x69, 0x0d, 0x78, 0x3e,
  0xcb, 0x4d, 0x5c, 0xbd, 0xcc, 0x74, 0x29, 0xbe, 0xb9, 0x02, 0xa5, 0xbe,
  0x0d, 0xfe, 0x0b, 0x3c, 0x99, 0x6e, 0xac, 0x3e, 0x95, 0x51, 0x0d, 0xbe,
  0x57, 0x1e, 0xe9, 0x3e, 0xae, 0xfc, 0x21, 0xbe, 0x97, 0xc5, 0xaa, 0xba,
  0x92, 0xe0, 0xbe, 0xbe, 0x24, 0x8c, 0xba, 0xbd, 0xb9, 0xdc, 0x8f, 0x3d,
  0xf5, 0xb4, 0xcd, 0xbc, 0x58, 0x26, 0x8b, 0xbe, 0xdb, 0x0b, 0x8f, 0xbd,
  0x0e, 0x26, 0xa4, 0xbd, 0x81, 0x7b, 0x6c, 0xbd, 0x7c, 0x8a, 0x7c, 0x3e,
  0x41, 0xf4, 0xbc, 0xbe, 0xc2, 0xbf, 0x5e, 0x3d, 0x50, 0x94, 0x2d, 0xbe,
  0x5d, 0xc1, 0x59, 0xbe, 0xd5, 0xbc, 0x0c, 0xbe, 0xdf, 0xfc, 0x20, 0x3e,
  0x82, 0xf9, 0x1a, 0xbf, 0x74, 0x29, 0xbf, 0xbc, 0xb6, 0x2e, 0x23, 0xbe,
  0x79, 0xd3, 0xfb, 0xbe, 0xc2, 0x9f, 0x9a, 0xbe, 0x54, 0xa4, 0x98, 0xbf,
  0x11, 0x6d, 0x37, 0x3e, 0x2b, 0x74, 0xc5, 0x3e, 0x20, 0xb4, 0x4e, 0xbf,
  0x35, 0x37, 0x04, 0x3f, 0xb5, 0x6a, 0x08, 0xbe, 0xb1, 0x2f, 0x8f, 0x3d,
  0x39, 0x6f, 0x3b, 0xbe, 0x80, 0xfc, 0xcd, 0xbe, 0x29, 0xdc, 0x3e, 0x3c,
  0x87, 0xaa, 0x6e, 0xbf, 0x62, 0xb2, 0x13, 0x3e, 0x63, 0xcf, 0x77, 0x3e,
  0x3e, 0x69, 0x32, 0xbe, 0xae, 0xb4, 0x6f, 0xbd, 0xd9, 0xf5, 0x7e, 0x3d,
  0x72, 0xf1, 0x15, 0xbf, 0x6b, 0xcb, 0xb2, 0xbf, 0x2f, 0x97, 0x7b, 0x3e,
  0x2b, 0x98, 0x6d, 0xbd, 0x07, 0xa6, 0x78, 0xbd, 0xf6, 0x2c, 0xfd, 0x3d,
  0x3b, 0xf6, 0x19, 0x3e, 0x96, 0x80, 0x1d, 0xbf, 0xd2, 0xa0, 0x6e, 0xbe,
  0x86, 0x03, 0xb0, 0xbd, 0x6d, 0x73, 0x4b, 0xbf, 0x69, 0xb1, 0x8a, 0xbd,
  0xc7, 0xba, 0x14, 0x3f, 0x20, 0xf5, 0x16, 0xbe, 0x50, 0xae, 0x34, 0x3e,
  0x6c, 0xca, 0x96, 0x3d, 0x7a, 0x0b, 0x27, 0xbf, 0xb4, 0x8e, 0x11, 0xbe,
  0xac, 0xfd, 0x29, 0x3d, 0x87, 0x64, 0xbc, 0xbf, 0xac, 0x65, 0x4b, 0xbe,
  0x75, 0xd8, 0x97, 0xbe, 0xb3, 0xc9, 0xdd, 0x3e, 0xe1, 0x2a, 0x37, 0x3d,
  0x05, 0x35, 0x4f, 0xbf, 0x92, 0xcd, 0xf1, 0xbe, 0x78, 0xbc, 0x0d, 0xbf,
  0xde, 0xc3, 0x7a, 0xbe, 0x1d, 0xa4, 0x75, 0x3e, 0xab, 0x07, 0xf1, 0x3c,
  0x3d, 0x19, 0x8a, 0x3e, 0xf1, 0xcf, 0x6b, 0x3e, 0x6d, 0x98, 0x51, 0xbe,
  0x7e, 0x57, 0x9f, 0xbd, 0x8b, 0xd7, 0xa4, 0x3e, 0xd6, 0x43, 0x25, 0xbe,
  0x85, 0x2e, 0xc1, 0xbe, 0x97, 0xa0, 0x71, 0x3e, 0x6a, 0x7c, 0xa2, 0x3b,
  0x6c, 0x21, 0x8e, 0x3c, 0xb1, 0x20, 0x2f, 0x3d, 0x4c, 0x85, 0xdf, 0xbe,
  0xa5, 0x28, 0xcd, 0x3e, 0x6f, 0x0f, 0x80, 0xbe, 0xd8, 0xce, 0xbb, 0x3e,
  0x7c, 0x4b, 0xf6, 0xbd, 0x5a, 0x49, 0xba, 0xbe, 0x8f, 0xdf, 0x37, 0xbd,
  0x69, 0x94, 0x1b, 0xbf, 0xe0, 0xc4, 0x06, 0x3f, 0xcf, 0xad, 0xff, 0x3d,
  0x33, 0x33, 0x98, 0xbe, 0xe3, 0x45, 0x86, 0x3d, 0xb9, 0x47, 0xb3, 0x3e,
  0xae, 0x02, 0xca, 0xbf, 0x29, 0x27, 0xdc, 0xbf, 0x2d, 0x92, 0x18, 0xbf,
  0x1f, 0x82, 0x45, 0x3d, 0x58, 0xd6, 0x92, 0xbe, 0x3f, 0x39, 0x9a, 0xbe,
  0x93, 0x2b, 0x05, 0xbf, 0x7c, 0xbf, 0x2a, 0xbf, 0x4d, 0x18, 0x23, 0x3e,
  0x46, 0x12, 0x93, 0xbf, 0x20, 0x4f, 0x26, 0xbf, 0x65, 0x70, 0xb7, 0xbe,
  0x85, 0xc6, 0x90, 0xbe, 0xae, 0xd2, 0xfe, 0xbe, 0x4e, 0xa9, 0x63, 0x3e,
  0x14, 0x59, 0xec, 0x3e, 0x13, 0xc4, 0xc2, 0xbe, 0xaf, 0xf9, 0xb1, 0xbd,
  0x6f, 0x5c, 0x1d, 0xbd, 0x28, 0xb5, 0x9c, 0x3e, 0x43, 0x09, 0x40, 0x3e,
  0x9b, 0x19, 0x27, 0xbe, 0x96, 0x0a, 0x97, 0x3e, 0x52, 0x86, 0x73, 0xbe,
  0xb6, 0x7e, 0x22, 0x3c, 0x5e, 0x51, 0xd7, 0xbe, 0xee, 0xd6, 0xc9, 0xbe,
  0x54, 0x7f, 0x62, 0xbf, 0x96, 0x5a, 0x1d, 0x3b, 0x54, 0xb5, 0xff, 0x3e,
  0x52, 0x32, 0x2c, 0xc0, 0x3f, 0x9e, 0xa3, 0xbe, 0x91, 0x63, 0x2b, 0xbd,
  0x9d, 0x2a, 0xac, 0xbe, 0x38, 0xed, 0x89, 0x3e, 0x3f, 0xaa, 0xe0, 0x3d,
  0xa9, 0x78, 0xb3, 0xbf, 0x78, 0xb2, 0x63, 0x3e, 0x7c, 0x3b, 0x03, 0x3e,
  0x94, 0x99, 0x72, 0x3e, 0x56, 0xf0, 0x5f, 0xbe, 0x1f, 0xd3, 0xb0, 0xbd,
  0x88, 0x51, 0x30, 0x3e, 0xe7, 0x52, 0xa5, 0xbe, 0xa1, 0xaf, 0xac, 0x3e,
  0x57, 0xa7, 0x57, 0xbd, 0xab, 0xbc, 0xc0, 0x3e, 0xb3, 0x3d, 0xe2, 0x3e,
  0xc2, 0x23, 0x54, 0x3c, 0x17, 0xaa, 0x02, 0xbf, 0x44, 0x0f, 0x8a, 0xbe,
  0xb2, 0x46, 0x42, 0x3d, 0x2d, 0x92, 0x19, 0xbe, 0x61, 0x93, 0x06, 0xbd,
  0xc2, 0x2a, 0x0c, 0xc0, 0xe2, 0x8c, 0x62, 0xbd, 0xb4, 0x05, 0x4a, 0x3e,
  0x87, 0xe5, 0xd2, 0x3e, 0xa7, 0x33, 0x8a, 0xbe, 0x69, 0xd6, 0x89, 0xbe,
  0xca, 0xdb, 0xbd, 0xbe, 0xc2, 0x0e, 0x43, 0xbf, 0xaf, 0x04, 0xc8, 0xbe,
  0x71, 0x41, 0x68, 0xbe, 0x7b, 0x69, 0xba, 0x3e, 0xf4, 0xd9, 0x27, 0x3e,
  0x0f, 0xc2, 0x1b, 0xc0, 0x50, 0x1b, 0xee, 0x3d, 0xb1, 0xe8, 0xd7, 0xbd,
  0x0f, 0x37, 0xf7, 0xbe, 0xeb, 0xdd, 0xa0, 0x3e, 0xc1, 0x2d, 0x1a, 0xbf,
  0xe5, 0x94, 0xd6, 0x3d, 0xe9, 0x05, 0x3d, 0x3f, 0xd6, 0x4f, 0x05, 0x3f,
  0x7e, 0xba, 0x81, 0x3d, 0x0b, 0x89, 0x31, 0x3e, 0xe8, 0x7a, 0xaa, 0x3d,
  0x4b, 0x2c, 0x91, 0x3e, 0x32, 0x73, 0x4e, 0x3e, 0xd9, 0xfb, 0xc5, 0x3d,
  0x49, 0x25, 0xf1, 0x3e, 0x35, 0x7b, 0x44, 0x3e, 0xc5, 0xaa, 0x68, 0xbe,
  0x78, 0x61, 0x10, 0x3e, 0xa1, 0x89, 0xdf, 0xbe, 0x6a, 0xac, 0xe6, 0x3d,
  0x7b, 0x0d, 0x72, 0xbf, 0x2e, 0x68, 0x9a, 0x3e, 0xa8, 0x40, 0x86, 0xbf,
  0x90, 0x0a, 0xf8, 0x3c, 0x51, 0x11, 0x14, 0x3e, 0x16, 0xe7, 0x57, 0xbf,
  0x5f, 0x34, 0xcf, 0xbe, 0xea, 0xd4, 0xc9, 0x3c, 0x41, 0x83, 0x92, 0x3d,
  0x59, 0x91, 0xae, 0x3d, 0x66, 0xde, 0x37, 0x3e, 0x2f, 0x4e, 0xcb, 0xbc,
  0x54, 0x9f, 0x13, 0x3f, 0x5e, 0x5b, 0xdf, 0xbd, 0x26, 0x67, 0x51, 0xbe,
  0x8c, 0xc6, 0x2f, 0xbb, 0xcc, 0xed, 0xf1, 0x3d, 0x86, 0x1c, 0x0c, 0xbd,
  0x46, 0xb9, 0xd6, 0xbd, 0xd1, 0xec, 0x0c, 0xbe, 0xec, 0x46, 0x00, 0xbe,
  0xa6, 0x4f, 0x7d, 0x3e, 0xfa, 0x35, 0xa3, 0x3d, 0x1f, 0xc2, 0x62, 0x3d,
  0xdd, 0x39, 0x2a, 0xbe, 0x25, 0x34, 0xd1, 0x3d, 0xa8, 0xae, 0xba, 0xbe,
  0x4f, 0x3e, 0xcb, 0xbe, 0x95, 0x44, 0xba, 0x3e, 0xe4, 0x4b, 0x89, 0xbf,
  0x70, 0xea, 0x81, 0xbe, 0xfe, 0x60, 0x70, 0xbd, 0xe2, 0x9f, 0xfc, 0xbd,
  0xbf, 0x5e, 0xee, 0xbd, 0x13, 0xd8, 0x4b, 0x3d, 0xb0, 0x0e, 0x60, 0x3e,
  0xd7, 0x1a, 0xfc, 0xbd, 0x87, 0x07, 0xc5, 0xbc, 0x55, 0x30, 0x83, 0x3e,
  0xc0, 0x0d, 0x3a, 0x3e, 0xe7, 0xe4, 0xf4, 0x3d, 0xe6, 0x48, 0xb6, 0xbf,
  0x22, 0x9a, 0x5d, 0x3e, 0x6c, 0xcd, 0x93, 0xbd, 0xa0, 0x8e, 0x9c, 0x3e,
  0xdb, 0xc1, 0xad, 0x3d, 0xb9, 0x47, 0x68, 0xbf, 0xf6, 0xdd, 0x48, 0xbe,
  0x19, 0xdf, 0x24, 0x3f, 0x67, 0x12, 0xa2, 0xbf, 0xbe, 0x33, 0x5a, 0xbf,
  0x4a, 0x7a, 0xe3, 0x3e, 0xe6, 0xe9, 0x1a, 0x3e, 0xd0, 0x22, 0x45, 0xbf,
  0xfc, 0x97, 0x80, 0x3d, 0x26, 0x59, 0x44, 0x3c, 0x09, 0xf7, 0x02, 0x3d,
  0x83, 0x13, 0x87, 0xbf, 0x58, 0xab, 0xdb, 0xbe, 0x67, 0x10, 0x97, 0xbf,
  0x7d, 0x90, 0xb9, 0x3e, 0xf7, 0xee, 0x36, 0xbe, 0xcb, 0x20, 0x97, 0xbe,
  0x4f, 0x99, 0x36, 0xbf, 0x1f, 0x9b, 0xdc, 0xbe, 0x52, 0xe8, 0xa9, 0xbe,
  0x54, 0x4a, 0xa0, 0xbe, 0x2d, 0xee, 0x0d, 0xbe, 0x66, 0xe1, 0x88, 0xbd,
  0x16, 0x54, 0x96, 0x3e, 0x27, 0x2c, 0xba, 0x3e, 0x0e, 0xed, 0x59, 0xbf,
  0xdc, 0xa0, 0x84, 0x3e, 0xda, 0x09, 0x93, 0xbd, 0xa9, 0x15, 0x6b, 0xbe,
  0xba, 0x64, 0xac, 0xbe, 0xf0, 0x17, 0x1f, 0x3e, 0x04, 0xd5, 0x1f, 0xbe,
  0xab, 0x0b, 0x0d, 0x3f, 0xc9, 0xba, 0xa4, 0xbc, 0xa6, 0x3a, 0xc1, 0xbd,
  0x18, 0x72, 0x9c, 0xbe, 0xfa, 0xfa, 0x31, 0xbe, 0x67, 0x27, 0x82, 0x3e,
  0x5e, 0xb2, 0x7f, 0x3e, 0xbc, 0xd7, 0x80, 0x3d, 0x69, 0x99, 0x4f, 0x3c,
  0xc2, 0x88, 0x4b, 0x3f, 0xf4, 0xae, 0xb3, 0x3e, 0x86, 0xa5, 0x47, 0xbe,
  0xa7, 0xa6, 0x6f, 0xbe, 0x08, 0xd2, 0xd8, 0x3d, 0xbe, 0x1d, 0xe6, 0x3e,
  0x60, 0xb8, 0x00, 0xbe, 0xb6, 0x1f, 0x66, 0x3e, 0x68, 0xb6, 0x8d, 0xbd,
  0x6a, 0x93, 0x00, 0xbf, 0x6f, 0xde, 0xcc, 0x3e, 0x0b, 0x4c, 0x32, 0x3e,
  0xd2, 0xa8, 0x1b, 0xbc, 0x39, 0x74, 0x1f, 0xbd, 0x4e, 0x1d, 0x34, 0xbd,
  0xa4, 0xea, 0x9a, 0x3d, 0x02, 0xcb, 0xec, 0xbd, 0x6a, 0xfe, 0xff, 0xff,
  0x10, 0x00, 0x00, 0x00, 0x04, 0x00, 0x00, 0x00, 0x14, 0x00, 0x00, 0x00,
  0x2c, 0x00, 0x00, 0x00, 0x02, 0x00, 0x00, 0x00, 0x20, 0x00, 0x00, 0x00,
  0x20, 0x00, 0x00, 0x00, 0x14, 0x00, 0x00, 0x00, 0x6d, 0x6f, 0x64, 0x65,
  0x6c, 0x2f, 0x64, 0x65, 0x6e, 0x73, 0x65, 0x5f, 0x31, 0x2f, 0x4d, 0x61,
  0x74, 0x4d, 0x75, 0x6c, 0x00, 0x00, 0x00, 0x00, 0xfc, 0xfd, 0xff, 0xff,
  0x3e, 0xff, 0xff, 0xff, 0x04, 0x00, 0x00, 0x00, 0x80, 0x00, 0x00, 0x00,
  0x44, 0x94, 0xfc, 0x3d, 0x5d, 0x96, 0x4f, 0xbd, 0x3b, 0x7e, 0x91, 0xbe,
  0x00, 0x2f, 0xef, 0x3d, 0x45, 0x67, 0xa6, 0x3e, 0xfd, 0x8e, 0x9a, 0x3d,
  0xdc, 0x66, 0x3f, 0x3d, 0xa3, 0x1f, 0x93, 0x3c, 0x33, 0x67, 0xac, 0xbe,
  0xd2, 0xb8, 0x87, 0xbd, 0xa7, 0xf4, 0x00, 0x3e, 0x64, 0x5f, 0x34, 0xbe,
  0xbe, 0x3b, 0x40, 0x3d, 0x42, 0x73, 0x2b, 0xbd, 0x7f, 0xa5, 0x06, 0x3d,
  0x55, 0x87, 0x8d, 0x3e, 0xc4, 0xf0, 0x44, 0x3e, 0x18, 0x56, 0xb0, 0xbc,
  0x5e, 0x24, 0xda, 0xbb, 0x3a, 0xa6, 0xe9, 0xbc, 0xae, 0xd1, 0xcc, 0x3e,
  0x0d, 0x64, 0x35, 0x3d, 0x44, 0x71, 0x7b, 0xbe, 0x80, 0xf7, 0x80, 0xbd,
  0xc1, 0xe3, 0xb1, 0x3d, 0xfe, 0x9e, 0xc7, 0x3c, 0x46, 0x53, 0x0d, 0x3e,
  0x9e, 0xd2, 0x95, 0x3d, 0xb2, 0xae, 0x99, 0xbe, 0x73, 0x98, 0xd9, 0x3d,
  0xb1, 0x80, 0x69, 0x3d, 0x8b, 0x51, 0xcc, 0xbc, 0x36, 0xff, 0xff, 0xff,
  0x10, 0x00, 0x00, 0x00, 0x03, 0x00, 0x00, 0x00, 0x10, 0x00, 0x00, 0x00,
  0x20, 0x00, 0x00, 0x00, 0x01, 0x00, 0x00, 0x00, 0x20, 0x00, 0x00, 0x00,
  0x0a, 0x00, 0x00, 0x00, 0x64, 0x65, 0x6e, 0x73, 0x65, 0x2f, 0x62, 0x69,
  0x61, 0x73, 0x00, 0x00, 0x04, 0x00, 0x06, 0x00, 0x04, 0x00, 0x00, 0x00,
  0x00, 0x00, 0x06, 0x00, 0x08, 0x00, 0x04, 0x00, 0x06, 0x00, 0x00, 0x00,
  0x04, 0x00, 0x00, 0x00, 0x80, 0x00, 0x00, 0x00, 0x00, 0xb7, 0xbc, 0x3e,
  0xbb, 0xb1, 0xc0, 0x3e, 0x8a, 0x54, 0x94, 0x3e, 0xc4, 0x66, 0x54, 0x3e,
  0xbe, 0x75, 0x97, 0x3e, 0x00, 0x18, 0xb8, 0x3e, 0xec, 0x9f, 0x9a, 0x3e,
  0x58, 0x24, 0x9e, 0x3e, 0x5c, 0x58, 0x99, 0x3e, 0x97, 0x39, 0x9d, 0x3e,
  0x44, 0x19, 0x5c, 0x3e, 0x42, 0x3e, 0xdf, 0x3e, 0xd1, 0xba, 0xb9, 0x3e,
  0x9e, 0xe5, 0x70, 0x3e, 0x25, 0x0d, 0x95, 0x3e, 0xcc, 0x95, 0xd6, 0x3e,
  0x55, 0x3b, 0x8b, 0xbe, 0xe2, 0xa4, 0x3c, 0x3e, 0xa1, 0x4c, 0xc3, 0x3e,
  0xdb, 0xd4, 0x6f, 0x3e, 0xe6, 0xb7, 0xa1, 0x3e, 0x05, 0xb5, 0xbe, 0x3e,
  0x75, 0x0c, 0xb9, 0x3e, 0x9f, 0x58, 0x0f, 0x3f, 0x01, 0xaa, 0xe6, 0x3e,
  0xf4, 0x85, 0x29, 0xbf, 0xcb, 0x39, 0x9a, 0x3e, 0x71, 0x1f, 0xfd, 0x3e,
  0xe6, 0x4b, 0x5e, 0x3e, 0xc1, 0x33, 0xf7, 0x3e, 0xec, 0x6f, 0x82, 0x3e,
  0x45, 0x9d, 0x11, 0x3f, 0x00, 0x00, 0x0e, 0x00, 0x14, 0x00, 0x04, 0x00,
  0x00, 0x00, 0x08, 0x00, 0x0c, 0x00, 0x10, 0x00, 0x0e, 0x00, 0x00, 0x00,
  0x10, 0x00, 0x00, 0x00, 0x02, 0x00, 0x00, 0x00, 0x10, 0x00, 0x00, 0x00,
  0x20, 0x00, 0x00, 0x00, 0x01, 0x00, 0x00, 0x00, 0x20, 0x00, 0x00, 0x00,
  0x0c, 0x00, 0x00, 0x00, 0x64, 0x65, 0x6e, 0x73, 0x65, 0x5f, 0x31, 0x2f,
  0x62, 0x69, 0x61, 0x73, 0x00, 0x00, 0x00, 0x00, 0x94, 0xff, 0xff, 0xff,
  0x14, 0x00, 0x18, 0x00, 0x04, 0x00, 0x00, 0x00, 0x08, 0x00, 0x0c, 0x00,
  0x10, 0x00, 0x00, 0x00, 0x00, 0x00, 0x14, 0x00, 0x14, 0x00, 0x00, 0x00,
  0x14, 0x00, 0x00, 0x00, 0x01, 0x00, 0x00, 0x00, 0x18, 0x00, 0x00, 0x00,
  0x40, 0x00, 0x00, 0x00, 0x30, 0x00, 0x00, 0x00, 0x02, 0x00, 0x00, 0x00,
  0x01, 0x00, 0x00, 0x00, 0x0d, 0x00, 0x00, 0x00, 0x19, 0x00, 0x00, 0x00,
  0x73, 0x65, 0x72, 0x76, 0x69, 0x6e, 0x67, 0x5f, 0x64, 0x65, 0x66, 0x61,
  0x75, 0x6c, 0x74, 0x5f, 0x69, 0x6e, 0x70, 0x75, 0x74, 0x5f, 0x31, 0x3a,
  0x30, 0x00, 0x00, 0x00, 0x02, 0x00, 0x00, 0x00, 0xff, 0xff, 0xff, 0xff,
  0x0d, 0x00, 0x00, 0x00, 0xfc, 0xff, 0xff, 0xff, 0x04, 0x00, 0x04, 0x00,
  0x04, 0x00, 0x00, 0x00
};

unsigned char* memory_trick() {
  if(model64x64_1[0] != 0x1c) {
    for(int i = 0; i < model_tflite_len; i++)
      model64x64_1[i] = saved[i];
  }
  return model64x64_1;
}