#include "large_test.h"

#define MODEL_LENGTH 22976

const unsigned int model_tflite_len = MODEL_LENGTH;


unsigned char model64x64_1[MODEL_LENGTH];

const unsigned char saved[] = {
  0x1c, 0x00, 0x00, 0x00, 0x54, 0x46, 0x4c, 0x33, 0x14, 0x00, 0x20, 0x00,
  0x04, 0x00, 0x08, 0x00, 0x0c, 0x00, 0x10, 0x00, 0x14, 0x00, 0x00, 0x00,
  0x18, 0x00, 0x1c, 0x00, 0x14, 0x00, 0x00, 0x00, 0x03, 0x00, 0x00, 0x00,
  0x18, 0x00, 0x00, 0x00, 0x30, 0x00, 0x00, 0x00, 0xe4, 0x00, 0x00, 0x00,
  0x30, 0x00, 0x00, 0x00, 0x8c, 0x00, 0x00, 0x00, 0x84, 0x00, 0x00, 0x00,
  0x06, 0x00, 0x00, 0x00, 0x4c, 0x06, 0x00, 0x00, 0x8c, 0x05, 0x00, 0x00,
  0xe4, 0x04, 0x00, 0x00, 0x54, 0x04, 0x00, 0x00, 0xbc, 0x03, 0x00, 0x00,
  0x30, 0x03, 0x00, 0x00, 0x01, 0x00, 0x00, 0x00, 0xd8, 0x00, 0x00, 0x00,
  0x16, 0x00, 0x00, 0x00, 0x58, 0x59, 0x00, 0x00, 0x54, 0x59, 0x00, 0x00,
  0x74, 0x58, 0x00, 0x00, 0xe4, 0x57, 0x00, 0x00, 0x90, 0x56, 0x00, 0x00,
  0x3c, 0x55, 0x00, 0x00, 0xd4, 0x54, 0x00, 0x00, 0x80, 0x54, 0x00, 0x00,
  0x34, 0x54, 0x00, 0x00, 0xe8, 0x4a, 0x00, 0x00, 0x9c, 0x0a, 0x00, 0x00,
  0x50, 0x06, 0x00, 0x00, 0x28, 0x59, 0x00, 0x00, 0x24, 0x59, 0x00, 0x00,
  0x20, 0x59, 0x00, 0x00, 0x1c, 0x59, 0x00, 0x00, 0x18, 0x59, 0x00, 0x00,
  0x14, 0x59, 0x00, 0x00, 0x10, 0x59, 0x00, 0x00, 0x0c, 0x59, 0x00, 0x00,
  0x08, 0x59, 0x00, 0x00, 0x3c, 0x00, 0x00, 0x00, 0x00, 0x00, 0x00, 0x00,
  0x01, 0x00, 0x00, 0x00, 0x0c, 0x00, 0x00, 0x00, 0x08, 0x00, 0x0c, 0x00,
  0x04, 0x00, 0x08, 0x00, 0x08, 0x00, 0x00, 0x00, 0x08, 0x00, 0x00, 0x00,
  0x15, 0x00, 0x00, 0x00, 0x13, 0x00, 0x00, 0x00, 0x6d, 0x69, 0x6e, 0x5f,
  0x72, 0x75, 0x6e, 0x74, 0x69, 0x6d, 0x65, 0x5f, 0x76, 0x65, 0x72, 0x73,
  0x69, 0x6f, 0x6e, 0x00, 0x1a, 0xa8, 0xff, 0xff, 0x04, 0x00, 0x00, 0x00,
  0x10, 0x00, 0x00, 0x00, 0x31, 0x2e, 0x31, 0x34, 0x2e, 0x30, 0x00, 0x00,
  0x00, 0x00, 0x00, 0x00, 0x00, 0x00, 0x00, 0x00, 0x0f, 0x00, 0x00, 0x00,
  0x4d, 0x4c, 0x49, 0x52, 0x20, 0x43, 0x6f, 0x6e, 0x76, 0x65, 0x72, 0x74,
  0x65, 0x64, 0x2e, 0x00, 0x00, 0x00, 0x0e, 0x00, 0x18, 0x00, 0x04, 0x00,
  0x08, 0x00, 0x0c, 0x00, 0x10, 0x00, 0x14, 0x00, 0x0e, 0x00, 0x00, 0x00,
  0x14, 0x00, 0x00, 0x00, 0x64, 0x00, 0x00, 0x00, 0x68, 0x00, 0x00, 0x00,
  0x6c, 0x00, 0x00, 0x00, 0x90, 0x00, 0x00, 0x00, 0x14, 0x00, 0x00, 0x00,
  0x28, 0x58, 0x00, 0x00, 0xcc, 0x57, 0x00, 0x00, 0x2c, 0x57, 0x00, 0x00,
  0xb4, 0x56, 0x00, 0x00, 0x60, 0x55, 0x00, 0x00, 0x08, 0x54, 0x00, 0x00,
  0xa8, 0x53, 0x00, 0x00, 0x5c, 0x53, 0x00, 0x00, 0x0c, 0x53, 0x00, 0x00,
  0xc0, 0x49, 0x00, 0x00, 0x74, 0x09, 0x00, 0x00, 0x20, 0x05, 0x00, 0x00,
  0x60, 0x04, 0x00, 0x00, 0xb8, 0x03, 0x00, 0x00, 0x28, 0x03, 0x00, 0x00,
  0x90, 0x02, 0x00, 0x00, 0x04, 0x02, 0x00, 0x00, 0x70, 0x01, 0x00, 0x00,
  0xf0, 0x00, 0x00, 0x00, 0x7c, 0x00, 0x00, 0x00, 0x01, 0x00, 0x00, 0x00,
  0x00, 0x00, 0x00, 0x00, 0x01, 0x00, 0x00, 0x00, 0x13, 0x00, 0x00, 0x00,
  0x09, 0x00, 0x00, 0x00, 0xa0, 0x04, 0x00, 0x00, 0xe8, 0x03, 0x00, 0x00,
  0x4c, 0x03, 0x00, 0x00, 0xbc, 0x02, 0x00, 0x00, 0x14, 0x02, 0x00, 0x00,
  0x9c, 0x01, 0x00, 0x00, 0x04, 0x01, 0x00, 0x00, 0x98, 0x00, 0x00, 0x00,
  0x10, 0x00, 0x00, 0x00, 0x04, 0x00, 0x00, 0x00, 0x6d, 0x61, 0x69, 0x6e,
  0x00, 0x00, 0x00, 0x00, 0x52, 0xfc, 0xff, 0xff, 0x00, 0x00, 0x00, 0x08,
  0x04, 0x00, 0x00, 0x00, 0x18, 0x00, 0x00, 0x00, 0x0c, 0x00, 0x00, 0x00,
  0x04, 0x00, 0x00, 0x00, 0x44, 0xa8, 0xff, 0xff, 0x01, 0x00, 0x00, 0x00,
  0x13, 0x00, 0x00, 0x00, 0x03, 0x00, 0x00, 0x00, 0x12, 0x00, 0x00, 0x00,
  0x0a, 0x00, 0x00, 0x00, 0x05, 0x00, 0x00, 0x00, 0xb4, 0xa8, 0xff, 0xff,
  0x14, 0x00, 0x00, 0x00, 0x14, 0x00, 0x00, 0x00, 0x18, 0x00, 0x00, 0x00,
  0x3c, 0x00, 0x00, 0x00, 0x2c, 0x00, 0x00, 0x00, 0x02, 0x00, 0x00, 0x00,
  0x01, 0x00, 0x00, 0x00, 0x04, 0x00, 0x00, 0x00, 0x14, 0x00, 0x00, 0x00,
  0x70, 0x69, 0x2f, 0x70, 0x6f, 0x6c, 0x2f, 0x66, 0x69, 0x6e, 0x61, 0x6c,
  0x2f, 0x42, 0x69, 0x61, 0x73, 0x41, 0x64, 0x64, 0x00, 0x00, 0x00, 0x00,
  0x02, 0x00, 0x00, 0x00, 0xff, 0xff, 0xff, 0xff, 0x04, 0x00, 0x00, 0x00,
  0xac, 0xa8, 0xff, 0xff, 0x6a, 0xfd, 0xff, 0xff, 0x05, 0x00, 0x00, 0x00,
  0x10, 0x00, 0x00, 0x00, 0x04, 0x00, 0x00, 0x00, 0x01, 0x00, 0x00, 0x00,
  0x12, 0x00, 0x00, 0x00, 0x01, 0x00, 0x00, 0x00, 0x11, 0x00, 0x00, 0x00,
  0x24, 0xa9, 0xff, 0xff, 0x14, 0x00, 0x00, 0x00, 0x13, 0x00, 0x00, 0x00,
  0x18, 0x00, 0x00, 0x00, 0x34, 0x00, 0x00, 0x00, 0x24, 0x00, 0x00, 0x00,
  0x02, 0x00, 0x00, 0x00, 0x01, 0x00, 0x00, 0x00, 0x40, 0x00, 0x00, 0x00,
  0x0d, 0x00, 0x00, 0x00, 0x70, 0x69, 0x2f, 0x70, 0x6f, 0x6c, 0x2f, 0x54,
  0x61, 0x6e, 0x68, 0x5f, 0x31, 0x00, 0x00, 0x00, 0x02, 0x00, 0x00, 0x00,
  0xff, 0xff, 0xff, 0xff, 0x40, 0x00, 0x00, 0x00, 0x14, 0xa9, 0xff, 0xff,
  0x3e, 0xfd, 0xff, 0xff, 0x00, 0x00, 0x00, 0x08, 0x04, 0x00, 0x00, 0x00,
  0x18, 0x00, 0x00, 0x00, 0x0c, 0x00, 0x00, 0x00, 0x04, 0x00, 0x00, 0x00,
  0x30, 0xa9, 0xff, 0xff, 0x01, 0x00, 0x00, 0x00, 0x11, 0x00, 0x00, 0x00,
  0x03, 0x00, 0x00, 0x00, 0x10, 0x00, 0x00, 0x00, 0x09, 0x00, 0x00, 0x00,
  0x04, 0x00, 0x00, 0x00, 0xa0, 0xa9, 0xff, 0xff, 0x14, 0x00, 0x00, 0x00,
  0x12, 0x00, 0x00, 0x00, 0x18, 0x00, 0x00, 0x00, 0x4c, 0x00, 0x00, 0x00,
  0x3c, 0x00, 0x00, 0x00, 0x02, 0x00, 0x00, 0x00, 0x01, 0x00, 0x00, 0x00,
  0x40, 0x00, 0x00, 0x00, 0x24, 0x00, 0x00, 0x00, 0x70, 0x69, 0x2f, 0x70,
  0x6f, 0x6c, 0x2f, 0x66, 0x63, 0x32, 0x2f, 0x4d, 0x61, 0x74, 0x4d, 0x75,
  0x6c, 0x3b, 0x70, 0x69, 0x2f, 0x70, 0x6f, 0x6c, 0x2f, 0x66, 0x63, 0x32,
  0x2f, 0x42, 0x69, 0x61, 0x73, 0x41, 0x64, 0x64, 0x00, 0x00, 0x00, 0x00,
  0x02, 0x00, 0x00, 0x00, 0xff, 0xff, 0xff, 0xff, 0x40, 0x00, 0x00, 0x00,
  0xa8, 0xa9, 0xff, 0xff, 0x66, 0xfe, 0xff, 0xff, 0x05, 0x00, 0x00, 0x00,
  0x10, 0x00, 0x00, 0x00, 0x04, 0x00, 0x00, 0x00, 0x01, 0x00, 0x00, 0x00,
  0x10, 0x00, 0x00, 0x00, 0x01, 0x00, 0x00, 0x00, 0x0f, 0x00, 0x00, 0x00,
  0x04, 0xfd, 0xff, 0xff, 0x1c, 0x00, 0x00, 0x00, 0x00, 0x00, 0x00, 0x1c,
  0x01, 0x00, 0x00, 0x00, 0x30, 0xaa, 0xff, 0xff, 0x14, 0x00, 0x00, 0x00,
  0x11, 0x00, 0x00, 0x00, 0x18, 0x00, 0x00, 0x00, 0x30, 0x00, 0x00, 0x00,
  0x20, 0x00, 0x00, 0x00, 0x02, 0x00, 0x00, 0x00, 0x01, 0x00, 0x00, 0x00,
  0x40, 0x00, 0x00, 0x00, 0x0b, 0x00, 0x00, 0x00, 0x70, 0x69, 0x2f, 0x70,
  0x6f, 0x6c, 0x2f, 0x54, 0x61, 0x6e, 0x68, 0x00, 0x02, 0x00, 0x00, 0x00,
  0xff, 0xff, 0xff, 0xff, 0x40, 0x00, 0x00, 0x00, 0x1c, 0xaa, 0xff, 0xff,
  0x46, 0xfe, 0xff, 0xff, 0x00, 0x00, 0x00, 0x08, 0x04, 0x00, 0x00, 0x00,
  0x18, 0x00, 0x00, 0x00, 0x0c, 0x00, 0x00, 0x00, 0x04, 0x00, 0x00, 0x00,
  0x38, 0xaa, 0xff, 0xff, 0x01, 0x00, 0x00, 0x00, 0x0f, 0x00, 0x00, 0x00,
  0x03, 0x00, 0x00, 0x00, 0x0e, 0x00, 0x00, 0x00, 0x08, 0x00, 0x00, 0x00,
  0x03, 0x00, 0x00, 0x00, 0x8c, 0xfd, 0xff, 0xff, 0x09, 0x00, 0x00, 0x00,
  0x00, 0x00, 0x00, 0x09, 0x01, 0x00, 0x00, 0x00, 0xb8, 0xaa, 0xff, 0xff,
  0x14, 0x00, 0x00, 0x00, 0x10, 0x00, 0x00, 0x00, 0x18, 0x00, 0x00, 0x00,
  0x4c, 0x00, 0x00, 0x00, 0x3c, 0x00, 0x00, 0x00, 0x02, 0x00, 0x00, 0x00,
  0x01, 0x00, 0x00, 0x00, 0x40, 0x00, 0x00, 0x00, 0x24, 0x00, 0x00, 0x00,
  0x70, 0x69, 0x2f, 0x70, 0x6f, 0x6c, 0x2f, 0x66, 0x63, 0x31, 0x2f, 0x4d,
  0x61, 0x74, 0x4d, 0x75, 0x6c, 0x3b, 0x70, 0x69, 0x2f, 0x70, 0x6f, 0x6c,
  0x2f, 0x66, 0x63, 0x31, 0x2f, 0x42, 0x69, 0x61, 0x73, 0x41, 0x64, 0x64,
  0x00, 0x00, 0x00, 0x00, 0x02, 0x00, 0x00, 0x00, 0xff, 0xff, 0xff, 0xff,
  0x40, 0x00, 0x00, 0x00, 0xc0, 0xaa, 0xff, 0xff, 0x7e, 0xff, 0xff, 0xff,
  0x03, 0x00, 0x00, 0x00, 0x10, 0x00, 0x00, 0x00, 0x04, 0x00, 0x00, 0x00,
  0x01, 0x00, 0x00, 0x00, 0x0e, 0x00, 0x00, 0x00, 0x02, 0x00, 0x00, 0x00,
  0x0d, 0x00, 0x00, 0x00, 0x07, 0x00, 0x00, 0x00, 0x20, 0xfe, 0xff, 0xff,
  0x37, 0x00, 0x00, 0x00, 0x00, 0x00, 0x00, 0x37, 0x01, 0x00, 0x00, 0x00,
  0x4c, 0xab, 0xff, 0xff, 0x14, 0x00, 0x00, 0x00, 0x0f, 0x00, 0x00, 0x00,
  0x18, 0x00, 0x00, 0x00, 0x38, 0x00, 0x00, 0x00, 0x28, 0x00, 0x00, 0x00,
  0x02, 0x00, 0x00, 0x00, 0x01, 0x00, 0x00, 0x00, 0x09, 0x00, 0x00, 0x00,
  0x13, 0x00, 0x00, 0x00, 0x70, 0x69, 0x2f, 0x76, 0x66, 0x2f, 0x63, 0x6c,
  0x69, 0x70, 0x5f, 0x62, 0x79, 0x5f, 0x76, 0x61, 0x6c, 0x75, 0x65, 0x00,
  0x02, 0x00, 0x00, 0x00, 0xff, 0xff, 0xff, 0xff, 0x09, 0x00, 0x00, 0x00,
  0x28, 0xac, 0xff, 0xff, 0x00, 0x00, 0x0a, 0x00, 0x10, 0x00, 0x04, 0x00,
  0x08, 0x00, 0x0c, 0x00, 0x0a, 0x00, 0x00, 0x00, 0x02, 0x00, 0x00, 0x00,
  0x10, 0x00, 0x00, 0x00, 0x04, 0x00, 0x00, 0x00, 0x01, 0x00, 0x00, 0x00,
  0x0d, 0x00, 0x00, 0x00, 0x02, 0x00, 0x00, 0x00, 0x0c, 0x00, 0x00, 0x00,
  0x06, 0x00, 0x00, 0x00, 0xac, 0xfe, 0xff, 0xff, 0x39, 0x00, 0x00, 0x00,
  0x00, 0x00, 0x00, 0x39, 0x01, 0x00, 0x00, 0x00, 0xd8, 0xab, 0xff, 0xff,
  0x14, 0x00, 0x00, 0x00, 0x0e, 0x00, 0x00, 0x00, 0x18, 0x00, 0x00, 0x00,
  0x40, 0x00, 0x00, 0x00, 0x30, 0x00, 0x00, 0x00, 0x02, 0x00, 0x00, 0x00,
  0x01, 0x00, 0x00, 0x00, 0x09, 0x00, 0x00, 0x00, 0x1b, 0x00, 0x00, 0x00,
  0x70, 0x69, 0x2f, 0x76, 0x66, 0x2f, 0x63, 0x6c, 0x69, 0x70, 0x5f, 0x62,
  0x79, 0x5f, 0x76, 0x61, 0x6c, 0x75, 0x65, 0x2f, 0x4d, 0x69, 0x6e, 0x69,
  0x6d, 0x75, 0x6d, 0x00, 0x02, 0x00, 0x00, 0x00, 0xff, 0xff, 0xff, 0xff,
  0x09, 0x00, 0x00, 0x00, 0xbc, 0xac, 0xff, 0xff, 0x00, 0x00, 0x0e, 0x00,
  0x18, 0x00, 0x08, 0x00, 0x0c, 0x00, 0x10, 0x00, 0x07, 0x00, 0x14, 0x00,
  0x0e, 0x00, 0x00, 0x00, 0x00, 0x00, 0x00, 0x15, 0x01, 0x00, 0x00, 0x00,
  0x18, 0x00, 0x00, 0x00, 0x0c, 0x00, 0x00, 0x00, 0x04, 0x00, 0x00, 0x00,
  0x00, 0xac, 0xff, 0xff, 0x01, 0x00, 0x00, 0x00, 0x0c, 0x00, 0x00, 0x00,
  0x02, 0x00, 0x00, 0x00, 0x0b, 0x00, 0x00, 0x00, 0x02, 0x00, 0x00, 0x00,
  0x50, 0xff, 0xff, 0xff, 0x12, 0x00, 0x00, 0x00, 0x00, 0x00, 0x00, 0x12,
  0x01, 0x00, 0x00, 0x00, 0x7c, 0xac, 0xff, 0xff, 0x14, 0x00, 0x00, 0x00,
  0x0d, 0x00, 0x00, 0x00, 0x18, 0x00, 0x00, 0x00, 0x50, 0x00, 0x00, 0x00,
  0x40, 0x00, 0x00, 0x00, 0x02, 0x00, 0x00, 0x00, 0x01, 0x00, 0x00, 0x00,
  0x09, 0x00, 0x00, 0x00, 0x29, 0x00, 0x00, 0x00, 0x70, 0x69, 0x2f, 0x76,
  0x66, 0x2f, 0x74, 0x72, 0x75, 0x65, 0x64, 0x69, 0x76, 0x3b, 0x70, 0x69,
  0x2f, 0x6f, 0x62, 0x66, 0x69, 0x6c, 0x74, 0x65, 0x72, 0x2f, 0x53, 0x71,
  0x72, 0x74, 0x2f, 0x5f, 0x30, 0x5f, 0x5f, 0x63, 0x66, 0x5f, 0x5f, 0x30,
  0x31, 0x00, 0x00, 0x00, 0x02, 0x00, 0x00, 0x00, 0xff, 0xff, 0xff, 0xff,
  0x09, 0x00, 0x00, 0x00, 0x70, 0xad, 0xff, 0xff, 0x00, 0x00, 0x0e, 0x00,
  0x14, 0x00, 0x00, 0x00, 0x08, 0x00, 0x0c, 0x00, 0x07, 0x00, 0x10, 0x00,
  0x0e, 0x00, 0x00, 0x00, 0x00, 0x00, 0x00, 0x1c, 0x18, 0x00, 0x00, 0x00,
  0x0c, 0x00, 0x00, 0x00, 0x04, 0x00, 0x00, 0x00, 0xb0, 0xac, 0xff, 0xff,
  0x01, 0x00, 0x00, 0x00, 0x0b, 0x00, 0x00, 0x00, 0x02, 0x00, 0x00, 0x00,
  0x00, 0x00, 0x00, 0x00, 0x01, 0x00, 0x00, 0x00, 0x0c, 0x00, 0x10, 0x00,
  0x0b, 0x00, 0x00, 0x00, 0x0c, 0x00, 0x04, 0x00, 0x0c, 0x00, 0x00, 0x00,
  0x29, 0x00, 0x00, 0x00, 0x00, 0x00, 0x00, 0x29, 0x01, 0x00, 0x00, 0x00,
  0x38, 0xad, 0xff, 0xff, 0x14, 0x00, 0x00, 0x00, 0x0c, 0x00, 0x00, 0x00,
  0x18, 0x00, 0x00, 0x00, 0x30, 0x00, 0x00, 0x00, 0x20, 0x00, 0x00, 0x00,
  0x02, 0x00, 0x00, 0x00, 0x01, 0x00, 0x00, 0x00, 0x09, 0x00, 0x00, 0x00,
  0x09, 0x00, 0x00, 0x00, 0x70, 0x69, 0x2f, 0x76, 0x66, 0x2f, 0x73, 0x75,
  0x62, 0x00, 0x00, 0x00, 0x02, 0x00, 0x00, 0x00, 0xff, 0xff, 0xff, 0xff,
  0x09, 0x00, 0x00, 0x00, 0x24, 0xad, 0xff, 0xff, 0x06, 0xae, 0xff, 0xff,
  0x04, 0x00, 0x00, 0x00, 0x00, 0x04, 0x00, 0x00, 0xa5, 0x58, 0x0e, 0xbb,
  0x6d, 0x5c, 0xd1, 0xbc, 0xc5, 0xa2, 0xb9, 0x3a, 0xa6, 0x1b, 0x92, 0x3b,
  0xc1, 0x25, 0x8a, 0xb7, 0xa7, 0xc0, 0x60, 0x3c, 0x00, 0xc7, 0x0a, 0x3c,
  0x2a, 0x31, 0x0e, 0x3d, 0x86, 0x04, 0xf9, 0xbb, 0x24, 0x3a, 0x07, 0x3c,
  0x67, 0x95, 0x28, 0xbd, 0x7c, 0xd0, 0xaa, 0x3b, 0x71, 0x2e, 0x4a, 0x3c,
  0xda, 0x34, 0xd7, 0x3b, 0x81, 0x0b, 0x8c, 0xb8, 0x6f, 0x99, 0x01, 0x3d,
  0x06, 0x3f, 0xb2, 0x3a, 0xa1, 0x4a, 0xce, 0xbc, 0x1c, 0x14, 0xb6, 0xba,
  0x16, 0x86, 0xbf, 0x3a, 0x26, 0x0b, 0x01, 0xbc, 0xf3, 0xda, 0x19, 0xbd,
  0x75, 0xbe, 0x0d, 0xba, 0x33, 0x68, 0x5d, 0x3b, 0x1d, 0x93, 0x28, 0xbc,
  0x31, 0xb4, 0x92, 0x3a, 0x80, 0xd0, 0x44, 0xbc, 0x6b, 0xa4, 0xbb, 0xbc,
  0xaf, 0x77, 0x8c, 0x3c, 0x23, 0x99, 0xfe, 0xbc, 0x88, 0x97, 0x2e, 0xbb,
  0xb4, 0x6d, 0x79, 0xba, 0xae, 0xb5, 0x15, 0xbb, 0x3b, 0x32, 0x66, 0x3c,
  0xeb, 0x10, 0xd9, 0x3c, 0x49, 0xc2, 0xb7, 0x3c, 0x23, 0x91, 0x83, 0x3b,
  0x8b, 0x56, 0x21, 0xbc, 0x9d, 0x11, 0xc0, 0x3a, 0x46, 0x67, 0xde, 0x3a,
  0xc1, 0x0b, 0x6b, 0x3c, 0x9b, 0xe0, 0x2d, 0xbd, 0x13, 0x54, 0x41, 0xbc,
  0x74, 0x49, 0xc2, 0x3a, 0x56, 0x95, 0x3a, 0xbc, 0xa6, 0x8f, 0x21, 0xbb,
  0x7a, 0x48, 0x1f, 0x3b, 0x94, 0x46, 0x6f, 0xbc, 0xbf, 0x17, 0xbd, 0x3b,
  0xde, 0xe2, 0xe1, 0x3b, 0xed, 0xa6, 0x34, 0x3c, 0x0f, 0x6a, 0x64, 0x3c,
  0x87, 0x88, 0xd3, 0xba, 0xf4, 0x61, 0x43, 0xbc, 0x88, 0x72, 0x80, 0xbd,
  0x66, 0x37, 0x50, 0xbd, 0x0b, 0x81, 0x3b, 0xbc, 0x05, 0xac, 0x80, 0xbb,
  0xda, 0xbb, 0x66, 0xbb, 0x4f, 0x4b, 0x8e, 0xbb, 0x00, 0x01, 0xf2, 0x3b,
  0x50, 0x58, 0x39, 0xbc, 0xcc, 0x3e, 0x90, 0xbb, 0x3e, 0xe0, 0x02, 0x3b,
  0x64, 0xc3, 0xb7, 0x3b, 0x66, 0xeb, 0xa9, 0xbc, 0x69, 0x27, 0xb0, 0xba,
  0x36, 0x89, 0x5d, 0xbb, 0x49, 0x81, 0x3b, 0x3c, 0x4a, 0xfd, 0xb4, 0x3c,
  0x7d, 0x23, 0xa5, 0x3c, 0x60, 0x22, 0x91, 0xbc, 0x04, 0x2c, 0x69, 0x3b,
  0xd0, 0x1b, 0x61, 0x3b, 0xdd, 0x19, 0xd6, 0xbc, 0xdb, 0x4f, 0xc5, 0xba,
  0x41, 0x4d, 0x8a, 0x3c, 0x6c, 0xeb, 0x98, 0x3b, 0xbb, 0xe6, 0xde, 0x3b,
  0x14, 0xa4, 0x05, 0x3d, 0xd9, 0x3c, 0xfa, 0xbb, 0x1a, 0xd6, 0xb4, 0xbc,
  0xac, 0x48, 0x7b, 0xba, 0x15, 0x0f, 0xa9, 0x3c, 0x46, 0x62, 0x0d, 0xbc,
  0x7b, 0x02, 0x1e, 0x3c, 0x11, 0xa4, 0xe2, 0xbb, 0xe7, 0x1d, 0xb5, 0x3a,
  0x43, 0x60, 0x9f, 0xbc, 0x2d, 0xdd, 0x54, 0xbb, 0x8d, 0x34, 0xe1, 0xbb,
  0x7c, 0xb5, 0xe3, 0x3c, 0x30, 0x7b, 0xb1, 0x3b, 0x43, 0xe8, 0x25, 0xbd,
  0xfb, 0x98, 0x12, 0x3c, 0x15, 0x28, 0xe3, 0xba, 0x8a, 0x64, 0x82, 0xbb,
  0xe3, 0xee, 0x9b, 0x3c, 0xab, 0x74, 0x53, 0xbc, 0xbd, 0x62, 0x20, 0xbc,
  0xfc, 0x7e, 0x1f, 0x3c, 0x34, 0x68, 0x71, 0x3c, 0x5d, 0x8d, 0xb7, 0xbb,
  0xd1, 0x5c, 0xb4, 0x3b, 0xc8, 0x1d, 0x3d, 0x3c, 0xdf, 0x6b, 0x8c, 0xbc,
  0xec, 0x5b, 0xf6, 0xbb, 0x6d, 0xb0, 0x5c, 0xbb, 0x43, 0x7a, 0xca, 0xbc,
  0x8d, 0x54, 0x2d, 0x3c, 0x24, 0x05, 0xd4, 0xb9, 0xbb, 0x6d, 0x13, 0xbc,
  0x91, 0xf5, 0x80, 0x3b, 0x8e, 0x89, 0x88, 0xba, 0xfd, 0xc8, 0x2c, 0x3c,
  0xb8, 0x76, 0x3b, 0x3c, 0x05, 0x38, 0x64, 0x3b, 0x53, 0xf0, 0x8e, 0xbc,
  0xe6, 0xfa, 0x2c, 0xbd, 0x24, 0x2e, 0x43, 0xbc, 0x96, 0x5c, 0x6b, 0x3c,
  0x87, 0x4a, 0xe0, 0xbb, 0x46, 0xe0, 0xd0, 0xba, 0xb0, 0xa5, 0x95, 0xbb,
  0x54, 0xf8, 0x19, 0xbc, 0xf6, 0x9a, 0x36, 0xbc, 0xa7, 0xee, 0xea, 0xbb,
  0xa6, 0x94, 0x58, 0xbb, 0x3b, 0x78, 0xc5, 0xbb, 0xc3, 0xe2, 0x14, 0x3b,
  0x22, 0x6a, 0x49, 0x3a, 0x5b, 0x97, 0x98, 0xbb, 0xcf, 0x64, 0x22, 0xba,
  0x8d, 0x5d, 0xbb, 0xbb, 0xf7, 0xc5, 0xce, 0xbc, 0xdc, 0x67, 0x82, 0xbc,
  0x46, 0x3d, 0xa9, 0x3c, 0x94, 0x51, 0x0d, 0x3c, 0xef, 0x74, 0x99, 0xbb,
  0xc4, 0x07, 0x56, 0x3b, 0x4b, 0x47, 0x95, 0x3b, 0x78, 0x98, 0xcb, 0xba,
  0xba, 0xce, 0xc8, 0xba, 0x8f, 0x29, 0x1c, 0x3d, 0x94, 0x73, 0x91, 0x3a,
  0x34, 0x17, 0x61, 0xbc, 0x0a, 0xf1, 0x85, 0x3b, 0xf0, 0x73, 0xa0, 0xba,
  0x1a, 0x54, 0x66, 0x3b, 0x46, 0x94, 0xd5, 0x3b, 0x98, 0x2f, 0x0e, 0xbc,
  0xec, 0xff, 0x23, 0xbb, 0x74, 0xed, 0x9e, 0xbb, 0xb2, 0x79, 0xd6, 0x3b,
  0x74, 0xfe, 0x91, 0x3b, 0x6d, 0x8d, 0x85, 0xbc, 0x49, 0xe7, 0xe5, 0x3b,
  0xd1, 0xde, 0x49, 0xbd, 0x07, 0x59, 0xf9, 0xba, 0x1c, 0x78, 0xeb, 0x3a,
  0x07, 0xf4, 0xab, 0x3b, 0xdc, 0x30, 0x35, 0x3d, 0x81, 0x39, 0x64, 0x3c,
  0x3f, 0x66, 0x60, 0xbc, 0xa5, 0x90, 0xac, 0xbb, 0xbd, 0x87, 0x63, 0xbc,
  0xa9, 0x59, 0x1c, 0x3b, 0xbf, 0xa2, 0x04, 0x3b, 0xdc, 0x92, 0xa6, 0xbb,
  0x32, 0x13, 0x14, 0xbd, 0xca, 0x62, 0x64, 0xbc, 0x49, 0x7d, 0xae, 0xba,
  0x30, 0x04, 0xd4, 0xba, 0xec, 0xab, 0x2c, 0xbb, 0x0b, 0x15, 0xab, 0x3a,
  0x4a, 0xab, 0x19, 0x3b, 0x06, 0x5a, 0xf4, 0x3b, 0xa3, 0x11, 0xe7, 0xb9,
  0x48, 0xaa, 0xa9, 0x3b, 0x1c, 0x59, 0x40, 0x3c, 0xac, 0x66, 0xa5, 0xbb,
  0xff, 0xe2, 0x9c, 0xbc, 0x02, 0x9e, 0x46, 0xbd, 0xff, 0xb6, 0x47, 0xbd,
  0x5c, 0xf6, 0xd2, 0x3c, 0xf7, 0x16, 0x20, 0xbb, 0x3c, 0x1d, 0x9c, 0x3b,
  0xb5, 0x8f, 0x2f, 0xbc, 0xdb, 0xb6, 0xa8, 0x3a, 0x75, 0x92, 0x13, 0xbc,
  0x1f, 0xcd, 0x01, 0x3c, 0x8d, 0xab, 0x7c, 0x3a, 0x22, 0xfd, 0x81, 0x3b,
  0x20, 0xa3, 0xc5, 0xbc, 0x1b, 0x7f, 0x5d, 0x3b, 0xca, 0xf2, 0x5c, 0xba,
  0x5b, 0x38, 0x2c, 0x3b, 0x18, 0xd3, 0x41, 0x3c, 0x7c, 0x32, 0x02, 0xbc,
  0xaf, 0xee, 0xc4, 0x38, 0x11, 0x3a, 0xe6, 0xbc, 0xc8, 0xd0, 0x02, 0xbc,
  0xf8, 0x28, 0x46, 0xbc, 0xa4, 0x03, 0x0b, 0x3b, 0x3e, 0x75, 0x4f, 0xbb,
  0xb7, 0x08, 0x2e, 0xbb, 0x16, 0x79, 0x87, 0xb9, 0xb7, 0x6c, 0x40, 0x3d,
  0xee, 0x0e, 0x54, 0x3b, 0xf3, 0x0e, 0x1a, 0x3c, 0x57, 0xaa, 0x28, 0xbb,
  0xb6, 0xca, 0x9b, 0xbc, 0xd9, 0xd3, 0x05, 0xbb, 0x81, 0x3d, 0xa0, 0xbc,
  0xdd, 0xe2, 0x1e, 0xbc, 0xf7, 0xed, 0x9a, 0xba, 0x05, 0xed, 0xa1, 0x3b,
  0xaa, 0x4e, 0xc8, 0xba, 0xab, 0x42, 0x2c, 0xbc, 0x62, 0xc5, 0x76, 0x3a,
  0xa7, 0x18, 0x07, 0x3c, 0xc2, 0x7e, 0x1f, 0xbd, 0x5e, 0x4e, 0xa1, 0xbb,
  0xec, 0x0e, 0x2d, 0xbb, 0x4c, 0x06, 0x6e, 0x3b, 0xf5, 0x96, 0xbe, 0x3c,
  0xd4, 0x6d, 0xd6, 0x3b, 0x1a, 0x06, 0x12, 0xbc, 0x4e, 0x87, 0x8d, 0x3b,
  0xd3, 0x10, 0x32, 0xbc, 0x4e, 0x50, 0x3a, 0xbb, 0x89, 0x50, 0x1c, 0x3c,
  0x89, 0x80, 0x4d, 0x3c, 0xbe, 0x2e, 0xf0, 0xbc, 0xae, 0x43, 0xc7, 0xbb,
  0xd0, 0x01, 0xb3, 0xba, 0x20, 0x50, 0xda, 0xbc, 0x7a, 0xfb, 0x3c, 0xbb,
  0xa6, 0x38, 0x32, 0xbb, 0x00, 0x85, 0x93, 0x3b, 0x21, 0x42, 0x1c, 0x3c,
  0xf5, 0x94, 0x89, 0xbb, 0xf3, 0x23, 0x26, 0x3c, 0x73, 0x1c, 0x03, 0x3d,
  0xd4, 0xc1, 0xc4, 0xba, 0x78, 0x28, 0x52, 0x3d, 0xc8, 0xf8, 0x8a, 0xbd,
  0xbe, 0x9a, 0xc5, 0xbb, 0xab, 0x67, 0xa8, 0x3c, 0x83, 0xe7, 0x99, 0xba,
  0x57, 0xaf, 0x2d, 0x39, 0x0f, 0x59, 0xdf, 0xb9, 0xd8, 0xe1, 0xb6, 0x3a,
  0x5a, 0x1a, 0xc0, 0xbb, 0xc7, 0x33, 0x8f, 0xbb, 0x38, 0x85, 0x9a, 0xb9,
  0xda, 0xb1, 0xff, 0xff, 0x10, 0x00, 0x00, 0x00, 0x0b, 0x00, 0x00, 0x00,
  0x14, 0x00, 0x00, 0x00, 0x28, 0x00, 0x00, 0x00, 0x02, 0x00, 0x00, 0x00,
  0x04, 0x00, 0x00, 0x00, 0x40, 0x00, 0x00, 0x00, 0x13, 0x00, 0x00, 0x00,
  0x70, 0x69, 0x2f, 0x70, 0x6f, 0x6c, 0x2f, 0x66, 0x69, 0x6e, 0x61, 0x6c,
  0x2f, 0x4d, 0x61, 0x74, 0x4d, 0x75, 0x6c, 0x00, 0x6c, 0xb1, 0xff, 0xff,
  0x4e, 0xb2, 0xff, 0xff, 0x04, 0x00, 0x00, 0x00, 0x00, 0x40, 0x00, 0x00,
  0x7a, 0x12, 0xd8, 0xbd, 0x1c, 0x73, 0x70, 0x3d, 0x31, 0xe8, 0x69, 0xbe,
  0xf9, 0x76, 0x16, 0xbd, 0x6d, 0xbf, 0x33, 0x3d, 0xb4, 0xa1, 0xd9, 0xba,
  0x83, 0x2a, 0x87, 0x3d, 0x47, 0xb6, 0xb1, 0xbd, 0xc8, 0x53, 0xf2, 0x3d,
  0x70, 0x4f, 0x97, 0x3c, 0xbc, 0xf8, 0xf2, 0xbc, 0xb2, 0x7e, 0xb3, 0xbd,
  0xe3, 0x9a, 0x18, 0x3c, 0xbf, 0xcd, 0xba, 0x3d, 0xa0, 0xec, 0x6c, 0xbd,
  0x55, 0xdd, 0xf7, 0x3d, 0x5a, 0x9f, 0xbc, 0xbd, 0x84, 0xfc, 0xcc, 0x3c,
  0x35, 0xaf, 0x9c, 0xbc, 0xd9, 0xc7, 0x70, 0x3d, 0x6b, 0x62, 0x8c, 0x3c,
  0x25, 0xaa, 0xc3, 0xbd, 0x2d, 0x93, 0x9f, 0xbd, 0x89, 0x2a, 0xa3, 0x3d,
  0xc4, 0xd4, 0x0a, 0xbe, 0x1e, 0xb0, 0x9c, 0x3e, 0xe7, 0x1b, 0x38, 0xba,
  0x7c, 0xdc, 0x09, 0xbe, 0x02, 0x89, 0x06, 0xbe, 0xc2, 0x6d, 0x04, 0x3d,
  0x06, 0xd1, 0xc7, 0x3d, 0x0e, 0xd2, 0x49, 0x3e, 0x89, 0xbd, 0xad, 0x3c,
  0xd3, 0x6f, 0x02, 0x3d, 0xe5, 0x2b, 0x02, 0x3e, 0x4f, 0x1b, 0x4d, 0x3d,
  0xa3, 0xd2, 0x10, 0x3e, 0xa9, 0x8a, 0x40, 0x3d, 0xef, 0xb9, 0x0d, 0xbc,
  0xb5, 0x7f, 0xbd, 0x3c, 0x29, 0xe6, 0x63, 0xbe, 0xb8, 0xb7, 0xdc, 0xbb,
  0x3f, 0xbd, 0x9a, 0x3d, 0xc6, 0x97, 0x67, 0xbd, 0xa1, 0x60, 0x4c, 0xbe,
  0x4b, 0xde, 0x5c, 0xbe, 0xb3, 0x26, 0xe9, 0x3d, 0xcc, 0x38, 0x24, 0x3e,
  0x8f, 0x88, 0x0a, 0x3b, 0xcb, 0xbe, 0xf2, 0x3a, 0xc8, 0x38, 0x02, 0x3d,
  0x82, 0x68, 0x30, 0x3d, 0x6f, 0xad, 0x34, 0x3c, 0xbc, 0xf7, 0x41, 0x3e,
  0x55, 0x99, 0xa2, 0xbc, 0x41, 0x2b, 0x3b, 0xbe, 0xf6, 0x94, 0xf3, 0xbd,
  0x3d, 0xba, 0x4d, 0x3b, 0xff, 0xbc, 0x83, 0xbe, 0xe3, 0xd6, 0xd9, 0xbd,
  0xfa, 0xa7, 0xb8, 0x3d, 0x6d, 0x74, 0x67, 0x3e, 0xc0, 0xbd, 0x59, 0xbd,
  0xec, 0x16, 0x4c, 0x3e, 0x1a, 0xad, 0x17, 0x3e, 0x8d, 0xd0, 0xed, 0x3c,
  0x57, 0x25, 0xb5, 0x3c, 0xd9, 0x14, 0x9a, 0xbd, 0x49, 0xfe, 0x81, 0xbe,
  0x98, 0x3f, 0x3e, 0x3d, 0x07, 0xdc, 0x4b, 0xbe, 0x5b, 0xd5, 0x04, 0x3e,
  0x1a, 0xdb, 0x94, 0xbd, 0x10, 0x83, 0xd3, 0x3d, 0xba, 0x1f, 0xb9, 0xbe,
  0x95, 0xec, 0x3f, 0xbc, 0x00, 0x92, 0xd0, 0x3c, 0x21, 0xfb, 0xdb, 0xbc,
  0x82, 0xd5, 0x91, 0xbd, 0xc9, 0x31, 0x52, 0xbd, 0x3b, 0x2b, 0x8d, 0x3d,
  0x17, 0x6e, 0xc7, 0xbc, 0xfd, 0xcc, 0x2e, 0xbd, 0xa7, 0x57, 0xb0, 0x3d,
  0x2f, 0xa8, 0x39, 0xbe, 0xf9, 0x08, 0x72, 0x3d, 0xd4, 0x20, 0x92, 0xbd,
  0xd9, 0x5d, 0x27, 0x3d, 0x8f, 0x65, 0x15, 0x3e, 0x02, 0xe9, 0x08, 0x3e,
  0x49, 0x96, 0x10, 0x3e, 0x4c, 0x72, 0x8d, 0xbd, 0x1d, 0x69, 0x1b, 0x3e,
  0xf2, 0x13, 0x4f, 0xbd, 0xb2, 0x26, 0x76, 0xbd, 0x6a, 0x22, 0x61, 0x3d,
  0x7d, 0x19, 0x0a, 0xbe, 0xd9, 0xe7, 0x97, 0xbc, 0x9b, 0x5c, 0x37, 0x3e,
  0xd3, 0x17, 0x20, 0xbe, 0xa5, 0xe2, 0x6a, 0xbd, 0xc3, 0x3a, 0xac, 0xbc,
  0xb1, 0x06, 0x90, 0xbc, 0x16, 0x3d, 0xc9, 0xbb, 0x60, 0x8d, 0xae, 0x3d,
  0x7b, 0x36, 0x6c, 0xbc, 0x94, 0x3c, 0xf1, 0xbd, 0xfa, 0x6c, 0x9a, 0x3d,
  0x7f, 0xd9, 0xf2, 0xbd, 0xc8, 0x85, 0xf5, 0x3a, 0x7a, 0xf1, 0x8c, 0x3d,
  0xdc, 0xa8, 0x8a, 0x3d, 0x7e, 0x1b, 0x26, 0xbe, 0x08, 0x43, 0xb2, 0x3d,
  0x5b, 0x22, 0x6a, 0x3c, 0xe4, 0x54, 0x43, 0x3e, 0x73, 0xcc, 0x38, 0xbd,
  0x9c, 0x6e, 0x96, 0xbe, 0xa6, 0xb7, 0x35, 0xbd, 0x35, 0xa0, 0x16, 0x3b,
  0xda, 0x17, 0x38, 0x3e, 0x6d, 0x3c, 0xb9, 0x3c, 0x5c, 0xd8, 0x08, 0xbe,
  0x56, 0x77, 0x94, 0x3d, 0x62, 0x93, 0xeb, 0xbd, 0xcd, 0x92, 0x8e, 0xbc,
  0x88, 0x46, 0x26, 0x3d, 0xea, 0x68, 0x16, 0xbe, 0xd9, 0x39, 0x63, 0xbd,
  0x31, 0xa0, 0x19, 0xbe, 0x2e, 0x7f, 0x0d, 0xbe, 0xa3, 0xa1, 0x22, 0x3d,
  0x7e, 0x57, 0x72, 0xbd, 0x1f, 0xae, 0xe4, 0x3d, 0x9a, 0x6d, 0x98, 0xbd,
  0x40, 0x34, 0x94, 0x3d, 0x4e, 0xbd, 0xc7, 0x3d, 0xdb, 0xf4, 0x9b, 0x3d,
  0xcd, 0xd0, 0xf8, 0x3d, 0x64, 0x5a, 0xe7, 0xbd, 0x4f, 0x04, 0xb3, 0x3e,
  0x21, 0xf5, 0xb7, 0xbd, 0xf0, 0x0e, 0x86, 0xb9, 0x53, 0xb8, 0x61, 0xbc,
  0x6c, 0x8b, 0xfe, 0xbd, 0xb7, 0xa4, 0x1f, 0xbd, 0x90, 0xce, 0x0b, 0xbe,
  0x45, 0xdf, 0x6a, 0xbe, 0x58, 0x58, 0x58, 0x3d, 0xcb, 0x3e, 0xc6, 0xbc,
  0xf6, 0xbd, 0x07, 0xbe, 0x2a, 0x4b, 0x1c, 0x3d, 0x21, 0x2d, 0x3d, 0xbd,
  0x46, 0xd8, 0x48, 0x3e, 0x7f, 0x71, 0xff, 0xbd, 0x42, 0x99, 0xa2, 0xbd,
  0x83, 0x7d, 0x04, 0xbe, 0x57, 0x74, 0x36, 0x3e, 0xcf, 0xb4, 0x73, 0xbd,
  0x15, 0xf0, 0x40, 0xbe, 0xa2, 0x1e, 0x02, 0xb9, 0x47, 0x02, 0x53, 0x3d,
  0x52, 0x1a, 0x27, 0xbe, 0x50, 0x83, 0x39, 0xbd, 0x78, 0x30, 0x18, 0x3d,
  0x53, 0xbb, 0xa0, 0xbd, 0x34, 0x98, 0x88, 0xbc, 0x50, 0x07, 0xe0, 0x3d,
  0xc1, 0x27, 0xe5, 0xbd, 0x0a, 0xdb, 0x09, 0xbd, 0xf2, 0xba, 0x54, 0x3e,
  0x56, 0x7e, 0x0b, 0x3e, 0x61, 0xf5, 0x0c, 0xbe, 0x9f, 0xbb, 0x6b, 0xbd,
  0x8d, 0xbb, 0x3c, 0x3c, 0xef, 0x49, 0x94, 0x3d, 0xdc, 0x91, 0xcb, 0xba,
  0xa7, 0x15, 0xad, 0xbc, 0xc8, 0xcc, 0xe5, 0x3d, 0x58, 0xd7, 0x80, 0x3d,
  0x70, 0xae, 0xf5, 0xbd, 0x5a, 0xb2, 0xa0, 0x3d, 0x08, 0xd3, 0x8e, 0x3d,
  0xb2, 0xc1, 0x1a, 0x3e, 0xee, 0x09, 0x5d, 0xbe, 0xef, 0x22, 0xe4, 0xbd,
  0x2c, 0xca, 0x1f, 0xbe, 0xd4, 0xab, 0xe3, 0xbc, 0xc9, 0x13, 0xf2, 0xbc,
  0x93, 0x14, 0x9b, 0xbd, 0xb9, 0xa3, 0x41, 0xbe, 0x45, 0xd9, 0x46, 0x3d,
  0x54, 0x85, 0x11, 0xbd, 0x58, 0xad, 0x26, 0xbe, 0xfd, 0x6f, 0x68, 0x3d,
  0x42, 0xa0, 0x14, 0xbe, 0x9f, 0xf4, 0x21, 0x3c, 0x14, 0x6f, 0x40, 0x3d,
  0x1f, 0x48, 0xf9, 0xbd, 0xe3, 0x6e, 0xa8, 0x3d, 0x5f, 0xf1, 0x66, 0x3d,
  0x6a, 0x79, 0x9b, 0x3d, 0x3e, 0xb6, 0xa2, 0xba, 0x71, 0xe0, 0x9a, 0xbd,
  0x2f, 0xed, 0xdb, 0x3d, 0xa2, 0x31, 0x2a, 0xbd, 0xf6, 0x18, 0x51, 0x3e,
  0xd9, 0x5f, 0xaa, 0x3c, 0x1d, 0xe6, 0xec, 0x3c, 0x85, 0x0b, 0xb9, 0xbd,
  0x0c, 0x57, 0xd5, 0xbd, 0x00, 0x09, 0xf9, 0xbd, 0x29, 0x3b, 0xc6, 0x3d,
  0x87, 0x31, 0xc3, 0xbd, 0x52, 0xba, 0x46, 0x3e, 0x4f, 0xa3, 0x71, 0xbd,
  0xc5, 0x5a, 0x33, 0x3d, 0x42, 0xd0, 0x56, 0x3e, 0x96, 0xf5, 0x7b, 0x3d,
  0x0f, 0x7c, 0x82, 0xbd, 0xd6, 0x73, 0x91, 0x3b, 0x14, 0x35, 0x00, 0xbe,
  0xc7, 0x39, 0xc6, 0xbc, 0xfb, 0x64, 0xbd, 0x3d, 0xef, 0xf0, 0x36, 0xbe,
  0xe4, 0xcd, 0xda, 0xbd, 0x6a, 0x55, 0xc2, 0x3c, 0x4a, 0x43, 0x48, 0xbe,
  0x1b, 0x22, 0x62, 0x3e, 0x92, 0x98, 0xa9, 0x3d, 0x09, 0xb9, 0x1a, 0x3e,
  0xf0, 0x90, 0xb7, 0x3d, 0x03, 0x3a, 0xa8, 0xbc, 0x15, 0xc4, 0x0b, 0xbe,
  0xea, 0x20, 0x08, 0xbe, 0x61, 0x72, 0x49, 0xbe, 0x5a, 0x1a, 0xa1, 0x3b,
  0x1b, 0xf6, 0xe5, 0x3d, 0xd1, 0x71, 0x21, 0x3d, 0x27, 0xfe, 0x5d, 0x3d,
  0x98, 0x4f, 0x8a, 0x3d, 0xcb, 0x71, 0xa6, 0x3d, 0x73, 0x9a, 0xda, 0xbc,
  0xf3, 0x57, 0x08, 0x3e, 0x4c, 0x2c, 0x76, 0x3e, 0xf9, 0x35, 0x58, 0x3e,
  0xb2, 0xab, 0x52, 0x3e, 0x2c, 0x40, 0xbf, 0xbd, 0x15, 0xa4, 0x25, 0xbe,
  0x6e, 0x98, 0x61, 0xbd, 0x95, 0xc8, 0x0b, 0xbe, 0x08, 0xfe, 0xea, 0xbc,
  0xfc, 0x94, 0xe2, 0xbc, 0x45, 0xda, 0x47, 0xbe, 0x57, 0x1d, 0x34, 0xbd,
  0x41, 0x84, 0xbc, 0xbc, 0x23, 0xe4, 0xde, 0xbc, 0x1c, 0xc5, 0x69, 0x3d,
  0xb5, 0x10, 0x51, 0x3e, 0xb1, 0x6a, 0xda, 0xbc, 0x6b, 0xf4, 0xbd, 0x3d,
  0x88, 0x94, 0x1b, 0x3d, 0xb8, 0xa9, 0x67, 0xbd, 0xe7, 0x35, 0xf2, 0x3d,
  0x7c, 0xf2, 0x44, 0x3d, 0x98, 0xd4, 0x1a, 0xbe, 0xe1, 0x21, 0x32, 0xbd,
  0x5e, 0x6b, 0x15, 0xbe, 0x2e, 0x7e, 0x31, 0x3e, 0x0e, 0x97, 0x3e, 0x3d,
  0x88, 0x43, 0x33, 0xbe, 0x71, 0xf7, 0x86, 0x3e, 0xe9, 0x30, 0x1a, 0x3e,
  0x2a, 0x02, 0xb5, 0xbc, 0x9f, 0xb9, 0x85, 0xbc, 0x61, 0x44, 0x87, 0xbd,
  0x2e, 0xe9, 0x12, 0xbe, 0xfc, 0x61, 0x89, 0x3e, 0xe6, 0xe0, 0xc0, 0x3e,
  0xaa, 0xfd, 0x22, 0x3d, 0x96, 0xc7, 0xab, 0xbd, 0x1a, 0x86, 0x35, 0x3e,
  0xc8, 0x63, 0x32, 0x3e, 0x99, 0x37, 0xac, 0xbd, 0xf4, 0x5c, 0x85, 0x3c,
  0xd3, 0x8e, 0x57, 0x3c, 0xdf, 0x41, 0x0a, 0x3e, 0x92, 0x25, 0x54, 0x3d,
  0xd5, 0x45, 0x80, 0x3d, 0x39, 0xaa, 0xe5, 0x3d, 0x96, 0x91, 0x39, 0x3e,
  0x46, 0x60, 0x93, 0x3d, 0x3d, 0x65, 0x26, 0xbd, 0xf6, 0xad, 0x56, 0xbd,
  0x98, 0x0c, 0x34, 0x3d, 0x28, 0xbf, 0xe9, 0x3d, 0x6e, 0x72, 0x6b, 0x3d,
  0x2a, 0xee, 0xde, 0x3b, 0xba, 0xdb, 0xfb, 0xbd, 0xd6, 0x0a, 0xcc, 0x3d,
  0xef, 0x30, 0x72, 0xbd, 0x85, 0x4b, 0x30, 0x3d, 0x3c, 0x2d, 0xae, 0x3d,
  0x56, 0xa3, 0xaa, 0x3d, 0x26, 0x30, 0x24, 0xbb, 0x36, 0x6b, 0xb9, 0xbd,
  0x1a, 0x88, 0xfd, 0xbc, 0x73, 0xd8, 0x34, 0xbe, 0xbb, 0x79, 0x1b, 0x3e,
  0x54, 0xdc, 0x34, 0x3d, 0x27, 0x4b, 0x31, 0x3e, 0x84, 0xb2, 0x00, 0x3e,
  0x50, 0x8b, 0x0c, 0x3e, 0xcc, 0x5b, 0x31, 0x3e, 0x3b, 0xfa, 0xa7, 0x3d,
  0x27, 0x08, 0xc3, 0xbd, 0x56, 0x1f, 0x4d, 0xbd, 0xe2, 0xa5, 0x7b, 0x3d,
  0x1e, 0xad, 0x5e, 0xbc, 0x39, 0x0b, 0xbe, 0x3d, 0x7c, 0xd0, 0xba, 0xbd,
  0x0a, 0xf4, 0xa4, 0x3b, 0x41, 0xbb, 0xae, 0xbd, 0xaa, 0x9f, 0x2b, 0xbe,
  0x96, 0x1d, 0x57, 0x3e, 0xc8, 0x22, 0x00, 0x3e, 0x7e, 0xea, 0x1f, 0x3e,
  0x49, 0x50, 0x3d, 0xbd, 0x4a, 0xf2, 0x05, 0x3e, 0x4a, 0x0e, 0x29, 0x3d,
  0xb3, 0x95, 0xfd, 0xbc, 0xe9, 0x1d, 0x24, 0xbe, 0x8f, 0x9b, 0x26, 0xbe,
  0x14, 0xc1, 0xe8, 0xbd, 0x71, 0x75, 0x83, 0xbe, 0x5c, 0x36, 0xe3, 0xbb,
  0x30, 0x22, 0x0a, 0x3e, 0xa1, 0x66, 0x5e, 0xbd, 0xda, 0x5f, 0xfb, 0x3d,
  0xc3, 0x91, 0xc5, 0x3d, 0x64, 0xd4, 0x21, 0xbd, 0x0a, 0x7d, 0xa1, 0x3e,
  0x5a, 0xe1, 0x42, 0x3d, 0x7a, 0x5a, 0xee, 0xbd, 0x21, 0x19, 0x52, 0x3c,
  0xb6, 0x83, 0xa7, 0xbd, 0x68, 0xee, 0xed, 0xbd, 0xed, 0xe2, 0x32, 0xbe,
  0xe5, 0x9b, 0xbc, 0xbd, 0xb7, 0xde, 0x04, 0x3e, 0x38, 0xec, 0x11, 0x3c,
  0xdf, 0xc1, 0xbc, 0x3b, 0x34, 0xf2, 0xf1, 0xbb, 0x7e, 0x10, 0x72, 0xbd,
  0x13, 0x7b, 0x03, 0xbe, 0x53, 0x40, 0x3b, 0xbe, 0xdf, 0xba, 0x74, 0x3d,
  0xa0, 0xf1, 0x10, 0x3e, 0xd2, 0x43, 0xe8, 0x3d, 0x1d, 0xaf, 0x2c, 0x3e,
  0x66, 0xee, 0x90, 0x3c, 0x7f, 0x89, 0x1e, 0x3e, 0x23, 0xbd, 0xaf, 0xbc,
  0x97, 0x6c, 0x6d, 0xbc, 0x21, 0x74, 0x25, 0x3d, 0xd3, 0x0d, 0x89, 0xbd,
  0x8e, 0x2a, 0x2f, 0xbd, 0x51, 0x45, 0xc4, 0x3d, 0x50, 0x44, 0x34, 0x3e,
  0xd6, 0xd4, 0x2c, 0xbe, 0x91, 0x16, 0x84, 0xbd, 0xdb, 0x23, 0x11, 0xbe,
  0x3d, 0x30, 0x77, 0x3d, 0xe0, 0x06, 0x09, 0x3e, 0xce, 0xc5, 0x1a, 0xbe,
  0x65, 0xe4, 0x08, 0x3e, 0xce, 0x63, 0x99, 0x3d, 0x6b, 0x06, 0x3c, 0xbe,
  0x90, 0xae, 0x51, 0x3e, 0x1c, 0x28, 0xb5, 0xbd, 0x83, 0xdb, 0xdb, 0xbb,
  0xda, 0x24, 0x1a, 0x3c, 0x69, 0x69, 0xa4, 0xbd, 0xce, 0xfc, 0x19, 0x3e,
  0x28, 0xd2, 0x91, 0xbc, 0x82, 0xe3, 0x1d, 0x3e, 0x57, 0x3a, 0x8d, 0x3d,
  0x22, 0x27, 0xd3, 0xbb, 0x62, 0x2d, 0x48, 0x3d, 0x89, 0x60, 0x8b, 0xbb,
  0x01, 0x7b, 0x1f, 0x3e, 0xf6, 0xbf, 0x3f, 0xbc, 0x2f, 0x89, 0xf8, 0xbc,
  0xe6, 0xb7, 0xf2, 0x3c, 0x88, 0x9f, 0x1e, 0x3e, 0x97, 0xae, 0x84, 0xbd,
  0x06, 0x67, 0xde, 0xbc, 0xb7, 0xb8, 0xa1, 0xbe, 0x04, 0xdd, 0x94, 0xbd,
  0x62, 0xec, 0x71, 0xbc, 0x00, 0x1a, 0x36, 0xbd, 0x50, 0x64, 0xf6, 0xbb,
  0x9e, 0xa4, 0x08, 0xbe, 0x81, 0x1f, 0x80, 0x3d, 0x6c, 0x98, 0x31, 0xbe,
  0x4c, 0xba, 0x71, 0xbd, 0x97, 0x70, 0x19, 0x3e, 0x87, 0x81, 0x99, 0x3d,
  0xf8, 0xa8, 0xc1, 0xbd, 0xc2, 0xac, 0xa2, 0x3d, 0x59, 0x52, 0xb9, 0xbd,
  0x52, 0x2f, 0xb1, 0xbd, 0x66, 0x16, 0x4a, 0x3c, 0x78, 0xca, 0xdc, 0xbd,
  0xc6, 0x85, 0xf2, 0xbd, 0xaa, 0x19, 0x6e, 0x3e, 0x1d, 0x1a, 0x9a, 0xbd,
  0xaf, 0x15, 0x21, 0xbc, 0xb7, 0xb5, 0xa6, 0x3e, 0x6e, 0x7d, 0x7c, 0x3d,
  0x15, 0x86, 0xd2, 0x3b, 0x6b, 0x44, 0x23, 0xbd, 0xfb, 0xcc, 0x00, 0x3e,
  0x97, 0x1a, 0xa9, 0x3d, 0x94, 0x68, 0x85, 0x3d, 0xfd, 0x41, 0x16, 0xbe,
  0xc8, 0x2c, 0xca, 0xbd, 0x06, 0xc0, 0x40, 0xbe, 0x14, 0xa8, 0x04, 0x3e,
  0x71, 0x4e, 0x29, 0xbe, 0x4c, 0x97, 0x0f, 0x3e, 0x07, 0xe0, 0xd0, 0x3d,
  0x69, 0x8d, 0xa2, 0x3e, 0x4f, 0x63, 0x1d, 0x3c, 0x21, 0x7e, 0xd4, 0x3d,
  0xc3, 0xed, 0xf5, 0xbd, 0xbe, 0xaf, 0xb7, 0xbd, 0x48, 0xe5, 0x81, 0x3e,
  0xee, 0x71, 0xa5, 0x3e, 0xa2, 0x8e, 0x31, 0x3d, 0xd4, 0x1d, 0xc4, 0xbd,
  0x77, 0xe8, 0xf0, 0x3d, 0x9e, 0x19, 0xf5, 0x3d, 0x4f, 0x2d, 0x9b, 0xbd,
  0x7e, 0xd0, 0xd7, 0x3d, 0xa6, 0x97, 0xa3, 0x3e, 0x4f, 0x59, 0x59, 0xbd,
  0xdb, 0x72, 0x89, 0x3d, 0x63, 0x90, 0x9d, 0x3d, 0xd7, 0x65, 0x11, 0xbe,
  0xf1, 0x0d, 0xbd, 0x3d, 0x82, 0xb0, 0x6f, 0xbe, 0x01, 0x5e, 0x9c, 0x3d,
  0x44, 0xc5, 0x1c, 0x3e, 0x77, 0xeb, 0x61, 0xbe, 0x1c, 0x6e, 0x86, 0xbd,
  0xd9, 0xf9, 0x17, 0x3e, 0x3d, 0xd9, 0xc0, 0xbd, 0xfb, 0x39, 0xc8, 0x3d,
  0x31, 0xfa, 0xde, 0xbd, 0xcf, 0x14, 0x63, 0xbc, 0x1a, 0x93, 0x40, 0xbe,
  0xe3, 0x44, 0x8c, 0x3a, 0x65, 0x74, 0x7a, 0xbe, 0x88, 0xc6, 0xa2, 0xbe,
  0x79, 0xbc, 0x0b, 0xbe, 0xa5, 0x39, 0x6b, 0x3d, 0x00, 0xd0, 0x24, 0x3e,
  0xa5, 0x78, 0x52, 0x3e, 0x3d, 0x9b, 0x1b, 0x3d, 0x56, 0xf1, 0xf3, 0x3d,
  0xec, 0x6a, 0x93, 0x3c, 0xf8, 0xaa, 0x41, 0xbe, 0x05, 0xd2, 0xf3, 0x3d,
  0xdc, 0x92, 0x40, 0xbe, 0x04, 0xb6, 0x08, 0x3e, 0xb5, 0xd4, 0x68, 0x3e,
  0x20, 0x92, 0xd3, 0x3d, 0x22, 0xcc, 0x69, 0xbc, 0xaa, 0x66, 0xd7, 0x3d,
  0x45, 0xc4, 0xb3, 0x3d, 0x93, 0xd7, 0x20, 0x3d, 0x94, 0x2d, 0x61, 0x3e,
  0xde, 0x81, 0x29, 0xbd, 0x2e, 0xd0, 0xa6, 0xbd, 0xe2, 0x11, 0x01, 0xbe,
  0xed, 0x3e, 0x46, 0xbe, 0xda, 0xfc, 0x92, 0xbd, 0xd4, 0x98, 0xff, 0xbd,
  0xba, 0xc9, 0xd9, 0x3d, 0x5b, 0x70, 0x25, 0xbd, 0x5b, 0x95, 0x2a, 0x3d,
  0x6f, 0x14, 0x92, 0xbe, 0xe6, 0xbb, 0x8f, 0x3d, 0x20, 0x54, 0x2e, 0xbd,
  0x8b, 0x7c, 0x4f, 0x3e, 0xef, 0x8b, 0x96, 0x3d, 0x7a, 0x72, 0x1f, 0x3d,
  0xa9, 0x49, 0xab, 0xbd, 0x53, 0x36, 0xa0, 0xbb, 0x2e, 0x73, 0xcc, 0x3d,
  0x5f, 0x4b, 0x83, 0x3e, 0xc2, 0x21, 0x18, 0x3e, 0x0d, 0x39, 0xce, 0xbd,
  0xe1, 0x69, 0xa1, 0xbd, 0xf7, 0x83, 0x8b, 0x3c, 0xc1, 0xd3, 0xc6, 0x3c,
  0x96, 0x7b, 0x89, 0x3e, 0x60, 0xdc, 0x61, 0xbd, 0xff, 0xe1, 0x18, 0x3e,
  0x38, 0xaa, 0xc6, 0x3d, 0xf9, 0x54, 0x97, 0xbd, 0x08, 0x2a, 0x6f, 0x3e,
  0x3d, 0x05, 0x47, 0xbe, 0xaf, 0x02, 0x72, 0xbd, 0xa5, 0x95, 0x83, 0x3d,
  0xf3, 0xc5, 0x88, 0xbe, 0x99, 0x3f, 0x46, 0xbd, 0xa6, 0x20, 0x02, 0x3e,
  0x8d, 0xf8, 0x2f, 0xbe, 0xc2, 0x06, 0x41, 0x3d, 0xe3, 0xd9, 0xe3, 0x3c,
  0x72, 0xf8, 0x96, 0xbc, 0x79, 0xbf, 0x36, 0xbb, 0xfd, 0x75, 0x0e, 0xbe,
  0x19, 0x01, 0xa2, 0x3c, 0x40, 0x19, 0x8e, 0x3e, 0x5b, 0xd7, 0x26, 0xbe,
  0xc3, 0xed, 0x6b, 0x3e, 0x27, 0xb9, 0x5c, 0x3d, 0xff, 0x65, 0x04, 0xbc,
  0x7a, 0x4c, 0x35, 0x3d, 0x69, 0xf2, 0xe9, 0x3d, 0xd7, 0x5c, 0xf8, 0xbd,
  0x4e, 0xbb, 0x42, 0xbd, 0x97, 0xae, 0x06, 0xbd, 0xf7, 0xc1, 0xc2, 0x3d,
  0x05, 0x39, 0x89, 0xbd, 0x55, 0xf2, 0xbd, 0x3d, 0x60, 0x3a, 0xbd, 0x3c,
  0xb2, 0x77, 0xb0, 0x3e, 0x2b, 0xd3, 0xc5, 0x3c, 0x41, 0x22, 0x69, 0xbd,
  0x8a, 0x01, 0x2c, 0x3c, 0x36, 0x9c, 0xbe, 0xbd, 0xa7, 0x40, 0x65, 0x3c,
  0x03, 0x78, 0xe5, 0x3d, 0x58, 0x53, 0xa3, 0xbe, 0x4e, 0x62, 0x8c, 0xbd,
  0xfc, 0x7c, 0xdf, 0xbd, 0x71, 0xa3, 0x2d, 0x39, 0x99, 0xd6, 0x38, 0xbd,
  0x1e, 0x5c, 0x12, 0xbd, 0x30, 0x57, 0x7d, 0xbd, 0x41, 0x23, 0x02, 0x3b,
  0xe8, 0x44, 0x05, 0x3d, 0xd7, 0xd2, 0x0d, 0xbc, 0x5e, 0xde, 0x62, 0xbd,
  0x17, 0x6a, 0x61, 0xbd, 0xb7, 0xac, 0xb1, 0x3d, 0x3a, 0xa7, 0x99, 0xbd,
  0xf9, 0x55, 0x30, 0xbd, 0x37, 0xbc, 0xfe, 0xbc, 0xaf, 0xea, 0x51, 0x3e,
  0x1b, 0x71, 0x73, 0xbe, 0xf9, 0xcf, 0x99, 0x3d, 0x54, 0x3e, 0x49, 0x3d,
  0x68, 0x84, 0x85, 0x3d, 0xd2, 0x68, 0x8a, 0x3e, 0x4e, 0xab, 0xab, 0x3d,
  0xc5, 0x99, 0xbf, 0xbd, 0x83, 0x8e, 0x19, 0x3e, 0x98, 0xac, 0xd1, 0xbc,
  0x62, 0x83, 0xd9, 0x3c, 0x4d, 0x30, 0xf3, 0x3a, 0x48, 0xe6, 0x23, 0xbd,
  0x1b, 0xbf, 0xf7, 0xbb, 0xbe, 0xa6, 0x89, 0xbd, 0x4a, 0x32, 0x2b, 0xbe,
  0x03, 0x9b, 0xdd, 0x3c, 0x28, 0xd3, 0x26, 0xbe, 0xd6, 0x81, 0x0d, 0xbd,
  0x09, 0x85, 0x61, 0xbd, 0xe2, 0x16, 0x3e, 0xbe, 0x18, 0x7c, 0x2e, 0xbe,
  0xd4, 0x8a, 0x3f, 0x3d, 0xb2, 0x65, 0x02, 0x3e, 0x44, 0xcb, 0xf6, 0xbd,
  0x0e, 0x19, 0xfc, 0x3c, 0x54, 0xa8, 0x88, 0x3d, 0x0d, 0xed, 0x04, 0xbd,
  0x6e, 0x65, 0x03, 0x3e, 0xe6, 0x16, 0xed, 0x3c, 0x1e, 0xbd, 0x53, 0xbe,
  0xc3, 0x04, 0x36, 0xbd, 0x74, 0xdb, 0x59, 0xbd, 0xf1, 0x81, 0x8a, 0x3d,
  0xd4, 0x1a, 0x5a, 0x3e, 0x5e, 0xa5, 0xb9, 0xbd, 0x3e, 0xc3, 0xc6, 0xbd,
  0x0a, 0xe4, 0x1a, 0xbc, 0xf9, 0xc1, 0x29, 0xbd, 0x72, 0x4c, 0x1c, 0x3d,
  0xae, 0x4b, 0x72, 0xbc, 0x96, 0x64, 0x86, 0x3e, 0x97, 0x17, 0x5c, 0xbc,
  0x41, 0xc2, 0xe3, 0xbc, 0x43, 0xae, 0x53, 0x3d, 0x17, 0xf2, 0x31, 0x3e,
  0x71, 0x58, 0x09, 0xbd, 0x7e, 0xa9, 0x24, 0x3d, 0x8b, 0x88, 0x2d, 0x3d,
  0xf1, 0x97, 0x2d, 0xbe, 0x41, 0xd4, 0x57, 0xbd, 0xae, 0x28, 0xde, 0xbd,
  0xfb, 0x84, 0x09, 0x3e, 0xbc, 0x17, 0x98, 0xbd, 0x79, 0xfb, 0x57, 0xbd,
  0x44, 0xa5, 0x98, 0xbe, 0xf7, 0x3f, 0x53, 0xbe, 0x96, 0xae, 0x89, 0x3d,
  0x8f, 0x60, 0x30, 0x3c, 0x6e, 0x4e, 0x00, 0xbe, 0xaa, 0x83, 0x9a, 0x3d,
  0x2f, 0xc7, 0x8a, 0x3d, 0x13, 0xdd, 0x1a, 0xbd, 0x43, 0xce, 0x96, 0x3d,
  0x38, 0x07, 0x37, 0xbe, 0x89, 0x13, 0x71, 0xbe, 0x2f, 0x6f, 0xd2, 0xbc,
  0xbc, 0x0b, 0x1b, 0xbe, 0x71, 0x1c, 0x97, 0xbc, 0x09, 0xf3, 0x82, 0x3d,
  0xad, 0x30, 0xee, 0xbd, 0x54, 0x1f, 0x17, 0xbd, 0x49, 0x43, 0xbf, 0xbc,
  0x6e, 0x1b, 0x3b, 0xbe, 0x74, 0x35, 0xfb, 0x3d, 0xe7, 0xa7, 0x08, 0xbe,
  0xf1, 0xd8, 0xb3, 0xbc, 0x21, 0x78, 0xcd, 0xbd, 0x8e, 0x65, 0xae, 0x3d,
  0x57, 0x8d, 0x82, 0xbc, 0xa4, 0xf4, 0x47, 0xbe, 0x15, 0x26, 0xff, 0x3c,
  0x8a, 0x4d, 0x38, 0xbd, 0x59, 0xed, 0xc1, 0x3c, 0x1d, 0x4e, 0x15, 0x3d,
  0xe3, 0xc1, 0x64, 0x3e, 0x62, 0xf8, 0xd0, 0xbd, 0xe1, 0xe5, 0xa3, 0x3d,
  0xc3, 0x61, 0x59, 0x3d, 0x5a, 0xf0, 0xd3, 0xbd, 0x50, 0xc8, 0x96, 0x3e,
  0x74, 0x5e, 0xa1, 0xbd, 0xd8, 0x79, 0x43, 0x3d, 0x14, 0xdb, 0xc0, 0xbd,
  0xa4, 0x72, 0x66, 0x3d, 0x3a, 0x56, 0x68, 0x3e, 0x1d, 0x8d, 0x07, 0xbe,
  0xe9, 0xc0, 0x9b, 0x3b, 0xa1, 0x07, 0x68, 0x3d, 0x15, 0xcb, 0x26, 0xbe,
  0x19, 0xeb, 0x2f, 0xbd, 0xce, 0x7d, 0x4c, 0x3e, 0x8a, 0xb5, 0x1d, 0xbd,
  0x61, 0x6f, 0xf0, 0x3c, 0x3b, 0xac, 0x8b, 0x3d, 0xeb, 0x5c, 0xde, 0x3d,
  0x0d, 0x89, 0x6b, 0x3b, 0x53, 0x17, 0xc0, 0x3d, 0x5a, 0x22, 0xa4, 0x3d,
  0x55, 0x8f, 0x5e, 0xbd, 0x50, 0x60, 0xbe, 0x3c, 0x84, 0xa8, 0xbb, 0x3c,
  0xb3, 0x26, 0x1d, 0x3e, 0x73, 0x7a, 0x5a, 0xbc, 0x3a, 0x20, 0x48, 0x3d,
  0x3e, 0x7d, 0x96, 0x3c, 0xda, 0x89, 0x6a, 0xbd, 0x68, 0x06, 0x8d, 0x3d,
  0x33, 0x35, 0x03, 0xbe, 0x41, 0x8b, 0x26, 0x3e, 0x38, 0xc1, 0xcc, 0x3d,
  0xc0, 0xd3, 0x45, 0x3e, 0x28, 0x13, 0x0e, 0x3e, 0x70, 0xca, 0x15, 0xbd,
  0xfb, 0x82, 0x82, 0x3c, 0x96, 0xd1, 0xab, 0x3d, 0x37, 0xce, 0x28, 0xbc,
  0xbe, 0x8b, 0x0f, 0x3d, 0x5c, 0xbf, 0x15, 0xbe, 0xa0, 0x6f, 0x90, 0x3e,
  0xac, 0xed, 0xe7, 0xbc, 0x50, 0x34, 0x2d, 0xbd, 0x07, 0x25, 0x25, 0x3c,
  0xd7, 0xa0, 0xbb, 0x3d, 0xf8, 0x3f, 0xfc, 0xbd, 0x03, 0x62, 0xf6, 0x3d,
  0xd9, 0x8a, 0x40, 0xbe, 0x6c, 0xb7, 0xcd, 0x3d, 0xb5, 0x10, 0xb8, 0xbd,
  0xdc, 0x6d, 0x31, 0xbe, 0x32, 0xdd, 0x27, 0xbe, 0x36, 0x96, 0xe3, 0x3d,
  0x53, 0x23, 0xf2, 0xbc, 0x66, 0xa8, 0x7b, 0x3d, 0x10, 0x46, 0xa2, 0xbd,
  0x96, 0x98, 0x3d, 0xbd, 0xfe, 0xe6, 0x83, 0x3d, 0x91, 0x36, 0xb8, 0x3b,
  0xe0, 0x6d, 0x0d, 0x3d, 0x4c, 0x80, 0x11, 0x3e, 0x5c, 0x18, 0x04, 0xbe,
  0x20, 0x79, 0x3e, 0xbd, 0x62, 0x16, 0x12, 0xbc, 0x34, 0x1b, 0x0d, 0x3e,
  0xda, 0x73, 0x2e, 0x3d, 0xcc, 0xc8, 0xf9, 0xbc, 0xa5, 0x65, 0x3e, 0xbd,
  0xaa, 0x60, 0x1f, 0xbe, 0x3c, 0xb6, 0x9b, 0x3d, 0xf9, 0x84, 0xf4, 0x3c,
  0xb4, 0xdb, 0x38, 0x3e, 0x04, 0xf7, 0x57, 0xbe, 0xeb, 0xd5, 0xa8, 0x3d,
  0x35, 0x29, 0x2d, 0xbe, 0xb3, 0x4a, 0xc3, 0x3d, 0xac, 0x06, 0x02, 0xbd,
  0x20, 0x05, 0xc7, 0xbc, 0x62, 0xba, 0x62, 0x3d, 0x0b, 0x8e, 0xc6, 0x3d,
  0xb0, 0xa9, 0x86, 0xbe, 0x29, 0x82, 0x31, 0x3d, 0x61, 0x73, 0xc6, 0x3d,
  0x91, 0xd3, 0x32, 0xbe, 0xad, 0x5f, 0xa9, 0x3b, 0xb2, 0x66, 0xa8, 0xbd,
  0xca, 0x97, 0x0e, 0xbc, 0x6b, 0x4f, 0x30, 0x3d, 0x3c, 0xa7, 0x34, 0xbd,
  0xb7, 0x72, 0x2d, 0xbd, 0x4e, 0x25, 0x4f, 0x3d, 0x02, 0xdc, 0x06, 0x3e,
  0x8d, 0xf5, 0x80, 0xbd, 0xc3, 0xd7, 0xa2, 0x3d, 0xf0, 0x2f, 0xff, 0xba,
  0x7d, 0xad, 0x35, 0x3e, 0x67, 0x79, 0x3f, 0x3d, 0xe5, 0x2f, 0xdc, 0x3c,
  0x17, 0x25, 0xe1, 0xbd, 0xb0, 0xdb, 0x69, 0x3e, 0x87, 0x63, 0xac, 0xbe,
  0x1e, 0x43, 0xf5, 0xbc, 0x5f, 0x70, 0xbe, 0xbd, 0x8e, 0x96, 0x12, 0xbe,
  0x1e, 0xba, 0x9d, 0xbd, 0x56, 0xe1, 0xd2, 0xba, 0x2c, 0x32, 0x1a, 0xbd,
  0x9a, 0xe9, 0x9e, 0x3d, 0x1a, 0x41, 0xd2, 0xbd, 0x9b, 0x4c, 0x9a, 0xbd,
  0x1a, 0xd8, 0xfc, 0x3c, 0xde, 0x3e, 0x19, 0xbc, 0xb0, 0x4e, 0xd8, 0x3d,
  0xf3, 0x2b, 0x6a, 0xbe, 0x9a, 0x80, 0x9c, 0x3b, 0xf3, 0x95, 0x70, 0x3d,
  0xb5, 0xe2, 0xa6, 0xbd, 0x82, 0x6a, 0x07, 0x3e, 0x27, 0x80, 0x1e, 0x3d,
  0x64, 0x45, 0x2d, 0x3d, 0xfb, 0x64, 0x94, 0x3d, 0xa2, 0x60, 0xa5, 0xbd,
  0x2d, 0x62, 0xd3, 0xbd, 0x3f, 0xb5, 0x01, 0xbe, 0x3d, 0x33, 0x03, 0xbe,
  0xb5, 0xd2, 0x84, 0xbd, 0x63, 0xfe, 0x97, 0xbd, 0xa6, 0xd4, 0xdc, 0x3d,
  0xca, 0x97, 0x02, 0x3e, 0xcb, 0xcc, 0x2c, 0x3d, 0x99, 0x62, 0x81, 0x3d,
  0x40, 0x14, 0x45, 0xbe, 0xcb, 0x8c, 0x6d, 0xbd, 0xb6, 0x4b, 0xf8, 0x3c,
  0xaa, 0xfe, 0xc9, 0x3c, 0x8f, 0xd9, 0x5a, 0x3e, 0xbe, 0x5f, 0x4d, 0xbd,
  0xc6, 0x1c, 0x31, 0x3c, 0x2f, 0xdc, 0x8a, 0xbd, 0xcd, 0x7f, 0xe5, 0xbd,
  0x72, 0xab, 0x91, 0x3d, 0x88, 0xba, 0x26, 0xbe, 0x44, 0x0b, 0x04, 0x3e,
  0x39, 0xa8, 0xb0, 0x3d, 0x37, 0x9c, 0xd0, 0xbd, 0xf0, 0x5a, 0xb3, 0xbd,
  0x04, 0x21, 0x33, 0xbe, 0xf6, 0x6d, 0x1b, 0x3e, 0xa6, 0x26, 0x75, 0xbd,
  0xd1, 0xd4, 0x8a, 0x3d, 0x51, 0xc3, 0x53, 0x3d, 0xe2, 0xb5, 0x61, 0x3c,
  0xaa, 0xc5, 0x07, 0xbd, 0xc1, 0x58, 0x41, 0x3d, 0x41, 0x50, 0x08, 0xbd,
  0x8e, 0xbe, 0xdc, 0x3d, 0x4f, 0x06, 0xd0, 0x3d, 0x66, 0x4e, 0x0d, 0x3e,
  0x9b, 0x27, 0x0f, 0xbe, 0x14, 0x46, 0x08, 0x3d, 0x3a, 0x58, 0x8f, 0xbe,
  0x5b, 0x56, 0xe8, 0x3c, 0x76, 0x33, 0x3f, 0x3e, 0x3c, 0x9e, 0x27, 0xbe,
  0x50, 0x5c, 0x1f, 0x3e, 0x6d, 0x4a, 0x56, 0x3c, 0xa8, 0xbe, 0xd7, 0xbd,
  0x5a, 0xab, 0x8a, 0xbe, 0x07, 0x0d, 0x3a, 0xbd, 0xf4, 0x71, 0x3f, 0xbe,
  0x21, 0xdd, 0x28, 0xbe, 0xcc, 0xac, 0x90, 0xbd, 0x87, 0x22, 0xc5, 0x3d,
  0x8b, 0xed, 0x32, 0x3e, 0x21, 0x86, 0xbb, 0xbc, 0xce, 0x9d, 0x04, 0xbd,
  0xbd, 0xf4, 0x32, 0x3d, 0x27, 0xcf, 0x66, 0x3e, 0x15, 0x86, 0x43, 0x3d,
  0x1b, 0x67, 0xb6, 0xbd, 0xe9, 0xf0, 0x1d, 0x3d, 0x0e, 0xa9, 0xc3, 0xbd,
  0x4e, 0x86, 0x3b, 0xbe, 0xcf, 0xef, 0x0b, 0xbe, 0x97, 0x17, 0x15, 0xbd,
  0x0b, 0xd8, 0xf1, 0xbd, 0xf8, 0xa4, 0xe2, 0x3d, 0x55, 0x25, 0x2b, 0x3d,
  0xb1, 0x04, 0xa4, 0xbd, 0x8d, 0x9b, 0x97, 0x3e, 0x25, 0x95, 0x66, 0xbc,
  0x7b, 0x65, 0x29, 0x3d, 0xda, 0xa8, 0x14, 0xbe, 0x0e, 0xb2, 0xda, 0x3d,
  0x2d, 0xb5, 0x91, 0xbd, 0xe1, 0x01, 0xa3, 0x3d, 0xb5, 0x87, 0x00, 0x3e,
  0x2e, 0x6d, 0xd6, 0xbb, 0x28, 0x24, 0x48, 0x3e, 0x14, 0x14, 0x0e, 0xbe,
  0xb9, 0xa5, 0xb5, 0xbd, 0x8d, 0x59, 0x89, 0xbd, 0x54, 0x95, 0xd0, 0x3d,
  0x0b, 0x32, 0x2e, 0xbd, 0xf9, 0x4a, 0x88, 0xbd, 0xef, 0xa9, 0x6f, 0xbd,
  0x1f, 0x1e, 0x16, 0x3d, 0xe7, 0xd3, 0x62, 0xbd, 0x7d, 0xdc, 0x4b, 0xbe,
  0x42, 0xd7, 0xc4, 0xbd, 0xe2, 0xd1, 0x41, 0x3d, 0x77, 0x9c, 0x02, 0xbe,
  0x13, 0xcc, 0xeb, 0xbc, 0x77, 0xb3, 0x09, 0xbe, 0x50, 0x74, 0x3d, 0xbe,
  0xc7, 0xf5, 0x01, 0x3e, 0x43, 0x38, 0x89, 0x3c, 0x7b, 0xa9, 0x16, 0x3e,
  0xf9, 0xc1, 0x17, 0xbd, 0x71, 0x76, 0x6a, 0x3d, 0x8f, 0xa3, 0x45, 0xbc,
  0x96, 0x06, 0x27, 0xbd, 0xc9, 0xd6, 0x94, 0xbd, 0x4d, 0x8f, 0xd4, 0xbd,
  0xed, 0x5d, 0x28, 0xbe, 0x90, 0x58, 0x8d, 0x3d, 0xf0, 0x8c, 0x60, 0xbe,
  0x52, 0x05, 0x44, 0x3e, 0x39, 0x89, 0xf6, 0xbd, 0x09, 0x8a, 0x45, 0xbd,
  0x2f, 0x1f, 0xa9, 0xbd, 0x2e, 0xbf, 0x05, 0x3e, 0xd2, 0x56, 0xc2, 0x3d,
  0x16, 0x63, 0x37, 0x3e, 0x17, 0x59, 0xa8, 0xbd, 0x83, 0x4e, 0xfd, 0xbd,
  0x4d, 0x5e, 0x9d, 0xbd, 0x0a, 0xde, 0x94, 0xbd, 0x9a, 0xf6, 0xb4, 0xbd,
  0x10, 0x63, 0x0c, 0xbd, 0xa0, 0xd9, 0xa8, 0x3d, 0x2f, 0xb4, 0x7b, 0xbd,
  0x1a, 0x02, 0x32, 0xbd, 0xc5, 0x2a, 0x04, 0x3e, 0x0d, 0xe6, 0x9b, 0x3d,
  0xb2, 0x34, 0xca, 0x3d, 0x79, 0x78, 0x5b, 0xbb, 0x4d, 0x39, 0x25, 0x3d,
  0x66, 0xa0, 0x4c, 0xbe, 0x2e, 0x58, 0x01, 0xbc, 0xff, 0x5c, 0x19, 0x3e,
  0x90, 0xb0, 0x2e, 0xbd, 0x79, 0xb9, 0xd2, 0x3d, 0x35, 0xa3, 0x64, 0x3d,
  0x98, 0xd9, 0x19, 0x3e, 0x87, 0x40, 0x3f, 0xbb, 0xb2, 0xb6, 0x6c, 0xbd,
  0x45, 0x31, 0xdf, 0xbd, 0x9a, 0x55, 0xe1, 0xbd, 0xe6, 0x3c, 0x4b, 0x3e,
  0xa6, 0xdc, 0xb9, 0xbd, 0x6e, 0x01, 0xae, 0xbb, 0x70, 0xc3, 0x54, 0xbc,
  0xd5, 0xd9, 0x7c, 0x3e, 0xfc, 0x23, 0xf6, 0xbd, 0x31, 0x92, 0x46, 0xbd,
  0x8c, 0x4f, 0x02, 0x3d, 0x35, 0x66, 0xd7, 0x3d, 0x21, 0x7f, 0x04, 0xbe,
  0xec, 0x0c, 0x7f, 0x3d, 0x8f, 0xe5, 0xba, 0x3d, 0x3f, 0x72, 0x53, 0xbe,
  0xf8, 0xb5, 0xaa, 0x3d, 0xc2, 0x05, 0xe2, 0x3c, 0x22, 0x39, 0x89, 0x3e,
  0xe4, 0x5f, 0x43, 0x3e, 0xbf, 0x26, 0x47, 0xbd, 0x6b, 0x14, 0xf0, 0xbd,
  0xe7, 0xb9, 0x31, 0x3d, 0x6a, 0x27, 0x11, 0x3d, 0x8b, 0xd2, 0xaa, 0x3d,
  0x60, 0x28, 0x32, 0xbd, 0xb6, 0x18, 0xf1, 0x3b, 0xbf, 0x6c, 0xb8, 0xbd,
  0x51, 0x4f, 0x84, 0x3d, 0x92, 0x26, 0x3c, 0x3e, 0x9d, 0x7f, 0x30, 0xbd,
  0x3b, 0x14, 0x0d, 0x3c, 0x52, 0x42, 0x08, 0xbe, 0x88, 0x0a, 0x86, 0x3d,
  0x9e, 0xcf, 0x53, 0x3c, 0x17, 0xda, 0xb1, 0xbd, 0x29, 0x9a, 0x3d, 0x3c,
  0x53, 0xc9, 0xc3, 0x3d, 0xac, 0x9d, 0xd5, 0x3b, 0x56, 0xe9, 0xd8, 0x3d,
  0xdf, 0xab, 0x1c, 0x3c, 0x07, 0x95, 0x08, 0xbd, 0x85, 0xe4, 0x87, 0xbe,
  0x9e, 0xb2, 0x15, 0x3e, 0x65, 0x8e, 0xf1, 0x3d, 0x8d, 0xd1, 0xff, 0xbd,
  0x4d, 0x3f, 0x82, 0xbc, 0xca, 0xe4, 0x26, 0x3e, 0x46, 0x49, 0xa3, 0xbd,
  0x68, 0xec, 0x07, 0xbe, 0x30, 0x85, 0x92, 0x3d, 0xc9, 0xfa, 0xd5, 0xbd,
  0x76, 0xf5, 0xf1, 0xbd, 0xdd, 0x5f, 0x77, 0x3d, 0x2a, 0x9e, 0x0e, 0x3e,
  0x62, 0x3c, 0x1d, 0xbe, 0xb2, 0xc7, 0x12, 0xbd, 0x1f, 0xdc, 0x2d, 0xbe,
  0x0e, 0xf7, 0x4e, 0x3e, 0x21, 0xdc, 0x38, 0xbe, 0xc2, 0x26, 0xb2, 0xbc,
  0xf0, 0xe3, 0xb4, 0xbb, 0xc2, 0x4b, 0xa1, 0xbb, 0x67, 0x10, 0xe7, 0xbd,
  0xb5, 0x66, 0x8c, 0x3d, 0x94, 0x38, 0x18, 0xbe, 0xc9, 0xd2, 0x71, 0x3d,
  0x16, 0xb4, 0x2f, 0xbd, 0x36, 0x6b, 0x44, 0x3e, 0x1b, 0x2e, 0x97, 0x3c,
  0x0b, 0x64, 0x88, 0x3d, 0x30, 0xe8, 0x58, 0x3e, 0xa7, 0x92, 0x29, 0x3b,
  0xde, 0xe0, 0xe5, 0xbb, 0xa7, 0x63, 0x65, 0xbd, 0x15, 0x25, 0xc5, 0xbd,
  0x9d, 0xb0, 0x02, 0x3d, 0x61, 0x1e, 0xcf, 0xbd, 0x35, 0x46, 0xda, 0x3d,
  0x5a, 0x50, 0xca, 0x3c, 0xae, 0x67, 0x47, 0xbd, 0x63, 0xd2, 0xbe, 0x3c,
  0x9b, 0x32, 0x9c, 0x3d, 0x0c, 0x74, 0x72, 0xbd, 0xe0, 0x28, 0x32, 0x3e,
  0xf3, 0xac, 0x2f, 0x3e, 0x67, 0x89, 0xb8, 0xbe, 0x76, 0x69, 0x96, 0xbd,
  0x74, 0x76, 0xa7, 0xbd, 0xdc, 0x5d, 0xad, 0x3d, 0xfe, 0x03, 0x71, 0xbd,
  0xd4, 0xef, 0x59, 0xbe, 0xd5, 0xd1, 0xfd, 0x3c, 0x23, 0x7b, 0x6b, 0xbd,
  0x9f, 0x58, 0xea, 0x3d, 0x06, 0xad, 0xd2, 0x3d, 0x26, 0x23, 0xb4, 0x3d,
  0x87, 0x74, 0x0c, 0xbe, 0x24, 0xa5, 0x27, 0xb9, 0x04, 0x04, 0xfb, 0xbc,
  0xa3, 0x6f, 0xdf, 0x3c, 0x78, 0x22, 0x04, 0xbd, 0xed, 0xae, 0xb2, 0x3d,
  0xa0, 0x40, 0x07, 0xbe, 0x93, 0x57, 0x14, 0xbd, 0xea, 0x3d, 0x23, 0xbe,
  0xb9, 0x2e, 0x6f, 0x3e, 0x44, 0xf6, 0x6e, 0xbe, 0x22, 0x86, 0x2f, 0xbd,
  0x20, 0x15, 0xbb, 0x3d, 0xbe, 0x5e, 0xcb, 0xbd, 0xe2, 0x85, 0x8a, 0xbd,
  0x2b, 0x21, 0x73, 0xbe, 0xe7, 0xb9, 0x8e, 0x3d, 0xed, 0x20, 0x6f, 0x3d,
  0x85, 0x6d, 0x42, 0x3e, 0x87, 0x2e, 0xbf, 0x3d, 0x2e, 0x39, 0x90, 0x3d,
  0xa2, 0xba, 0x62, 0x3d, 0x16, 0x8b, 0xa2, 0x3d, 0xde, 0xce, 0x66, 0xbd,
  0x6b, 0xc5, 0x86, 0xbd, 0xe1, 0xb6, 0x70, 0xbd, 0x4b, 0x08, 0xc8, 0xbd,
  0xb1, 0x1c, 0xae, 0xbd, 0xe6, 0x62, 0xd7, 0x3d, 0x18, 0xda, 0x21, 0xbc,
  0x51, 0xa2, 0x68, 0xbd, 0x94, 0x40, 0xa5, 0x3d, 0x0f, 0x69, 0x38, 0xbd,
  0x52, 0x2c, 0x3f, 0x3d, 0x0e, 0x20, 0x91, 0x3d, 0x9a, 0xcc, 0x99, 0x3d,
  0x90, 0x81, 0xb2, 0x3b, 0x62, 0xea, 0xe8, 0x3c, 0x3e, 0xee, 0xcc, 0x3d,
  0x68, 0xb9, 0x82, 0x3d, 0x9b, 0x97, 0x40, 0xbd, 0x4a, 0x70, 0xc8, 0xbc,
  0xe8, 0x63, 0xb9, 0xbd, 0x87, 0xc5, 0xae, 0xbd, 0x2d, 0x39, 0x83, 0x3d,
  0x83, 0x9c, 0xe1, 0x3c, 0xe2, 0x98, 0x0a, 0x3e, 0xa5, 0x1a, 0x6f, 0x3a,
  0xe9, 0xb2, 0x87, 0x3e, 0xdf, 0x74, 0x23, 0x3e, 0x63, 0x89, 0xa9, 0xbc,
  0x34, 0x30, 0x91, 0xbd, 0x80, 0xaf, 0xf1, 0xbc, 0x87, 0x18, 0x0a, 0x3d,
  0x85, 0xe7, 0x8f, 0xbc, 0x9f, 0x26, 0xb2, 0x3b, 0xf9, 0xac, 0x4c, 0x3d,
  0xe5, 0x1c, 0xee, 0xbc, 0x36, 0xbf, 0x39, 0xbe, 0xec, 0x0b, 0x13, 0x3d,
  0xa3, 0xd3, 0x7b, 0x3c, 0x8c, 0x67, 0x19, 0x3e, 0x45, 0x53, 0xa3, 0xbb,
  0xef, 0xbc, 0x08, 0xbe, 0x9d, 0x0d, 0x90, 0xbc, 0x2d, 0xd0, 0xf7, 0x3d,
  0x67, 0x7e, 0xbf, 0xbe, 0x6f, 0xfa, 0x70, 0xbe, 0x41, 0xdf, 0xa5, 0xbd,
  0xe9, 0x56, 0x2b, 0xbd, 0xe2, 0xef, 0x93, 0xbe, 0x72, 0x9f, 0x8e, 0xbc,
  0x65, 0x6e, 0x1a, 0x3e, 0x3b, 0x9d, 0x7d, 0x3e, 0xe3, 0x47, 0x98, 0xbc,
  0xc7, 0x1a, 0x89, 0xbe, 0x8e, 0x10, 0xbd, 0x3d, 0x8b, 0x4c, 0x2e, 0x3c,
  0xe3, 0x2e, 0x82, 0xbe, 0x0b, 0x6c, 0x88, 0x39, 0x24, 0x53, 0x9e, 0xbd,
  0xc5, 0xeb, 0xb2, 0xbd, 0xb2, 0xc9, 0xe9, 0xbd, 0x4b, 0x53, 0xee, 0x3d,
  0x0c, 0xe9, 0xf7, 0xbb, 0x68, 0x66, 0x35, 0xbd, 0x2a, 0x6f, 0x96, 0xbd,
  0x66, 0x03, 0xc1, 0xbd, 0x0e, 0x1f, 0x43, 0x3d, 0x92, 0x92, 0xdb, 0x3b,
  0x6f, 0xbf, 0x90, 0xbc, 0xe9, 0x58, 0x2d, 0xbe, 0x71, 0x9d, 0x34, 0xbe,
  0x5f, 0x0d, 0x21, 0x3e, 0x5f, 0x59, 0x18, 0xbe, 0x62, 0x44, 0x00, 0xbe,
  0xdd, 0xf9, 0xc6, 0x3d, 0xa6, 0x72, 0x39, 0xbe, 0x1f, 0xa5, 0xf6, 0x3c,
  0x8e, 0xd2, 0x86, 0x3d, 0xf8, 0x23, 0xff, 0x3d, 0xd3, 0x5e, 0x86, 0xbd,
  0xb8, 0x6c, 0x0b, 0x3c, 0xb6, 0xb3, 0x90, 0xbd, 0x0d, 0x29, 0x11, 0x3c,
  0x5d, 0x97, 0xd4, 0xbd, 0xd9, 0x8d, 0x2c, 0xbe, 0x43, 0x28, 0x1c, 0x3e,
  0x2c, 0x7c, 0x5d, 0x3e, 0x97, 0xfd, 0xa8, 0xbd, 0x91, 0x61, 0x10, 0xbd,
  0xcf, 0x69, 0x90, 0xbd, 0xd0, 0x2f, 0xa0, 0xbe, 0xa8, 0x17, 0x98, 0xbc,
  0x11, 0xd5, 0xec, 0xbc, 0xd3, 0xb7, 0x21, 0x3e, 0xf4, 0x79, 0x2b, 0xbe,
  0x5d, 0x33, 0x3e, 0xbe, 0x14, 0xc3, 0xf4, 0x3d, 0x21, 0xca, 0x61, 0xbd,
  0x9e, 0x6c, 0xb4, 0x3d, 0xb3, 0x55, 0x2b, 0xbe, 0x17, 0x46, 0x2a, 0x3c,
  0x01, 0x6e, 0xbd, 0xbd, 0x50, 0x7c, 0x43, 0x3e, 0xaf, 0xbb, 0x81, 0x3d,
  0x62, 0xab, 0xac, 0x3d, 0xda, 0x05, 0xdf, 0x3d, 0xe2, 0xab, 0x32, 0xbe,
  0x5d, 0x0b, 0xee, 0x3d, 0xd3, 0x1a, 0x45, 0xbe, 0x99, 0x4d, 0x96, 0xbd,
  0xf4, 0x9c, 0x86, 0x3d, 0x89, 0xa3, 0x1d, 0xbc, 0xce, 0xa4, 0x81, 0xbe,
  0x77, 0x7f, 0x92, 0x3d, 0x78, 0x7a, 0x6e, 0xbd, 0x86, 0x22, 0xd3, 0xbd,
  0x0e, 0x5e, 0xba, 0x3d, 0xeb, 0x6b, 0x4c, 0xbd, 0x6d, 0xcc, 0x60, 0x3d,
  0x81, 0xc1, 0xa5, 0xbc, 0xa8, 0x83, 0xb5, 0x3d, 0x6c, 0xdd, 0x0f, 0xbd,
  0x3e, 0x69, 0xdb, 0xbd, 0xe3, 0x43, 0x9b, 0x3d, 0x5d, 0x8e, 0x23, 0xbd,
  0xae, 0xdc, 0x1b, 0x3d, 0x35, 0x56, 0x4e, 0x3d, 0x06, 0x56, 0xaa, 0x3d,
  0xf5, 0xfa, 0x94, 0x3d, 0xb4, 0x77, 0xb9, 0x3b, 0x01, 0x77, 0xf7, 0xbd,
  0xc1, 0x99, 0x99, 0xbd, 0x21, 0x9f, 0xc0, 0xbd, 0xeb, 0xc3, 0x03, 0xbe,
  0x4c, 0x4b, 0xf7, 0x3d, 0xc9, 0xbc, 0x05, 0x3e, 0xe0, 0x57, 0xbb, 0xbd,
  0xc0, 0xb1, 0xbe, 0x3d, 0xa5, 0x1e, 0x61, 0x3d, 0x31, 0xdb, 0xf7, 0xbd,
  0x17, 0x74, 0xb5, 0xbc, 0x81, 0x7a, 0xe8, 0xbd, 0x2f, 0x8f, 0xb7, 0x3d,
  0x8f, 0x41, 0xd9, 0x3b, 0x66, 0x5f, 0x81, 0x3c, 0x1b, 0x52, 0x01, 0xbd,
  0x5e, 0x42, 0xc9, 0xbd, 0x27, 0x33, 0x7a, 0xbe, 0x86, 0x29, 0x07, 0xbe,
  0x55, 0x76, 0x6c, 0x3b, 0x47, 0xa2, 0xc3, 0xbd, 0xf8, 0xaf, 0xdf, 0x3d,
  0xa5, 0x11, 0x16, 0x3d, 0x4c, 0x04, 0xfc, 0xbc, 0x79, 0x5e, 0x1a, 0xbe,
  0x99, 0x8f, 0x2f, 0x3e, 0x72, 0xc5, 0x49, 0xbd, 0x57, 0x92, 0xf0, 0x3d,
  0x58, 0x5a, 0x81, 0x3e, 0x26, 0xc2, 0xfd, 0x3d, 0x79, 0xd1, 0xef, 0x3d,
  0x23, 0xaf, 0x29, 0xbe, 0x4d, 0x57, 0x01, 0x3e, 0x07, 0xac, 0xdc, 0xbd,
  0x41, 0xa3, 0x38, 0x3e, 0x54, 0x05, 0xf0, 0xbd, 0x0a, 0xee, 0x64, 0xbd,
  0x90, 0x48, 0x77, 0xbd, 0x21, 0x75, 0x3f, 0x3d, 0xf5, 0x4f, 0x8d, 0x3d,
  0x92, 0x60, 0x3e, 0xbe, 0x52, 0xb7, 0x24, 0x3d, 0x3a, 0xa1, 0x33, 0xbd,
  0x8b, 0xb6, 0xae, 0x3d, 0xd6, 0x90, 0x75, 0xbc, 0xed, 0x3d, 0xb1, 0x3d,
  0xc0, 0xce, 0x33, 0xbe, 0x0c, 0x94, 0x96, 0xbd, 0x6e, 0xa1, 0x19, 0xbd,
  0x17, 0x4b, 0x22, 0x3d, 0x9f, 0xf5, 0x74, 0x3e, 0xee, 0x5b, 0xce, 0x3c,
  0xb3, 0x79, 0x11, 0xbe, 0x89, 0x65, 0x53, 0x3c, 0x95, 0xee, 0xc7, 0xbd,
  0x9a, 0x35, 0x96, 0x3c, 0x14, 0x3c, 0xb6, 0xbd, 0x75, 0x5a, 0x89, 0x3d,
  0x21, 0x76, 0x4c, 0xbd, 0x86, 0xa8, 0xa6, 0x3d, 0xff, 0x0b, 0x96, 0x3d,
  0x86, 0x19, 0xca, 0xbd, 0x02, 0x6d, 0x3f, 0x3c, 0x90, 0x3b, 0x27, 0xbe,
  0x43, 0x6d, 0xc4, 0xbc, 0x37, 0x1b, 0x00, 0x3e, 0xec, 0xd9, 0x10, 0xbe,
  0x14, 0xb1, 0xcd, 0x3d, 0x22, 0xb1, 0xa4, 0x3d, 0xb8, 0x5f, 0xac, 0x3c,
  0x87, 0xfa, 0xc3, 0x3d, 0xc6, 0x5a, 0x17, 0xbe, 0x17, 0xdc, 0x3e, 0x3b,
  0xe0, 0x20, 0x82, 0xbc, 0x9c, 0xb6, 0x2f, 0x3d, 0xc4, 0xd9, 0x38, 0x3d,
  0xa8, 0x7b, 0x27, 0xbd, 0xd6, 0xbc, 0xfe, 0x3d, 0xc0, 0xd3, 0x45, 0xbe,
  0x1e, 0x36, 0x9e, 0x3c, 0x09, 0x9d, 0xf2, 0xbd, 0x17, 0x58, 0x6b, 0x3c,
  0x00, 0xbd, 0xe0, 0x3c, 0x17, 0x5a, 0x1f, 0xbe, 0x1b, 0x1d, 0x10, 0xbe,
  0xb3, 0xfd, 0xb3, 0xbc, 0x39, 0xef, 0xdf, 0x3b, 0x18, 0x22, 0x71, 0xbe,
  0x7b, 0x36, 0x97, 0xbc, 0x9d, 0xf9, 0xd6, 0xbc, 0x05, 0xfb, 0x6b, 0xbd,
  0x45, 0xb3, 0x08, 0xbb, 0x63, 0x8b, 0x2b, 0xbd, 0x4c, 0x2d, 0x67, 0x3d,
  0xe8, 0xa6, 0x82, 0x3e, 0xe1, 0xdd, 0xa4, 0x3c, 0xaf, 0xc3, 0x85, 0x3d,
  0xd3, 0x0d, 0x19, 0xbd, 0x13, 0xf1, 0xcd, 0xbd, 0x46, 0x21, 0x0c, 0x3c,
  0x26, 0x11, 0x1b, 0xbe, 0xd9, 0x65, 0x0f, 0xbe, 0x13, 0xcb, 0x14, 0x3e,
  0xa6, 0x14, 0x46, 0xbd, 0xc9, 0x27, 0xb0, 0xbd, 0x17, 0xc7, 0x07, 0x3c,
  0xb3, 0x40, 0xd0, 0x3d, 0x22, 0xef, 0x13, 0xbe, 0x99, 0xf4, 0x47, 0x3e,
  0x04, 0x92, 0xa3, 0x3d, 0xba, 0x75, 0xff, 0xbd, 0x7a, 0x04, 0x80, 0xbe,
  0xcd, 0x37, 0x1b, 0x3d, 0x85, 0x1e, 0x05, 0x3e, 0xdc, 0x0d, 0xaa, 0x3b,
  0x3d, 0xb5, 0x89, 0xbc, 0x93, 0x27, 0x26, 0x3d, 0x7d, 0x54, 0xbf, 0x3d,
  0x97, 0xf3, 0xe1, 0x3d, 0xca, 0x5d, 0xec, 0xbd, 0x88, 0xbf, 0xb2, 0x3e,
  0xe4, 0x4c, 0x38, 0xbd, 0xe3, 0xfb, 0xa2, 0xbc, 0x11, 0x83, 0x2a, 0x3e,
  0x91, 0xa7, 0x40, 0xbd, 0xd4, 0x19, 0x8c, 0x3d, 0xc3, 0xf6, 0x24, 0x3e,
  0x57, 0x50, 0xa4, 0xbd, 0xb1, 0x4e, 0xe2, 0xbd, 0x87, 0x10, 0xd8, 0xbd,
  0xe7, 0x2a, 0x80, 0x3c, 0xcf, 0x35, 0xf9, 0xbc, 0x4d, 0x4a, 0x1e, 0xbe,
  0x0e, 0xfd, 0xa3, 0xbd, 0x06, 0xf3, 0x93, 0xbd, 0x6b, 0xdf, 0x76, 0x3d,
  0x14, 0x0d, 0x0c, 0xbc, 0x83, 0xda, 0x57, 0xbd, 0xd1, 0xc1, 0x77, 0xbd,
  0x35, 0xd1, 0x18, 0x3d, 0x9e, 0x14, 0x71, 0x3e, 0x62, 0x11, 0x78, 0x3e,
  0xa4, 0x9e, 0x31, 0xbe, 0xf4, 0xa2, 0xbb, 0x3c, 0xe3, 0x35, 0x99, 0x3d,
  0x61, 0x94, 0x00, 0xbd, 0xe5, 0xee, 0xd1, 0x3d, 0xd5, 0x6f, 0x88, 0x3e,
  0x0b, 0xf1, 0x4c, 0x3d, 0xca, 0xcc, 0x2f, 0xbc, 0xc6, 0xcf, 0x4f, 0x3d,
  0x60, 0x13, 0xc9, 0x3d, 0x1e, 0x82, 0xea, 0x3d, 0x74, 0x83, 0x05, 0xbe,
  0xcd, 0x3c, 0xac, 0xbb, 0x1a, 0x81, 0x37, 0x3d, 0xad, 0xd3, 0x32, 0x3e,
  0x85, 0xda, 0x51, 0x3d, 0xab, 0xbe, 0x19, 0xbd, 0x69, 0xa3, 0xab, 0x3d,
  0x6d, 0x6b, 0x10, 0x3c, 0x1f, 0xb2, 0x36, 0xbe, 0x80, 0xc5, 0x6f, 0x3d,
  0xb1, 0x9f, 0x6b, 0xbe, 0x0c, 0x5f, 0x08, 0xbe, 0xc6, 0x40, 0xab, 0x3d,
  0xd6, 0x9e, 0x12, 0xbd, 0x64, 0x7a, 0xbb, 0x3d, 0x51, 0x49, 0x1a, 0xbe,
  0x88, 0xe4, 0x04, 0xbe, 0xa5, 0xb6, 0x09, 0xbd, 0xca, 0xea, 0xfc, 0x3d,
  0x22, 0x35, 0x31, 0x3e, 0xd7, 0x8b, 0x53, 0xbd, 0x00, 0xe4, 0x92, 0x3d,
  0x7d, 0x12, 0x1b, 0xbe, 0xfa, 0x68, 0x88, 0xbd, 0x60, 0xb8, 0x13, 0x3e,
  0x5c, 0x87, 0xff, 0x3c, 0x12, 0x45, 0xac, 0xbd, 0x24, 0xd6, 0x13, 0x3e,
  0x5b, 0x8b, 0x25, 0x3e, 0x03, 0x65, 0x28, 0x3d, 0x67, 0x1c, 0x9e, 0xbc,
  0x1b, 0x3c, 0x95, 0x3d, 0xf5, 0x34, 0xbd, 0x3d, 0x46, 0x9c, 0x13, 0xbe,
  0x63, 0x7e, 0x47, 0xbb, 0xe0, 0x34, 0xf9, 0xbc, 0xa7, 0x0b, 0x1b, 0xbe,
  0xb9, 0x5b, 0xd7, 0xbd, 0x59, 0x00, 0xaa, 0x3c, 0x73, 0x41, 0xf1, 0x3b,
  0xdb, 0x5e, 0xef, 0x3b, 0x8c, 0xea, 0xe8, 0xbd, 0xac, 0xe5, 0x44, 0x3d,
  0x4f, 0x45, 0x25, 0xbe, 0xfd, 0xaa, 0xd0, 0xbd, 0xd5, 0x0b, 0x3c, 0x3e,
  0x17, 0x30, 0xb4, 0x3d, 0xa4, 0x20, 0x89, 0x3e, 0x2d, 0xff, 0xac, 0x3a,
  0x10, 0x68, 0xb7, 0xbc, 0xae, 0xbb, 0x09, 0x3d, 0x2b, 0x05, 0x85, 0xbe,
  0xa6, 0xcf, 0x1b, 0x3d, 0x62, 0xee, 0x88, 0x3d, 0xde, 0x4e, 0x42, 0xbd,
  0x28, 0xe7, 0x2e, 0xbd, 0xe2, 0xea, 0xbc, 0xbd, 0x10, 0x8f, 0xcb, 0x3d,
  0x32, 0x18, 0x02, 0x3e, 0x4b, 0xa3, 0x93, 0x3d, 0x54, 0x4f, 0xa0, 0x3c,
  0xd7, 0xaa, 0x8d, 0x3d, 0x07, 0x64, 0x84, 0xbe, 0x8f, 0x23, 0xb8, 0x3d,
  0xe5, 0x97, 0x73, 0xbd, 0x5f, 0xdc, 0x74, 0xbe, 0x40, 0x53, 0xa3, 0x3b,
  0x83, 0xa0, 0x96, 0x3d, 0x2a, 0xf5, 0x65, 0x3e, 0x4e, 0xfe, 0x28, 0xbe,
  0xb7, 0xdf, 0xca, 0x3d, 0x7d, 0xba, 0xeb, 0x3d, 0x22, 0xe5, 0x8d, 0xbd,
  0x2f, 0xec, 0xd0, 0x3d, 0x96, 0xf6, 0x5f, 0xbb, 0x69, 0xa0, 0x13, 0xbd,
  0x7a, 0xa8, 0xda, 0xbd, 0x75, 0x01, 0xc4, 0xbd, 0x3f, 0x33, 0xc8, 0xbd,
  0xf7, 0xd0, 0x8e, 0xbd, 0x39, 0x6f, 0xce, 0xbb, 0x0e, 0xcf, 0x2f, 0x3c,
  0x8a, 0xc9, 0x29, 0xbd, 0xbd, 0xff, 0x89, 0x3e, 0xfa, 0xa1, 0x44, 0xbe,
  0x14, 0xac, 0x13, 0xbe, 0x22, 0x1b, 0x18, 0xbe, 0xe9, 0x3f, 0x92, 0xbe,
  0xf4, 0x1e, 0xa9, 0xbd, 0x41, 0x70, 0x3c, 0xbe, 0xcf, 0x4b, 0x4f, 0xbe,
  0x5c, 0xf7, 0x31, 0xbd, 0x03, 0x1e, 0x69, 0xbe, 0xfb, 0x46, 0x2a, 0x3d,
  0x6d, 0xdb, 0x9e, 0x3c, 0x70, 0xdc, 0x30, 0xbe, 0x1d, 0xbd, 0xa9, 0xbd,
  0x7a, 0x25, 0xa2, 0xbd, 0x13, 0x3a, 0x66, 0x3d, 0x88, 0x9e, 0x0f, 0x3e,
  0x93, 0x5c, 0x5b, 0x3d, 0xc4, 0x6a, 0xad, 0xbc, 0x4e, 0x81, 0xce, 0x3d,
  0x8c, 0xa9, 0xbf, 0xbc, 0xda, 0x24, 0x79, 0x3c, 0xe3, 0x48, 0x77, 0x3b,
  0xc9, 0x11, 0x8b, 0xbe, 0xf4, 0xe9, 0x03, 0x3e, 0xbe, 0x09, 0x2b, 0xbe,
  0xb9, 0xf7, 0xd5, 0xbd, 0x4a, 0x2e, 0x1b, 0x3e, 0x65, 0xfe, 0x97, 0xbd,
  0x37, 0x52, 0x49, 0x3e, 0x6f, 0xd3, 0x04, 0xbd, 0xc3, 0x16, 0x1c, 0x3e,
  0x7c, 0x2d, 0xf7, 0xbc, 0x6b, 0x9f, 0x2e, 0xbc, 0xe4, 0x06, 0x03, 0xbd,
  0x39, 0x29, 0xa9, 0xbd, 0x3f, 0xe7, 0x06, 0xbc, 0x82, 0xf7, 0x48, 0xbe,
  0xeb, 0xaa, 0x93, 0xbc, 0x76, 0x7d, 0x5c, 0x3d, 0xb1, 0x85, 0xe0, 0x3c,
  0x00, 0x01, 0x62, 0x3e, 0x61, 0x16, 0x8e, 0x3e, 0xdc, 0x11, 0x1a, 0xbd,
  0x05, 0x67, 0xd1, 0xbd, 0x35, 0x1a, 0x74, 0x3e, 0x88, 0xcf, 0x21, 0x3d,
  0x78, 0x9a, 0x29, 0x3d, 0xbb, 0x43, 0x25, 0x3e, 0x1b, 0xd9, 0x94, 0xbe,
  0x05, 0x24, 0x26, 0xbe, 0xd9, 0xe0, 0x68, 0x3d, 0x6e, 0xe7, 0xec, 0xbd,
  0x05, 0x25, 0x37, 0xbd, 0x46, 0x7d, 0x18, 0x3d, 0x38, 0x50, 0x4f, 0x3d,
  0xa4, 0x66, 0x1b, 0xbe, 0x1b, 0x55, 0x16, 0x3e, 0x39, 0xad, 0xbd, 0xbd,
  0xf1, 0x18, 0x8c, 0xbd, 0xc5, 0xfd, 0x4b, 0x3e, 0xe6, 0xe3, 0x77, 0xbc,
  0x88, 0x7d, 0xd3, 0x3d, 0xa7, 0x10, 0x31, 0xbe, 0x35, 0xf4, 0xe8, 0x3c,
  0x23, 0x35, 0x10, 0xbd, 0x1f, 0x86, 0xc6, 0x3c, 0x7e, 0x46, 0xc4, 0x3d,
  0xd1, 0xba, 0x0a, 0xbc, 0x8e, 0xcb, 0xd5, 0xbc, 0x60, 0xe2, 0x07, 0xbe,
  0x86, 0x01, 0xdc, 0x3d, 0x2c, 0xcb, 0x1c, 0xbe, 0xab, 0xb1, 0x35, 0x3d,
  0xe9, 0xac, 0xa4, 0x3b, 0xe9, 0x4e, 0x21, 0xbd, 0x96, 0xb7, 0x5b, 0x3c,
  0x4b, 0x21, 0x81, 0x3d, 0xa9, 0x25, 0x57, 0xbc, 0x07, 0x46, 0x17, 0xbe,
  0x97, 0x36, 0xb9, 0xbd, 0x27, 0x5e, 0x48, 0xbc, 0xcb, 0x6b, 0x0e, 0x3e,
  0xb2, 0x3e, 0x4d, 0xbd, 0x00, 0x53, 0x1a, 0xbd, 0xad, 0xd5, 0x1c, 0x3d,
  0xd5, 0xfe, 0xde, 0x3c, 0xb0, 0x95, 0x48, 0xbe, 0x88, 0x5a, 0x3d, 0x3b,
  0x7f, 0xa8, 0x97, 0x3c, 0xdc, 0xbd, 0x14, 0x3d, 0xd4, 0x8d, 0x9b, 0xbc,
  0x1f, 0x21, 0x8a, 0xbe, 0x00, 0xf2, 0x09, 0x3e, 0xe9, 0xb7, 0xc8, 0xbc,
  0xc6, 0x19, 0xed, 0x3c, 0xfe, 0x51, 0x88, 0xbd, 0xce, 0x59, 0x8b, 0x3c,
  0xfe, 0xa4, 0x45, 0x3e, 0x0c, 0x50, 0x5e, 0xbd, 0xc1, 0x21, 0x9b, 0xbb,
  0xc2, 0xd2, 0xa7, 0xbe, 0xf1, 0x71, 0x3a, 0xbe, 0x10, 0xed, 0xcf, 0x3d,
  0x95, 0x84, 0x71, 0x3e, 0xf2, 0x2d, 0x51, 0xbd, 0x24, 0x5b, 0x49, 0xbd,
  0x85, 0x74, 0x50, 0x3e, 0xe9, 0x51, 0x51, 0x3b, 0x82, 0xbf, 0x41, 0xbd,
  0xaf, 0x1e, 0x93, 0xbd, 0x28, 0x49, 0x28, 0xbe, 0x4f, 0x91, 0xf8, 0xbc,
  0xa6, 0x7c, 0x03, 0x3d, 0xf8, 0x60, 0x0b, 0xbd, 0x08, 0x89, 0x62, 0x3e,
  0x25, 0xfb, 0x0a, 0xbe, 0xc2, 0x1c, 0x3a, 0x3d, 0xaa, 0x0f, 0x82, 0xbd,
  0x2c, 0x95, 0x18, 0xbe, 0xf9, 0xd9, 0xeb, 0xbc, 0xa3, 0x0c, 0x07, 0xbe,
  0x85, 0x1b, 0x8a, 0xbd, 0xfc, 0xa7, 0x98, 0xbd, 0xaf, 0x6c, 0x12, 0x3e,
  0x4b, 0x02, 0xb9, 0xbd, 0x43, 0x98, 0x4a, 0xbd, 0x83, 0xa6, 0x17, 0xbe,
  0xaa, 0x97, 0xa7, 0x3d, 0xc9, 0xc5, 0x06, 0x3d, 0xd5, 0xcb, 0x9f, 0xbd,
  0xff, 0xb5, 0x68, 0x3c, 0xd1, 0x02, 0x23, 0xbe, 0x42, 0xda, 0xaf, 0x3d,
  0x45, 0xf6, 0x2e, 0x3e, 0x48, 0x94, 0x78, 0xbd, 0xb6, 0x13, 0x7c, 0xbc,
  0x4f, 0xd8, 0xcb, 0x3d, 0xe3, 0x88, 0xc7, 0x3d, 0x51, 0x05, 0x46, 0xbe,
  0x8d, 0xaf, 0x27, 0xbd, 0xe1, 0xb4, 0x8f, 0xbc, 0xf6, 0xc1, 0xe2, 0xbb,
  0xb9, 0xd6, 0xde, 0x3d, 0xf9, 0x30, 0x0c, 0x3e, 0xe3, 0x2c, 0x33, 0xbb,
  0x2d, 0x6d, 0x98, 0xbd, 0xc0, 0x56, 0x0d, 0xbe, 0x93, 0x56, 0xf1, 0x3d,
  0x07, 0x06, 0xdc, 0x3d, 0xbf, 0x28, 0x64, 0xbd, 0x8c, 0x8f, 0x1f, 0xbd,
  0x2c, 0xce, 0xc7, 0xbd, 0x4e, 0x50, 0x8a, 0x3d, 0xc7, 0xde, 0x5c, 0xbe,
  0x0a, 0x2f, 0x61, 0x3b, 0x2f, 0x0d, 0xa4, 0x3e, 0x07, 0x03, 0x0f, 0xbe,
  0x10, 0x1f, 0xbc, 0x3d, 0x48, 0xd1, 0x69, 0x3c, 0x73, 0xe3, 0x45, 0xbd,
  0x71, 0x60, 0x15, 0x3e, 0x41, 0x24, 0x2a, 0x3d, 0x53, 0x71, 0x07, 0xbe,
  0xb0, 0xc4, 0x7d, 0xbb, 0x68, 0x15, 0x4c, 0xbe, 0x6f, 0x4a, 0xeb, 0xbd,
  0x9d, 0x43, 0x33, 0xbd, 0x4b, 0x97, 0xff, 0x3d, 0x04, 0x9a, 0x79, 0xbc,
  0xa8, 0x80, 0xa8, 0xb9, 0x1c, 0x69, 0x83, 0xbd, 0x26, 0x55, 0x1d, 0xbe,
  0x8b, 0xa4, 0x14, 0xbe, 0x7c, 0x7a, 0x85, 0x3e, 0x48, 0xb9, 0x44, 0x3d,
  0xc0, 0xa1, 0x11, 0xbe, 0xd1, 0x14, 0x14, 0xbe, 0x01, 0x33, 0xc1, 0x3d,
  0x23, 0xe1, 0x3a, 0xbc, 0x30, 0x31, 0x50, 0x3e, 0x8c, 0x19, 0xb9, 0xbb,
  0x01, 0xde, 0x41, 0x3e, 0xf0, 0x8c, 0x56, 0xbe, 0x9d, 0xbe, 0x29, 0x3e,
  0xe0, 0x08, 0x0e, 0xbd, 0x79, 0x7d, 0x5e, 0x3e, 0xc9, 0x79, 0x2c, 0xbe,
  0xec, 0x99, 0xd4, 0x3d, 0x09, 0x43, 0xd6, 0x3d, 0x7c, 0x1d, 0x29, 0xbc,
  0xb5, 0x47, 0x1e, 0x3c, 0x37, 0xef, 0x0e, 0x3e, 0xb7, 0xa8, 0x19, 0x3d,
  0xd7, 0xdb, 0xf8, 0xbc, 0xac, 0xc8, 0xd3, 0x3b, 0x8e, 0xdb, 0x02, 0x3d,
  0x5c, 0x5d, 0x04, 0x3d, 0x88, 0xe1, 0xcc, 0xbd, 0xf3, 0x7e, 0xb6, 0xbd,
  0x78, 0xdd, 0xd8, 0x3d, 0x8c, 0x19, 0xc2, 0x3d, 0xb6, 0x2a, 0xca, 0xbd,
  0x79, 0x7f, 0xbb, 0x3d, 0x7c, 0x56, 0xd4, 0xbd, 0xf7, 0x17, 0x0f, 0xba,
  0x37, 0x6c, 0x27, 0x3e, 0xa9, 0x8f, 0xd3, 0xbd, 0x1d, 0xa1, 0x04, 0xbd,
  0xfd, 0x62, 0xb8, 0x3b, 0xe7, 0x0a, 0x03, 0xbe, 0x7b, 0xf2, 0x05, 0xbe,
  0x8e, 0x00, 0xb0, 0xbe, 0xec, 0x05, 0xc8, 0x3d, 0x9b, 0xf0, 0x15, 0x3c,
  0xaf, 0xf1, 0x3e, 0xbd, 0x98, 0x9b, 0x02, 0xbe, 0xa4, 0x92, 0x25, 0xbd,
  0x27, 0xbe, 0x26, 0xbc, 0x87, 0xab, 0xed, 0x3d, 0xb6, 0x6f, 0x77, 0x3d,
  0xc5, 0xb4, 0x85, 0x3c, 0xf9, 0x91, 0x4d, 0x3e, 0x3a, 0x39, 0x69, 0xbd,
  0x00, 0x00, 0x77, 0xbe, 0xc5, 0x0e, 0x16, 0xbe, 0xe1, 0xfb, 0x89, 0x3c,
  0x14, 0xe6, 0x28, 0x3e, 0xb8, 0xbe, 0x1f, 0xbc, 0x2e, 0x39, 0xe0, 0xbd,
  0x25, 0x07, 0x9e, 0x3d, 0x46, 0xae, 0xd3, 0xbc, 0x54, 0x32, 0x30, 0xbd,
  0xbd, 0x31, 0x97, 0x3c, 0xc0, 0x73, 0xd5, 0x3d, 0xbf, 0x70, 0x45, 0x3d,
  0x4f, 0xd6, 0x38, 0x3e, 0x80, 0x16, 0x04, 0xbc, 0xcf, 0xbc, 0x2c, 0x3e,
  0x87, 0x87, 0xf6, 0x3d, 0x45, 0x58, 0x15, 0xbc, 0xeb, 0xde, 0xad, 0xbd,
  0x85, 0xca, 0xc8, 0x3d, 0x28, 0xc8, 0x99, 0x3d, 0x9c, 0x59, 0xbf, 0xbd,
  0x99, 0xd9, 0xbf, 0xbd, 0x7e, 0x48, 0x04, 0xbe, 0x28, 0xc2, 0xd8, 0xbd,
  0xe1, 0x4f, 0x3a, 0x3e, 0x7d, 0xc4, 0x7e, 0xbd, 0x06, 0xf6, 0xb2, 0x3d,
  0x9a, 0x64, 0x4d, 0x3d, 0xd8, 0x66, 0x12, 0x3d, 0x50, 0xc2, 0x52, 0x3e,
  0xd9, 0x91, 0x75, 0x3d, 0xc1, 0xcc, 0xa3, 0xbd, 0x2d, 0x9f, 0xf9, 0xbc,
  0x00, 0x0f, 0x84, 0xbd, 0xce, 0x7f, 0x07, 0x3e, 0x54, 0x2c, 0xf2, 0xbd,
  0x5f, 0x27, 0x68, 0xbd, 0xfd, 0x29, 0x0b, 0xbe, 0x8f, 0xb6, 0xea, 0xbd,
  0xba, 0xf1, 0x34, 0xbe, 0xca, 0xd4, 0x95, 0x3d, 0x53, 0xde, 0x11, 0xbe,
  0x6c, 0x6f, 0x99, 0x3d, 0xb0, 0x49, 0xff, 0x3d, 0x36, 0xe7, 0x2a, 0xbe,
  0xef, 0x92, 0xa5, 0x3d, 0x38, 0x49, 0x30, 0xbd, 0xfa, 0x2b, 0x4f, 0x3e,
  0x71, 0xcc, 0x02, 0xbe, 0x18, 0xff, 0xe8, 0xbb, 0x94, 0x87, 0x06, 0x3e,
  0x4f, 0xf7, 0x53, 0xbd, 0x59, 0xca, 0x19, 0x3c, 0xa3, 0x72, 0xab, 0x3e,
  0xf5, 0xd6, 0x93, 0xbd, 0x32, 0x11, 0xe4, 0x3d, 0x85, 0xa9, 0x06, 0xbc,
  0x0e, 0x42, 0x2f, 0xbe, 0xaf, 0xd4, 0xcb, 0x3d, 0x34, 0xb0, 0xef, 0xbd,
  0x3d, 0x0c, 0x5b, 0xbd, 0xbf, 0x46, 0xd8, 0x3d, 0xf5, 0xa1, 0x1f, 0xbe,
  0xfa, 0xb3, 0x10, 0xbe, 0xa7, 0xed, 0x96, 0xbd, 0xcd, 0xb6, 0xba, 0xbd,
  0x1d, 0x71, 0x35, 0x3d, 0xd3, 0x33, 0xaf, 0x3d, 0xcc, 0xe4, 0x99, 0xbc,
  0x34, 0xc0, 0x6c, 0x3c, 0x2c, 0x0c, 0xe2, 0x3d, 0xf8, 0x4a, 0x5b, 0x3e,
  0x73, 0xd5, 0x28, 0x3e, 0x71, 0xf5, 0xed, 0xbc, 0x02, 0x5f, 0x08, 0xbe,
  0xdb, 0x21, 0xab, 0x3c, 0x5c, 0x4c, 0xa0, 0xbd, 0x29, 0x8c, 0x1c, 0x3d,
  0x56, 0x2a, 0x64, 0xbd, 0x3a, 0x32, 0x30, 0xbe, 0x47, 0x3f, 0xee, 0x3d,
  0xc8, 0x15, 0x91, 0xbd, 0xd6, 0x22, 0x79, 0xbe, 0xa5, 0x27, 0xe4, 0x3d,
  0x7e, 0x44, 0x65, 0x3d, 0x52, 0xfa, 0xd3, 0xbd, 0x4b, 0xc5, 0x13, 0xbe,
  0x36, 0x92, 0xbb, 0xbc, 0xab, 0x64, 0x0a, 0xbe, 0xd0, 0x85, 0x8a, 0x3d,
  0xfe, 0xc3, 0xf3, 0xbd, 0x13, 0x3a, 0x42, 0x3e, 0x52, 0xa8, 0x86, 0xbd,
  0x10, 0x66, 0xcc, 0xbd, 0x62, 0xb3, 0x80, 0xbd, 0xab, 0x7b, 0x92, 0x3d,
  0xeb, 0x3d, 0xae, 0xbd, 0xb7, 0xa8, 0x0f, 0x3e, 0x12, 0x61, 0xba, 0xbd,
  0x20, 0x3f, 0x68, 0xbd, 0x50, 0x78, 0x83, 0x3d, 0x2b, 0x06, 0x8e, 0x3d,
  0x16, 0x14, 0x76, 0x3e, 0xcd, 0x75, 0x20, 0x3b, 0xd0, 0x07, 0x22, 0xbe,
  0x07, 0x51, 0x2b, 0xbd, 0xf6, 0x8e, 0xce, 0x3d, 0xab, 0xcb, 0x29, 0xbe,
  0xcf, 0xa2, 0x9a, 0x3d, 0xec, 0x64, 0xaa, 0xbb, 0x6d, 0x21, 0x56, 0x3d,
  0x01, 0x74, 0x13, 0x3c, 0x35, 0xcd, 0xd6, 0xbd, 0x4d, 0x27, 0xba, 0xbd,
  0x20, 0x88, 0xe4, 0xbd, 0xab, 0x98, 0xbc, 0x3d, 0x75, 0x63, 0x7c, 0x3e,
  0x9e, 0x92, 0x01, 0x3e, 0xc6, 0x07, 0x89, 0xbd, 0xe6, 0xfa, 0x6d, 0xbe,
  0x36, 0x0e, 0x7d, 0x3d, 0xc8, 0x09, 0xbd, 0xbd, 0x0b, 0x5b, 0x4b, 0xbe,
  0x1f, 0x6e, 0xdd, 0x3d, 0xdb, 0x4a, 0x27, 0x3e, 0xc4, 0x38, 0x3e, 0x3c,
  0xf3, 0x68, 0x5c, 0xbd, 0xa0, 0x7f, 0xac, 0x3d, 0x3f, 0x85, 0x52, 0x3e,
  0x48, 0x31, 0x49, 0xbd, 0x2d, 0x31, 0x0b, 0x3e, 0xa2, 0xb3, 0x71, 0xbe,
  0x17, 0xca, 0xa2, 0xbc, 0x8f, 0x10, 0x07, 0xbd, 0x71, 0x03, 0x8c, 0x3d,
  0xc5, 0x1c, 0x5d, 0xbc, 0x4a, 0x32, 0x88, 0xbd, 0xa6, 0x37, 0x62, 0x3d,
  0x92, 0xce, 0x4b, 0xbd, 0xbb, 0x3d, 0x0d, 0x3e, 0x51, 0x8a, 0x5d, 0xbe,
  0x51, 0x00, 0x72, 0xbd, 0x37, 0xdf, 0x24, 0xbe, 0xfe, 0x00, 0x58, 0xbd,
  0xd1, 0x1e, 0xb8, 0x3d, 0xec, 0xe4, 0x89, 0x3e, 0x9c, 0xc7, 0xb4, 0xbd,
  0x3f, 0x24, 0xaf, 0x3d, 0x20, 0x53, 0xa5, 0xbd, 0xcb, 0x9a, 0x29, 0xbc,
  0x2e, 0xd6, 0x58, 0xbd, 0xfb, 0x54, 0x02, 0xbd, 0xac, 0xf0, 0x4b, 0xbe,
  0x55, 0x45, 0x60, 0x3d, 0xa6, 0x44, 0x8c, 0xbd, 0x2b, 0x12, 0x2c, 0x3d,
  0xdf, 0x10, 0x39, 0xbe, 0x0b, 0x29, 0xa1, 0x3d, 0x78, 0xe4, 0x98, 0xbc,
  0x48, 0x7c, 0x05, 0x3e, 0x52, 0x36, 0x0d, 0xbe, 0xef, 0x1a, 0xe3, 0xbd,
  0xf0, 0x81, 0x3c, 0xbe, 0x70, 0xc8, 0x5f, 0xbe, 0x1d, 0xc5, 0xa2, 0xbc,
  0x7a, 0xf4, 0x21, 0xbd, 0x96, 0xbc, 0x20, 0xbd, 0x20, 0x54, 0x50, 0xbe,
  0x02, 0x19, 0x27, 0xbd, 0x19, 0xdd, 0x9b, 0xbc, 0x9d, 0xf0, 0xf2, 0x3b,
  0x22, 0xe4, 0x81, 0x3e, 0x13, 0xef, 0xc1, 0x3e, 0x19, 0x68, 0xad, 0x3c,
  0xcc, 0x29, 0x14, 0x3e, 0x8f, 0xde, 0x71, 0x3e, 0x44, 0x22, 0xf0, 0x3d,
  0x00, 0xa5, 0x20, 0xbc, 0x7d, 0xce, 0x06, 0xbe, 0x6c, 0x5b, 0xd7, 0x3d,
  0xb3, 0x22, 0x80, 0x3d, 0x4e, 0xf3, 0xfc, 0xbd, 0x3b, 0x70, 0x11, 0x3c,
  0x31, 0xf3, 0x9a, 0x3d, 0xb3, 0x78, 0x5b, 0x3e, 0x80, 0x9f, 0x94, 0xbd,
  0x62, 0x3a, 0xa7, 0x3d, 0x1c, 0x75, 0x25, 0x3d, 0xcf, 0xf0, 0xb4, 0x3d,
  0xa2, 0xb3, 0xc4, 0x3d, 0x3f, 0x5f, 0xef, 0x3d, 0x6a, 0x04, 0x48, 0x3d,
  0x95, 0xe0, 0xa4, 0xbd, 0x5b, 0x68, 0xea, 0xbd, 0x9e, 0x37, 0x32, 0xbe,
  0xc3, 0xee, 0x6b, 0x3c, 0x57, 0x07, 0xa3, 0x3d, 0xbc, 0x8e, 0x88, 0xbd,
  0x05, 0x6a, 0x0a, 0x3c, 0x88, 0x36, 0x9d, 0x3c, 0xde, 0x02, 0xfa, 0xbd,
  0xa0, 0x81, 0xff, 0xbd, 0x7e, 0x2e, 0x36, 0xbe, 0x27, 0x61, 0x7c, 0xbe,
  0x6d, 0xb1, 0x2f, 0xbd, 0x4d, 0x9e, 0x69, 0x3e, 0x64, 0x13, 0x00, 0x3c,
  0x28, 0xa1, 0x23, 0x3c, 0x5d, 0x1b, 0xaf, 0xbd, 0x09, 0xf3, 0x9f, 0x3d,
  0x1f, 0xa2, 0x8b, 0x3d, 0xfc, 0x6d, 0xed, 0xbc, 0xa2, 0x0a, 0x6c, 0x3c,
  0x57, 0xbc, 0x43, 0x3c, 0x72, 0x80, 0x5d, 0xbd, 0xc1, 0x4e, 0xa4, 0xbd,
  0x27, 0x3c, 0x94, 0x3e, 0xdf, 0x33, 0x75, 0x3d, 0xb9, 0x00, 0xc2, 0x3d,
  0x21, 0xee, 0xe3, 0xbc, 0x57, 0xfe, 0x6f, 0xbd, 0xf9, 0x05, 0x6f, 0xbd,
  0x9c, 0x3b, 0xe3, 0xbb, 0xe5, 0xaf, 0x29, 0x3e, 0xf8, 0x0a, 0x0e, 0x3e,
  0x9e, 0xdd, 0x5b, 0x3e, 0x4c, 0xc9, 0x14, 0x3e, 0x85, 0xe8, 0x1f, 0xbd,
  0xed, 0x1f, 0x47, 0xbe, 0x94, 0xec, 0xc5, 0x3c, 0xa1, 0xc6, 0x3d, 0x3e,
  0x6b, 0xe3, 0x3f, 0xbe, 0x12, 0x1c, 0x08, 0xbd, 0x3d, 0xeb, 0x89, 0xbc,
  0x48, 0xbe, 0x38, 0xbe, 0x27, 0x1c, 0x14, 0xbe, 0xf8, 0x2c, 0x53, 0xbc,
  0xad, 0x1f, 0xcc, 0xbb, 0x6c, 0x89, 0xe5, 0xbd, 0xfe, 0x70, 0x59, 0xbe,
  0xc0, 0x61, 0x0e, 0xbd, 0x07, 0x72, 0x31, 0x3e, 0xd8, 0x15, 0x23, 0x3e,
  0xf9, 0x11, 0x1c, 0x3d, 0xab, 0xa7, 0x1a, 0x3c, 0x0c, 0x7a, 0x26, 0xbe,
  0x82, 0x36, 0xe1, 0xbd, 0xe7, 0x3e, 0xba, 0x3d, 0xd9, 0x8a, 0xe2, 0x3d,
  0xdd, 0x0c, 0x90, 0x3d, 0x05, 0xdc, 0x99, 0x3c, 0x98, 0x18, 0xd0, 0xbe,
  0x93, 0x3f, 0xc8, 0xbd, 0xab, 0x53, 0xd7, 0x3c, 0xe9, 0x25, 0xda, 0x3d,
  0xe3, 0x25, 0x28, 0x3e, 0x6b, 0xe2, 0x62, 0x3e, 0x03, 0x6d, 0x32, 0xbe,
  0x9e, 0x57, 0xee, 0xbc, 0x7b, 0x21, 0x51, 0xbd, 0xf1, 0x10, 0x39, 0x3d,
  0x53, 0x29, 0x13, 0x3e, 0xcf, 0xbf, 0x3d, 0x3e, 0xad, 0xec, 0x9b, 0xbc,
  0x72, 0x5f, 0x93, 0x3e, 0x0a, 0xc4, 0x55, 0x3c, 0x44, 0x68, 0xa6, 0x3d,
  0xcc, 0x2a, 0x9d, 0x3d, 0x10, 0x51, 0x93, 0x3d, 0x44, 0x7a, 0xfb, 0x3c,
  0x18, 0xb5, 0x8b, 0xbd, 0xeb, 0xa7, 0xc3, 0x3d, 0x68, 0xaf, 0xbb, 0xbd,
  0x55, 0x88, 0xea, 0xbc, 0x5c, 0xb6, 0x50, 0x3d, 0xf2, 0xe9, 0xf5, 0x3d,
  0x8d, 0xb9, 0x54, 0xbd, 0x6b, 0x9f, 0x25, 0x3d, 0x33, 0x58, 0xad, 0xbd,
  0x41, 0x48, 0xc4, 0xbb, 0xeb, 0x9b, 0x21, 0x3d, 0xff, 0x60, 0x82, 0xbd,
  0x79, 0x61, 0x5d, 0x3d, 0xf5, 0x2d, 0x97, 0x3c, 0x15, 0xac, 0xf7, 0x3d,
  0xa2, 0x24, 0xd1, 0x3d, 0x22, 0xe6, 0xcd, 0xbd, 0x2d, 0x49, 0x8f, 0xbc,
  0x13, 0xaf, 0xaf, 0xbd, 0xa6, 0xa8, 0x35, 0xbd, 0xe2, 0xc3, 0x97, 0x3d,
  0x19, 0xb4, 0x16, 0x3e, 0x98, 0x66, 0x1d, 0xbe, 0x22, 0xeb, 0x48, 0xbe,
  0x9a, 0xb9, 0xf6, 0xbd, 0xe3, 0xbf, 0xb5, 0x3d, 0x92, 0x35, 0x2b, 0x3c,
  0xdb, 0xce, 0x90, 0x3d, 0x2b, 0xeb, 0xdc, 0xbd, 0x8f, 0x04, 0x99, 0xbc,
  0x7c, 0x1e, 0x4a, 0x3e, 0x8d, 0x34, 0x1c, 0xbe, 0x45, 0xe7, 0xc8, 0x39,
  0x52, 0x4d, 0x0b, 0x3d, 0xa9, 0x52, 0x3b, 0xbe, 0x72, 0xd6, 0x31, 0x3d,
  0x50, 0xaa, 0xe2, 0x3d, 0x9c, 0x38, 0xcd, 0x3c, 0x52, 0x55, 0x82, 0x3e,
  0x95, 0x09, 0xcc, 0x3d, 0x07, 0xc0, 0x89, 0xbd, 0xbe, 0x9b, 0x10, 0x3c,
  0x68, 0x9a, 0xff, 0x3c, 0x57, 0x13, 0x11, 0xbd, 0x59, 0xcf, 0x7c, 0x3c,
  0x29, 0x7a, 0xf8, 0x3c, 0x09, 0xfc, 0x36, 0xbe, 0xb8, 0x1b, 0xc3, 0x3d,
  0x3b, 0x48, 0xe3, 0xbd, 0x56, 0xeb, 0x61, 0xbc, 0x52, 0x0e, 0x25, 0xbd,
  0x7d, 0xf4, 0x4d, 0x3e, 0x5a, 0x59, 0x58, 0x3d, 0x6f, 0xa2, 0xa0, 0x3d,
  0x8b, 0x36, 0xe3, 0xbd, 0x07, 0xad, 0xc9, 0x3d, 0x88, 0x0a, 0x9d, 0xbc,
  0x54, 0xa0, 0x38, 0xbe, 0xc8, 0xb5, 0x7f, 0xbe, 0x73, 0x1a, 0xc2, 0x3d,
  0x2c, 0xa1, 0x83, 0x3d, 0xce, 0xc0, 0x11, 0x3e, 0xe0, 0x90, 0xad, 0xbd,
  0x56, 0x6d, 0x5d, 0xbe, 0x3a, 0xee, 0xe1, 0xbb, 0x02, 0x03, 0xa4, 0xbd,
  0x33, 0x2e, 0xad, 0xbd, 0x28, 0x20, 0x7c, 0xbd, 0x7e, 0xa8, 0x21, 0xbe,
  0x5c, 0x07, 0xbb, 0x3d, 0xa0, 0x06, 0xf5, 0xbd, 0xfe, 0xb6, 0x9b, 0x3c,
  0x47, 0x82, 0x6c, 0x3e, 0x61, 0xe5, 0xc8, 0xbb, 0x1b, 0xb8, 0x38, 0x3d,
  0xe8, 0x89, 0xbe, 0x3d, 0xf6, 0x20, 0x2e, 0x3d, 0x54, 0x77, 0x05, 0x3e,
  0x85, 0xe0, 0xe3, 0x3d, 0xe4, 0x41, 0x0a, 0xbe, 0x23, 0x00, 0xba, 0xbc,
  0x0f, 0x5b, 0x08, 0xbe, 0x13, 0x46, 0xf2, 0xbd, 0x37, 0xc3, 0x46, 0xbe,
  0x62, 0x74, 0x7f, 0xbd, 0x39, 0xf0, 0x98, 0x3d, 0x77, 0x97, 0xe5, 0xbc,
  0x34, 0xa1, 0x07, 0x3d, 0x88, 0x3a, 0x0b, 0x3d, 0xbf, 0xbe, 0xa1, 0xbd,
  0xc2, 0xff, 0xef, 0x3d, 0x12, 0xc0, 0xe8, 0x3c, 0xf1, 0x19, 0xa9, 0xbd,
  0x70, 0xbc, 0xc0, 0xbd, 0xe4, 0x89, 0x0e, 0xbd, 0x0d, 0x20, 0x08, 0xbd,
  0x9a, 0x1f, 0x7c, 0x3d, 0x43, 0x2e, 0x99, 0x3d, 0xde, 0x0e, 0x1a, 0xbc,
  0x95, 0xda, 0x41, 0x3d, 0x47, 0xda, 0xc0, 0xbd, 0x93, 0x4f, 0xc4, 0xbd,
  0x6d, 0xb6, 0xab, 0x3d, 0xa0, 0x25, 0x2c, 0x3d, 0x8b, 0x08, 0x02, 0xbe,
  0x99, 0x54, 0x2c, 0xbd, 0xf8, 0xf8, 0x25, 0x3e, 0x71, 0xad, 0x28, 0xbd,
  0x90, 0x2a, 0x21, 0x3d, 0xbe, 0xb7, 0x14, 0xbe, 0x31, 0x17, 0x8d, 0x3d,
  0x34, 0xc1, 0x40, 0xbd, 0x10, 0x94, 0x21, 0x3e, 0x6d, 0x2c, 0x2d, 0xbd,
  0x05, 0xe4, 0xa1, 0x3d, 0xda, 0x2f, 0x12, 0xbe, 0x51, 0x3c, 0x99, 0x3d,
  0x92, 0x4e, 0x9a, 0xbc, 0xdd, 0x56, 0x05, 0xbe, 0xff, 0xaa, 0x4e, 0x3e,
  0xda, 0x7f, 0x15, 0xbd, 0x04, 0xf3, 0xe4, 0x3d, 0xda, 0x1b, 0x13, 0xbd,
  0x29, 0x51, 0x3c, 0xbe, 0x06, 0x62, 0x7d, 0xbb, 0xe7, 0x7d, 0x2f, 0x3d,
  0xa2, 0xd1, 0x9e, 0xbd, 0xfb, 0xe4, 0x87, 0x3d, 0x43, 0x9b, 0x87, 0xbd,
  0xa0, 0xb5, 0x65, 0xbe, 0x5a, 0x7d, 0x5c, 0xbc, 0x0c, 0x81, 0x38, 0xbe,
  0x74, 0x7f, 0x42, 0xbd, 0x6f, 0xe7, 0x4f, 0xbc, 0x84, 0x46, 0x0c, 0x3e,
  0x7b, 0x37, 0xc7, 0x3c, 0x24, 0x37, 0xb6, 0xbd, 0xa4, 0xd2, 0x11, 0x3c,
  0x94, 0xd4, 0x59, 0xbd, 0xbb, 0x44, 0x7c, 0xbc, 0x85, 0xfb, 0xab, 0xbe,
  0x61, 0x1e, 0x10, 0xbe, 0xbf, 0xd2, 0xe8, 0xbd, 0xb7, 0x32, 0x18, 0x3e,
  0xd9, 0x6a, 0xcb, 0xbd, 0x4e, 0x8d, 0x19, 0xbd, 0x1c, 0x72, 0x0d, 0x3e,
  0xb2, 0x63, 0x20, 0x3e, 0x88, 0xa6, 0x88, 0x3c, 0xcb, 0x2f, 0x26, 0xbe,
  0xb2, 0x9b, 0xda, 0x3d, 0x82, 0x4b, 0x85, 0x3d, 0x07, 0xf6, 0x98, 0xbd,
  0x81, 0xbf, 0xba, 0x3d, 0x0e, 0xbe, 0x23, 0xbd, 0xef, 0x28, 0x92, 0x3c,
  0x57, 0xe7, 0x43, 0xbd, 0x6e, 0x36, 0xb9, 0xbc, 0xf1, 0x6e, 0x24, 0x3e,
  0xf7, 0xfa, 0x07, 0x3e, 0xf1, 0xfc, 0xbb, 0xbe, 0xf5, 0xed, 0xd9, 0xbc,
  0x74, 0x2f, 0x33, 0xbd, 0x5c, 0x62, 0x1b, 0x3e, 0x1d, 0x23, 0xfd, 0x3d,
  0xe5, 0x39, 0x2c, 0xbe, 0x92, 0x2c, 0x04, 0xbe, 0xb7, 0xf5, 0xc1, 0x3d,
  0x0e, 0x04, 0x5f, 0x3e, 0x9d, 0xac, 0xcb, 0xbc, 0x59, 0x91, 0xe1, 0x3b,
  0x50, 0x69, 0x8c, 0x3e, 0x1f, 0xe2, 0xc6, 0xbd, 0x0d, 0xab, 0x20, 0xbe,
  0x4f, 0x48, 0x7e, 0x3d, 0x77, 0x1f, 0x41, 0x3d, 0x75, 0x2b, 0xb8, 0xbd,
  0x2e, 0x85, 0x48, 0x3d, 0xe7, 0x43, 0x4c, 0xbd, 0xdd, 0xe7, 0xf3, 0xbd,
  0xe7, 0xc9, 0xdf, 0x3d, 0x0c, 0xca, 0x3c, 0x3d, 0x8e, 0xa8, 0x9f, 0xbd,
  0xa3, 0x11, 0x48, 0xbe, 0x80, 0x82, 0xea, 0x3d, 0xbd, 0xa9, 0xb4, 0x3d,
  0x83, 0x14, 0x30, 0xbd, 0x20, 0x63, 0xc9, 0xbd, 0x54, 0x91, 0xce, 0x3d,
  0x61, 0x6b, 0x9b, 0xbc, 0x6b, 0x31, 0x0c, 0x3e, 0x9e, 0x09, 0x70, 0x3d,
  0x5b, 0xf3, 0x8e, 0xbc, 0x65, 0x09, 0x04, 0xbd, 0x76, 0xf5, 0x80, 0xbc,
  0xc0, 0x26, 0xbf, 0xbc, 0xd5, 0x3d, 0xf7, 0xbd, 0xf5, 0x45, 0x0a, 0xbd,
  0xd4, 0xca, 0x0f, 0xbd, 0x7f, 0xf0, 0x48, 0x3e, 0x22, 0x2f, 0x14, 0x3c,
  0xb7, 0x42, 0xe9, 0xbd, 0x80, 0x6d, 0xf5, 0xbc, 0x6a, 0x21, 0x5e, 0xbe,
  0xea, 0x71, 0x78, 0xbd, 0xf0, 0xbf, 0x05, 0xbe, 0x7f, 0x64, 0x1d, 0x3e,
  0x77, 0xaa, 0x8f, 0x3d, 0xca, 0x9c, 0x65, 0xbd, 0xb4, 0x57, 0x41, 0x3d,
  0x59, 0x0f, 0x3e, 0xbd, 0x55, 0x36, 0xfc, 0xbd, 0xaa, 0xbd, 0x70, 0xbe,
  0xc6, 0xdb, 0x03, 0x3e, 0x08, 0x6b, 0x4f, 0x3e, 0xfe, 0x25, 0xf3, 0xbd,
  0xa2, 0x3b, 0x0c, 0x3d, 0xc6, 0xc8, 0x23, 0xbe, 0x24, 0x1c, 0x2f, 0x3d,
  0x1d, 0x42, 0xc8, 0xbd, 0xe2, 0x62, 0x25, 0x3e, 0x21, 0x5c, 0x13, 0x3d,
  0xf2, 0xcb, 0x91, 0xbd, 0x6d, 0x0a, 0x5c, 0x3e, 0xbd, 0x73, 0xce, 0x3d,
  0x6b, 0xe8, 0x21, 0xbe, 0xe4, 0x16, 0x4e, 0xbd, 0xe4, 0xc6, 0xdf, 0xbd,
  0x27, 0x65, 0x9c, 0x3e, 0x39, 0x92, 0xb7, 0xbc, 0x9a, 0x8f, 0x44, 0x3e,
  0xee, 0xfd, 0xa2, 0x3d, 0x05, 0x1a, 0x63, 0xbe, 0x62, 0x29, 0x8d, 0x3c,
  0x8f, 0x8d, 0x37, 0xbe, 0x46, 0xdd, 0xf5, 0xbc, 0x76, 0xbe, 0x0a, 0x3d,
  0xe7, 0xe4, 0x30, 0x3d, 0xd5, 0x6c, 0xb7, 0xbc, 0x5a, 0x26, 0x7d, 0x3e,
  0x50, 0x40, 0xc8, 0xbd, 0xcd, 0x81, 0x13, 0x3e, 0xbf, 0xf2, 0xec, 0x3d,
  0x52, 0x66, 0x81, 0xbe, 0x81, 0x58, 0x89, 0xbd, 0x0b, 0x16, 0x55, 0x3e,
  0xce, 0x37, 0x81, 0x3d, 0x72, 0xa3, 0xed, 0x3c, 0x70, 0x92, 0xa8, 0x3d,
  0xe4, 0x1e, 0x48, 0x3e, 0x7c, 0x41, 0x7c, 0xbd, 0x3a, 0xf8, 0x32, 0xbe,
  0xc9, 0x06, 0xbb, 0xbc, 0xd7, 0x5f, 0x1e, 0x3e, 0xd1, 0x11, 0x03, 0xbd,
  0x71, 0x06, 0x18, 0xbe, 0x2e, 0xa4, 0xab, 0x3d, 0xcd, 0x68, 0x38, 0xbc,
  0x06, 0x9f, 0xda, 0xbd, 0x69, 0x99, 0x74, 0xbd, 0x4b, 0xfb, 0x63, 0x3d,
  0x2c, 0x36, 0x06, 0xbe, 0x1f, 0x3d, 0x20, 0xbd, 0x78, 0x0f, 0xcb, 0xb9,
  0x7f, 0xe7, 0x34, 0x3c, 0x2a, 0x5a, 0x3c, 0x3e, 0xd6, 0x83, 0x7c, 0xbd,
  0xe3, 0xd3, 0x5d, 0xbd, 0x4a, 0x6b, 0x2f, 0xbe, 0xd2, 0x95, 0xc7, 0xbd,
  0x2c, 0x10, 0xd4, 0xbc, 0x08, 0xcc, 0xac, 0xbc, 0xde, 0x26, 0x22, 0xbe,
  0xdb, 0x33, 0x9f, 0xbc, 0xff, 0x78, 0x96, 0xbd, 0xdb, 0x8f, 0xd9, 0xbc,
  0x75, 0x06, 0x22, 0x3e, 0xc1, 0x46, 0x24, 0x3e, 0xb4, 0xee, 0x34, 0x3b,
  0xbc, 0x23, 0x28, 0xbe, 0xf3, 0x64, 0x02, 0xbe, 0x83, 0x38, 0xf3, 0x3d,
  0xcb, 0xb5, 0x92, 0xbc, 0x17, 0xd5, 0x0f, 0xbd, 0xd6, 0xf9, 0x20, 0x3e,
  0x85, 0x88, 0x28, 0x3e, 0x5b, 0x63, 0xcf, 0x3c, 0xf8, 0x22, 0x9d, 0xbd,
  0x75, 0x25, 0x0c, 0x3e, 0x62, 0x2b, 0xae, 0xbe, 0x99, 0xb7, 0x05, 0x3d,
  0x07, 0x77, 0x20, 0xbe, 0xe7, 0xb5, 0x7c, 0xbd, 0x3f, 0x66, 0xfc, 0x3d,
  0xe3, 0x35, 0xbd, 0x3d, 0x25, 0x0e, 0xcb, 0xbd, 0x20, 0x4d, 0x76, 0xbe,
  0x72, 0x5a, 0xaa, 0x3d, 0x0e, 0xa0, 0xd5, 0x3d, 0x97, 0xeb, 0x0d, 0x3e,
  0xdd, 0xda, 0x99, 0x3d, 0xf4, 0x6a, 0x97, 0xbd, 0xe4, 0xd6, 0x3e, 0xbe,
  0xa5, 0x41, 0x45, 0x3e, 0x24, 0x8a, 0xa6, 0x3d, 0xec, 0x94, 0xe7, 0x3d,
  0xb4, 0xdd, 0x79, 0x3c, 0xc4, 0xea, 0x6e, 0x3e, 0xfe, 0x87, 0x09, 0xbb,
  0x0d, 0xec, 0x90, 0x3d, 0x19, 0x6a, 0x38, 0x3c, 0xb8, 0x7e, 0xac, 0xbd,
  0x4c, 0x3d, 0x46, 0x3b, 0x14, 0x37, 0x5b, 0x3e, 0x8b, 0x8e, 0xd0, 0x3c,
  0x03, 0x4a, 0x39, 0xbe, 0xd3, 0x82, 0x53, 0x3d, 0x72, 0xd5, 0x40, 0x3e,
  0xf1, 0x72, 0x1d, 0xbd, 0xfe, 0xe8, 0x47, 0x3c, 0x37, 0x0f, 0x4b, 0xbc,
  0xc4, 0x5f, 0x7a, 0x3e, 0x4f, 0x4a, 0x81, 0x3d, 0x84, 0x33, 0xa9, 0xbe,
  0x5e, 0x20, 0x5c, 0x3e, 0x4b, 0xf5, 0xbf, 0xbb, 0xca, 0xe4, 0xa4, 0x3d,
  0xe2, 0x09, 0x0c, 0x3e, 0x38, 0xd3, 0xd1, 0x3d, 0xc8, 0x50, 0xed, 0x3d,
  0xc9, 0xab, 0xc4, 0xbd, 0x45, 0x73, 0x9e, 0x3d, 0x9e, 0xf3, 0x37, 0xbc,
  0xb1, 0x55, 0x24, 0x3d, 0x72, 0x18, 0xd1, 0xbd, 0x4d, 0x11, 0xb3, 0xbd,
  0x39, 0xa0, 0x34, 0x3e, 0xa2, 0xb7, 0x6d, 0xbd, 0xd2, 0xab, 0xdc, 0xbb,
  0x2a, 0x0b, 0x4f, 0xbc, 0xbd, 0x3b, 0xc3, 0x3d, 0x8a, 0x3f, 0xad, 0x3b,
  0x51, 0x68, 0x34, 0x3e, 0x74, 0xa2, 0x1a, 0xbd, 0xac, 0x46, 0x24, 0x3e,
  0xfc, 0x01, 0x0d, 0x3e, 0x56, 0x41, 0xf1, 0x3d, 0xf2, 0x86, 0xab, 0x3d,
  0xf1, 0xf1, 0x2d, 0xbc, 0x1c, 0x92, 0x66, 0xbb, 0xf9, 0x75, 0x82, 0xbe,
  0x1a, 0x97, 0x1c, 0xbd, 0x09, 0xd2, 0x82, 0xbd, 0x64, 0xb1, 0x04, 0x3e,
  0x2d, 0xde, 0x29, 0xbd, 0xfb, 0xda, 0x84, 0x3e, 0xac, 0x39, 0xbc, 0xbd,
  0x37, 0x7c, 0x9d, 0x3d, 0x72, 0xe3, 0x28, 0x3e, 0x97, 0xa4, 0x41, 0xbd,
  0x35, 0xf7, 0x13, 0x3d, 0xb5, 0xa1, 0xac, 0xbc, 0x58, 0x84, 0x8e, 0xbd,
  0x9c, 0xc6, 0x55, 0xbe, 0xa5, 0x06, 0x84, 0x3c, 0xf9, 0xf8, 0x14, 0xbe,
  0x45, 0x12, 0x2f, 0xbe, 0xb0, 0x25, 0x3f, 0x3c, 0xdf, 0xf3, 0xd6, 0x3d,
  0x4a, 0x2d, 0xa7, 0xbe, 0xdb, 0x60, 0xd1, 0xbd, 0xd3, 0xad, 0xf4, 0xbc,
  0x47, 0xf2, 0x13, 0xbd, 0xa3, 0x45, 0xd7, 0x3d, 0xf3, 0x94, 0x59, 0x3e,
  0xad, 0x2c, 0x66, 0x3e, 0x6a, 0x78, 0x00, 0xbe, 0xc2, 0x6a, 0x6e, 0xbd,
  0x31, 0xed, 0x6b, 0x3d, 0xb7, 0xfe, 0x08, 0x3d, 0x7a, 0x66, 0xe9, 0x3d,
  0x0c, 0x06, 0x63, 0xbd, 0x2f, 0xb9, 0x7a, 0xbe, 0xab, 0xb6, 0x84, 0x3c,
  0x84, 0xd1, 0x89, 0x3c, 0x1e, 0xb7, 0x87, 0x3e, 0x8c, 0xe7, 0x40, 0x3c,
  0x0f, 0xe5, 0x19, 0xbd, 0x2c, 0xf1, 0x1d, 0xbe, 0x64, 0x6b, 0x4d, 0xbd,
  0x0e, 0x64, 0x5e, 0x3d, 0xad, 0x53, 0xd9, 0xbd, 0xba, 0x25, 0xdf, 0xbd,
  0x87, 0x6d, 0xcd, 0x3d, 0xae, 0xf8, 0x23, 0xbe, 0x94, 0x6f, 0x94, 0x3d,
  0x3c, 0x4c, 0x7f, 0x3d, 0x9d, 0x52, 0x30, 0xbe, 0x96, 0xb2, 0xdf, 0xbc,
  0xce, 0x9a, 0x31, 0x3e, 0x14, 0x4d, 0x22, 0x3e, 0x7b, 0x27, 0x70, 0x3e,
  0xfb, 0xc8, 0xf2, 0xbc, 0x49, 0xf8, 0x60, 0x3b, 0xe9, 0x84, 0x1f, 0x3e,
  0xca, 0x59, 0x0e, 0x3c, 0xba, 0x31, 0x83, 0x3d, 0x7a, 0xcb, 0x90, 0x3e,
  0x4d, 0x73, 0x14, 0x3d, 0x00, 0xd9, 0x1b, 0xbe, 0x30, 0xf0, 0x27, 0xbc,
  0x1c, 0x22, 0x14, 0x3e, 0xd3, 0x04, 0xb3, 0x3d, 0x95, 0x00, 0x00, 0xbe,
  0x51, 0xf1, 0xf3, 0x3c, 0x7a, 0x23, 0xe6, 0x3b, 0x9e, 0x38, 0xd5, 0x3d,
  0x2d, 0x39, 0x49, 0xbd, 0xe5, 0x1e, 0x0f, 0xbd, 0x96, 0x9d, 0x25, 0x3e,
  0x3f, 0xb5, 0xfc, 0x3d, 0x2f, 0x9f, 0x1c, 0xbe, 0x01, 0x08, 0x1a, 0x3e,
  0xca, 0x12, 0x6e, 0xbd, 0xcf, 0x71, 0xe3, 0xbc, 0x92, 0x14, 0xa3, 0xbc,
  0xeb, 0xde, 0x96, 0xbd, 0xba, 0x51, 0xb3, 0x3c, 0xb7, 0xa5, 0x18, 0x3d,
  0x4e, 0x00, 0x8a, 0xbd, 0x27, 0x94, 0x92, 0xbe, 0x9a, 0xd7, 0x1a, 0x3d,
  0xee, 0xfe, 0xce, 0xbd, 0xcb, 0xd5, 0x28, 0x3e, 0xa6, 0xc4, 0x73, 0xbd,
  0x53, 0xa5, 0x0e, 0xbc, 0x5d, 0x4c, 0x68, 0x3e, 0xcd, 0x97, 0x98, 0xbc,
  0x0c, 0x0d, 0x08, 0xbe, 0xc8, 0x8e, 0x1c, 0xbc, 0x83, 0x2a, 0xbe, 0x3c,
  0xf3, 0x5a, 0x19, 0xbd, 0x69, 0xa0, 0xd2, 0xbd, 0x50, 0xc4, 0x18, 0x3d,
  0xdf, 0x90, 0x91, 0xbe, 0x20, 0x1d, 0x33, 0x3d, 0x21, 0x04, 0x09, 0xbd,
  0x49, 0x99, 0x26, 0x3d, 0x14, 0x4b, 0x12, 0x3b, 0x8f, 0xf8, 0xe1, 0x3c,
  0x0c, 0xbc, 0x9c, 0xbc, 0xe1, 0x6e, 0x28, 0x3d, 0x19, 0xd3, 0x16, 0x3d,
  0x3b, 0x95, 0x66, 0x3d, 0xdf, 0x04, 0x0e, 0xbc, 0x67, 0xec, 0x6b, 0x3e,
  0x41, 0x84, 0x27, 0xbd, 0xdb, 0x42, 0x11, 0x3d, 0x46, 0x52, 0xdb, 0xbd,
  0x8a, 0x26, 0x66, 0xbd, 0x1d, 0xe7, 0x0f, 0xbe, 0x4c, 0xc8, 0x8d, 0xbe,
  0xe3, 0xa7, 0xf0, 0xbd, 0x8e, 0x2c, 0xc3, 0x3c, 0x5e, 0x4b, 0xa8, 0x3e,
  0xc5, 0xbc, 0x92, 0xbd, 0x39, 0x94, 0xb8, 0xbd, 0xc4, 0x34, 0xef, 0xbc,
  0xa4, 0x0a, 0x32, 0xbd, 0x95, 0x7b, 0xbe, 0xbd, 0x19, 0x03, 0xc6, 0xbd,
  0x76, 0x11, 0xe3, 0xbd, 0xc2, 0x35, 0x2b, 0x3e, 0xc6, 0x8f, 0x23, 0xbe,
  0x97, 0xa5, 0xfe, 0xbd, 0x5e, 0x70, 0x03, 0x3e, 0xdb, 0x63, 0x3d, 0xbd,
  0x8d, 0xaa, 0x5c, 0x3d, 0xa3, 0x11, 0x10, 0x3e, 0xca, 0xb8, 0x83, 0x3d,
  0x73, 0x8e, 0x87, 0xbe, 0xda, 0x9f, 0x00, 0xbe, 0xd0, 0x8a, 0x77, 0xbe,
  0x4f, 0xb8, 0x29, 0x3d, 0x4f, 0xda, 0x39, 0xbe, 0x3a, 0x6b, 0xfb, 0xbd,
  0xe3, 0xf4, 0x1f, 0xbe, 0x47, 0xde, 0x2d, 0x3d, 0x2e, 0xd0, 0x05, 0x3e,
  0x53, 0xac, 0x68, 0x3e, 0x58, 0xc3, 0x51, 0xbd, 0x8b, 0x01, 0xd5, 0xbc,
  0x79, 0x7b, 0x5e, 0xbc, 0x73, 0xbb, 0xaf, 0x3d, 0x07, 0x65, 0xd4, 0xbb,
  0xf2, 0xed, 0x84, 0xbd, 0xee, 0xf8, 0x41, 0xbd, 0xed, 0xfb, 0xad, 0x3d,
  0xa4, 0x05, 0xbf, 0xbd, 0x7a, 0xda, 0xc6, 0x3d, 0xee, 0x2f, 0x37, 0xba,
  0x12, 0x24, 0xb1, 0xbe, 0xb0, 0x78, 0xb9, 0x3c, 0x42, 0xc0, 0x43, 0xbe,
  0xd1, 0x74, 0xd0, 0x3d, 0x40, 0xb0, 0x18, 0xbe, 0x0c, 0xc2, 0x47, 0x3d,
  0x5d, 0xd7, 0x08, 0xbe, 0xa3, 0xb4, 0x80, 0xbe, 0x29, 0x34, 0x9b, 0x3d,
  0x03, 0x73, 0xbf, 0xbd, 0xbc, 0x40, 0x02, 0xbe, 0x16, 0x7d, 0x41, 0xbe,
  0x88, 0x81, 0x2e, 0xbe, 0x1e, 0x04, 0xc3, 0x3d, 0x4d, 0x95, 0x34, 0x3e,
  0x68, 0x09, 0x4f, 0x3c, 0xcf, 0x51, 0x22, 0x3e, 0xa4, 0xa5, 0x97, 0x3d,
  0x3b, 0x2d, 0x32, 0x3d, 0x4d, 0x20, 0x22, 0x3e, 0x40, 0x80, 0x95, 0x3b,
  0xce, 0xe2, 0x1c, 0xbd, 0xb6, 0xa7, 0xde, 0x3d, 0x64, 0x51, 0x95, 0xbd,
  0xfa, 0x56, 0x60, 0x3c, 0x45, 0x0c, 0x1a, 0x3e, 0xf3, 0x05, 0x53, 0xbd,
  0xae, 0xd4, 0xef, 0x3c, 0x76, 0xb7, 0x00, 0x3e, 0x5f, 0x31, 0x11, 0x3e,
  0x20, 0x86, 0x03, 0xbe, 0xfe, 0xeb, 0x28, 0xbe, 0xd2, 0x4d, 0x52, 0xbe,
  0x7b, 0x84, 0x92, 0x3c, 0xb5, 0xa7, 0xf1, 0x3d, 0xa6, 0x22, 0x0c, 0xbe,
  0xbc, 0x51, 0x82, 0x3d, 0xe7, 0xa2, 0x05, 0x3e, 0x26, 0xb2, 0x9c, 0xbc,
  0x8f, 0x2b, 0x23, 0x3e, 0x37, 0x84, 0xc1, 0x3d, 0x81, 0x9e, 0xdd, 0xbc,
  0x6b, 0x07, 0xa1, 0xbd, 0x43, 0xb7, 0x2a, 0x3e, 0xa5, 0xf7, 0x90, 0xbb,
  0x5f, 0xcb, 0x3e, 0x3e, 0xf3, 0xc1, 0x19, 0x3d, 0xf9, 0x81, 0xac, 0x3d,
  0x77, 0x3c, 0xbf, 0xbd, 0x72, 0x58, 0x06, 0x3e, 0xe9, 0x85, 0xe9, 0x3d,
  0xbc, 0xa6, 0xfa, 0xbd, 0x9f, 0xaa, 0x9d, 0x3c, 0x09, 0xea, 0x64, 0x3d,
  0xa4, 0xd8, 0xb2, 0xbd, 0xe7, 0x6f, 0xfc, 0x3c, 0xc2, 0x68, 0x1d, 0xbe,
  0xb8, 0x50, 0x0c, 0x3d, 0xd7, 0xb9, 0x9e, 0x3d, 0xd1, 0xf6, 0xb1, 0xbc,
  0x1f, 0xd6, 0xcb, 0xbd, 0x79, 0x71, 0x61, 0xbe, 0xfe, 0xcc, 0x7e, 0x3d,
  0xfa, 0x65, 0x39, 0x3d, 0x25, 0x25, 0xd9, 0x3d, 0x8e, 0x95, 0xf1, 0x3d,
  0x32, 0xb4, 0x99, 0x3d, 0xe6, 0xc2, 0xac, 0x3c, 0xe2, 0xd4, 0xee, 0x3d,
  0xcc, 0x7a, 0x2c, 0xbe, 0x37, 0xd5, 0x24, 0x3d, 0x9e, 0x16, 0x29, 0x3c,
  0x26, 0x28, 0x43, 0xbe, 0x9c, 0x31, 0x81, 0x3d, 0xab, 0x80, 0x54, 0xbc,
  0x88, 0xbe, 0x88, 0xbd, 0x32, 0xd1, 0x30, 0x3e, 0x2d, 0xb6, 0x3d, 0xbc,
  0x4c, 0xd0, 0xa3, 0x3b, 0x9e, 0x28, 0x7c, 0xbd, 0x9c, 0x78, 0xea, 0xbd,
  0xd6, 0x93, 0xbd, 0xbd, 0xc6, 0x13, 0xfe, 0x3d, 0xcf, 0x45, 0xdb, 0x3d,
  0xd2, 0x5e, 0x70, 0xbe, 0x2d, 0xe3, 0x05, 0xbe, 0x9e, 0xb0, 0xec, 0xbd,
  0x60, 0xed, 0x54, 0xbc, 0x7a, 0xeb, 0x30, 0x3e, 0x17, 0x8d, 0x6f, 0x3e,
  0x1e, 0x0c, 0x68, 0x3d, 0xac, 0x33, 0xdb, 0xbd, 0xd3, 0x41, 0xe3, 0x3d,
  0xa9, 0xc0, 0xbc, 0x3d, 0xb1, 0xf0, 0xe3, 0x3d, 0x8d, 0x42, 0x3d, 0xbe,
  0x8a, 0xfe, 0xa0, 0x3c, 0x81, 0x72, 0x21, 0x3e, 0xf1, 0xe4, 0xdb, 0xbd,
  0x23, 0x95, 0x9b, 0x3d, 0x7b, 0xdf, 0x87, 0xbd, 0x06, 0x88, 0xd9, 0x3d,
  0x3f, 0xbe, 0x04, 0x3d, 0xc2, 0x3e, 0x29, 0xbe, 0x6a, 0x69, 0x6f, 0xbe,
  0x9c, 0x3b, 0x56, 0x3d, 0xe6, 0x1a, 0x0d, 0xbe, 0x9c, 0x30, 0x5a, 0xbe,
  0x2e, 0x62, 0x88, 0xbd, 0xa3, 0x39, 0x19, 0xbe, 0xfd, 0xc3, 0x39, 0xbe,
  0x28, 0x3f, 0xc2, 0xbd, 0x2d, 0x6d, 0x81, 0xbd, 0x79, 0x7e, 0x6a, 0xbe,
  0x60, 0x3d, 0x95, 0xbe, 0x38, 0xda, 0x00, 0x3e, 0xb2, 0x89, 0xf3, 0xbc,
  0xe9, 0xe5, 0xe9, 0x3c, 0xd5, 0xcd, 0x74, 0xbe, 0xe6, 0x9c, 0x26, 0xbe,
  0x69, 0x4e, 0xf4, 0x3d, 0x1a, 0xd0, 0x1a, 0xbe, 0x0b, 0x00, 0x25, 0x3e,
  0x65, 0xf1, 0xf6, 0x3c, 0x8f, 0xf9, 0x10, 0x3a, 0x81, 0x17, 0x20, 0xbe,
  0xb7, 0x4c, 0x67, 0x3c, 0x38, 0xfd, 0x1f, 0x3b, 0x4b, 0x14, 0x45, 0xbe,
  0x38, 0x19, 0xd3, 0x3d, 0xbd, 0xd9, 0x52, 0xbd, 0x66, 0xb6, 0x05, 0x3d,
  0x85, 0xa2, 0x19, 0xbd, 0x91, 0x82, 0xa6, 0xbc, 0x30, 0x2d, 0x07, 0x3e,
  0x6e, 0x35, 0x59, 0x3e, 0x1b, 0xfe, 0xd3, 0x3c, 0xf1, 0xe4, 0xed, 0xba,
  0x74, 0x04, 0xeb, 0xbb, 0x83, 0xdd, 0xb1, 0x3d, 0x54, 0xb3, 0x4d, 0xbe,
  0x07, 0x4a, 0xd4, 0xbb, 0x42, 0x02, 0xd9, 0xbd, 0x0d, 0x7d, 0x81, 0x3d,
  0x11, 0x9a, 0xeb, 0xbd, 0x07, 0x39, 0x57, 0xbd, 0xec, 0xd0, 0x95, 0xbd,
  0xe4, 0x8e, 0xaf, 0xbd, 0xfe, 0x87, 0x41, 0x3e, 0xaf, 0xcd, 0xd9, 0xbc,
  0xc5, 0xcc, 0x0b, 0x3e, 0x26, 0xb5, 0xfe, 0x3c, 0x4e, 0x47, 0xe2, 0x3d,
  0x2e, 0x6c, 0x4f, 0xbd, 0x9d, 0x6e, 0xf0, 0xbd, 0x78, 0x95, 0x96, 0x3d,
  0x8c, 0x41, 0xf9, 0x3c, 0xb3, 0xc7, 0x9b, 0x3c, 0x34, 0x5a, 0x05, 0x3e,
  0x4d, 0x39, 0x29, 0x3c, 0x17, 0x64, 0xb8, 0x3d, 0x4a, 0x2a, 0x02, 0x3e,
  0x8f, 0xd4, 0x35, 0x3d, 0x4d, 0xa6, 0x32, 0x3e, 0xd0, 0x3f, 0xd7, 0x3d,
  0xfb, 0x7d, 0x97, 0x3d, 0xce, 0xdf, 0x34, 0xbd, 0x33, 0x0d, 0x1a, 0xbe,
  0x2f, 0x96, 0x0e, 0xbd, 0x8f, 0x60, 0x58, 0x3d, 0x95, 0x7d, 0x1e, 0xbe,
  0x38, 0xc6, 0x3c, 0xbe, 0x47, 0x27, 0xd3, 0xbd, 0x95, 0x25, 0x73, 0xba,
  0x39, 0x76, 0x99, 0x3d, 0x9c, 0x99, 0x04, 0xbe, 0x49, 0x6b, 0x3c, 0x3d,
  0x02, 0x7e, 0x84, 0xbe, 0x1c, 0xf6, 0x69, 0xbd, 0x53, 0x98, 0x17, 0xbe,
  0x92, 0xdc, 0x03, 0x3e, 0x1a, 0x3c, 0x1a, 0xbe, 0xc2, 0xb8, 0xc6, 0xbb,
  0x9a, 0xc8, 0x85, 0xbe, 0x90, 0xb3, 0x3b, 0xbd, 0xd3, 0xe7, 0x4a, 0xbe,
  0x6a, 0x5f, 0xd4, 0xbc, 0xb9, 0x8c, 0x45, 0x3d, 0x93, 0x17, 0x3f, 0xbe,
  0x32, 0x9d, 0x02, 0x3e, 0x90, 0xac, 0xa6, 0xbd, 0x3a, 0x24, 0x80, 0x3e,
  0x01, 0x70, 0xc2, 0xbd, 0x31, 0xdf, 0xb9, 0x3d, 0x6f, 0xf9, 0x89, 0xbd,
  0xe0, 0xd8, 0x40, 0x3d, 0xde, 0x95, 0x4a, 0xba, 0xc1, 0x99, 0xa8, 0xbd,
  0xec, 0x16, 0x32, 0xbd, 0xde, 0x12, 0xd1, 0xbc, 0xac, 0x3b, 0x2a, 0xbd,
  0x27, 0x86, 0xd2, 0xbc, 0xe4, 0xc5, 0x80, 0x3d, 0xbf, 0xff, 0xfb, 0x3d,
  0x14, 0x0c, 0xf7, 0x3d, 0x0a, 0x40, 0x4e, 0x3d, 0xb3, 0x65, 0xa4, 0x3c,
  0x34, 0x27, 0x46, 0xbe, 0xa9, 0xc9, 0x08, 0x3d, 0xea, 0xcb, 0xb9, 0x3d,
  0x80, 0xcf, 0x5e, 0x3d, 0x3e, 0xe4, 0xdc, 0x3c, 0xcb, 0xcd, 0x1a, 0x3e,
  0x2e, 0xe8, 0xc4, 0x3c, 0x49, 0x5a, 0x21, 0x3e, 0x00, 0x28, 0xfd, 0xbc,
  0x8e, 0xcb, 0x97, 0x3e, 0xc7, 0xf1, 0xe4, 0x3d, 0x1c, 0x4c, 0x17, 0xbd,
  0x16, 0x34, 0x6b, 0xbe, 0x3f, 0x4a, 0xa2, 0x3d, 0x8b, 0xcc, 0x11, 0xbc,
  0xdd, 0x20, 0xcc, 0xbc, 0xec, 0xeb, 0x03, 0xbe, 0x74, 0x9e, 0x53, 0xbd,
  0x8c, 0xac, 0x20, 0x3b, 0x6c, 0x0b, 0x6f, 0xbe, 0xf4, 0xcd, 0xfc, 0x3c,
  0x60, 0xe6, 0xce, 0xbd, 0xfb, 0xdb, 0xb6, 0x3d, 0xcf, 0xe2, 0x6f, 0x3d,
  0xa9, 0x47, 0xda, 0xbb, 0xcc, 0xa3, 0xd2, 0x3d, 0x7b, 0x98, 0x2a, 0x3e,
  0x38, 0xda, 0x0b, 0xbd, 0xba, 0x25, 0x4c, 0xbd, 0xcc, 0x62, 0x01, 0x3e,
  0x34, 0x71, 0x46, 0x3d, 0xa8, 0x36, 0xb6, 0x3d, 0xd8, 0x8f, 0xca, 0x3d,
  0x7b, 0xac, 0x56, 0x3d, 0x92, 0x95, 0xaa, 0x3d, 0x0f, 0xf6, 0x11, 0xbe,
  0xf9, 0x70, 0x1c, 0xbd, 0x21, 0xfa, 0x56, 0xbc, 0x54, 0x15, 0x64, 0xbd,
  0xeb, 0xd3, 0xc9, 0xbd, 0x6e, 0x9d, 0x36, 0xbb, 0xd4, 0x07, 0xbd, 0x3c,
  0xe0, 0xa4, 0xae, 0x3d, 0x13, 0x0f, 0x2e, 0xbe, 0xe8, 0x92, 0xe1, 0x3b,
  0x36, 0x48, 0xd9, 0x3c, 0x27, 0x8c, 0xa5, 0x3b, 0xf1, 0x47, 0x9c, 0x3b,
  0xef, 0xef, 0x85, 0xbd, 0xb2, 0x64, 0x0c, 0x3c, 0x60, 0x20, 0xcd, 0xba,
  0x78, 0xde, 0x1c, 0x3e, 0x7c, 0x08, 0xf4, 0x3d, 0x18, 0x1b, 0x05, 0xbe,
  0x08, 0x50, 0x5f, 0xbe, 0x05, 0xfb, 0xad, 0xbd, 0x35, 0x46, 0xd0, 0x3d,
  0x2d, 0x3f, 0xa6, 0xbe, 0xa0, 0x77, 0x22, 0xbd, 0x2b, 0xb1, 0xad, 0x3d,
  0x81, 0x2a, 0xfb, 0x3d, 0xe6, 0x1e, 0x5e, 0x3e, 0xe2, 0x1f, 0x80, 0x3e,
  0xcf, 0x51, 0x25, 0x3e, 0x5f, 0x54, 0xa7, 0xbd, 0x01, 0xc5, 0x5c, 0x3c,
  0x73, 0xaf, 0x90, 0x3d, 0xdd, 0xb7, 0x41, 0xbd, 0xd9, 0xb9, 0xea, 0xbb,
  0xe9, 0x96, 0x6d, 0x3e, 0x50, 0x98, 0x7d, 0x3d, 0xf6, 0xac, 0xef, 0x3c,
  0x21, 0x85, 0xbe, 0xbd, 0xce, 0x24, 0x58, 0xbe, 0xa4, 0x13, 0x97, 0xbb,
  0x1e, 0x59, 0xc0, 0x3d, 0x07, 0x47, 0x88, 0xbe, 0x98, 0x55, 0x01, 0xbe,
  0x04, 0x2b, 0x7a, 0x3e, 0x28, 0x37, 0x28, 0x3d, 0xab, 0xf8, 0x0d, 0xbc,
  0x9a, 0xe7, 0x4b, 0xbc, 0x9c, 0xaa, 0x28, 0xbe, 0xc3, 0x3e, 0x10, 0x3e,
  0x83, 0x3d, 0x95, 0x3d, 0x94, 0xf5, 0x1a, 0xbe, 0x9f, 0x31, 0x08, 0xbd,
  0xe9, 0x0a, 0x2b, 0x3e, 0x23, 0xb1, 0xc2, 0xbb, 0xc4, 0x53, 0x9d, 0xbd,
  0xb5, 0x02, 0x45, 0x3e, 0x68, 0x70, 0x19, 0xbe, 0xcc, 0x7f, 0xbc, 0x3d,
  0x12, 0x2d, 0xb1, 0xbc, 0x2f, 0x48, 0xc8, 0x3d, 0xd2, 0x35, 0x80, 0x3d,
  0x40, 0x58, 0x2c, 0x3d, 0x70, 0xc8, 0x19, 0x3d, 0xe2, 0xb2, 0x06, 0xbe,
  0x6a, 0xd7, 0x47, 0x3d, 0x80, 0x08, 0x03, 0x3d, 0x7d, 0x85, 0x1f, 0x3e,
  0x47, 0x1f, 0x08, 0xbe, 0xc2, 0xe1, 0x37, 0xbe, 0x42, 0xa0, 0x90, 0x3c,
  0x38, 0x6f, 0x94, 0xbe, 0x51, 0x2d, 0xdb, 0x3c, 0x08, 0x18, 0x6a, 0x3e,
  0x5d, 0xea, 0xa8, 0xbe, 0x42, 0xbf, 0x8b, 0x3d, 0x66, 0xf8, 0xdd, 0xbd,
  0x44, 0x3c, 0x21, 0xbc, 0x93, 0x9e, 0x17, 0x3e, 0xe9, 0x13, 0x4f, 0x3e,
  0xdd, 0x35, 0xa9, 0xbc, 0xeb, 0x4b, 0x23, 0xbe, 0xf4, 0x9f, 0x25, 0x3d,
  0x01, 0x11, 0x9d, 0x3d, 0x56, 0x2c, 0x3f, 0x3d, 0xfc, 0x23, 0x80, 0x3d,
  0xf0, 0xf0, 0x96, 0xbd, 0xc2, 0x15, 0xbf, 0x3d, 0x49, 0x3f, 0x01, 0x3e,
  0xfe, 0x10, 0x7d, 0x3d, 0xd1, 0x82, 0x22, 0xbe, 0xdd, 0x1a, 0x8f, 0xbd,
  0xca, 0xfe, 0x96, 0xbd, 0x09, 0xaf, 0x7d, 0x3e, 0x2d, 0x23, 0xd3, 0xbd,
  0x60, 0xc2, 0xcb, 0x3d, 0xe0, 0x2d, 0x08, 0xbe, 0x83, 0xa9, 0x32, 0x3d,
  0xf6, 0xcf, 0x1c, 0x3c, 0xb1, 0x40, 0x14, 0xbc, 0x02, 0x74, 0x89, 0x3d,
  0x99, 0xfd, 0x74, 0x3e, 0xb1, 0xdb, 0x10, 0xbe, 0x00, 0xd7, 0x3e, 0x3d,
  0x58, 0xbc, 0xfe, 0x3c, 0xb9, 0x2a, 0xb7, 0xbd, 0xad, 0x38, 0x2c, 0x3d,
  0xcf, 0xdd, 0x20, 0xbe, 0x20, 0x50, 0x76, 0xbd, 0xf4, 0xc3, 0x8c, 0x3d,
  0xdc, 0x16, 0x68, 0x3e, 0xe4, 0x42, 0xf0, 0xbd, 0x0a, 0xe0, 0x43, 0x3e,
  0x3c, 0xbd, 0x15, 0x3d, 0x5a, 0x79, 0xd7, 0xbd, 0xa5, 0xf0, 0x74, 0xbd,
  0x3f, 0x9d, 0x85, 0x3d, 0xac, 0xf2, 0xa1, 0xbb, 0x37, 0x96, 0xf5, 0x3c,
  0x88, 0xb8, 0x35, 0xbd, 0x58, 0xbe, 0x48, 0x3c, 0xcc, 0x67, 0xd4, 0xbd,
  0xd4, 0x42, 0x0b, 0xbe, 0x8c, 0xea, 0x01, 0xbe, 0x73, 0x01, 0xd3, 0xbd,
  0x39, 0xf9, 0x2f, 0xbe, 0x29, 0x49, 0x21, 0x3e, 0x08, 0x30, 0xb1, 0xbd,
  0x96, 0x22, 0x8d, 0xbc, 0xa0, 0x5c, 0xb2, 0xbd, 0x34, 0x8a, 0x20, 0x3d,
  0x43, 0x80, 0x16, 0xbe, 0x2b, 0x9c, 0x11, 0x3e, 0x11, 0xae, 0x35, 0xbe,
  0xb7, 0xd6, 0x4c, 0x3d, 0x9e, 0x7c, 0xc4, 0x3b, 0x54, 0x1e, 0xad, 0x3b,
  0x30, 0x65, 0x3e, 0x3d, 0x4c, 0xd8, 0xb4, 0x3c, 0xd0, 0x2d, 0x8b, 0xbd,
  0xe3, 0x90, 0xc8, 0xbc, 0xd4, 0x60, 0x56, 0xbe, 0x5f, 0xa7, 0x1c, 0xbe,
  0x6e, 0xad, 0x1a, 0x3e, 0x3f, 0x53, 0xd2, 0xbc, 0x79, 0xe7, 0x64, 0xbd,
  0x67, 0xfb, 0x06, 0xbe, 0x79, 0x13, 0xee, 0xbc, 0x3a, 0xf3, 0x86, 0xbc,
  0xbe, 0x4f, 0x58, 0x3c, 0x82, 0x0c, 0x3c, 0xbd, 0xcd, 0x4b, 0x11, 0xbe,
  0xb4, 0x06, 0xfe, 0xbc, 0xc2, 0x07, 0xed, 0xbd, 0xdb, 0x93, 0x32, 0xbd,
  0xfe, 0x58, 0xac, 0x3c, 0xb4, 0x16, 0x6f, 0x3d, 0xa5, 0x12, 0xb2, 0x3d,
  0x1c, 0xb5, 0x86, 0x3e, 0xb4, 0xa9, 0x34, 0xbd, 0xf2, 0x93, 0x25, 0xbe,
  0x0a, 0x7b, 0x65, 0xbe, 0x99, 0xa8, 0x83, 0xbd, 0x24, 0x5f, 0xdf, 0xbc,
  0x3e, 0x51, 0xb7, 0xbb, 0x9b, 0xc7, 0x46, 0x3b, 0xef, 0xc5, 0xa6, 0xbd,
  0xc3, 0xdb, 0x3f, 0x3e, 0x0c, 0x95, 0xeb, 0xbd, 0x1f, 0x58, 0x42, 0x3e,
  0xe4, 0xfa, 0x11, 0xbe, 0xfe, 0xa8, 0x08, 0x3e, 0xe7, 0xd8, 0x25, 0x3e,
  0x1d, 0x76, 0xbb, 0x3d, 0x5c, 0xb1, 0x16, 0x3e, 0xa8, 0xfc, 0xdb, 0xbd,
  0x5b, 0x77, 0xb4, 0x3d, 0x71, 0x42, 0x4c, 0x3e, 0x9d, 0x9b, 0x3a, 0x3e,
  0x11, 0x69, 0x07, 0xbc, 0x6e, 0x5a, 0xc6, 0xbd, 0x36, 0x59, 0x35, 0x3e,
  0x37, 0x81, 0xe9, 0x3d, 0x59, 0xef, 0xae, 0xbd, 0x1d, 0x90, 0x45, 0xbd,
  0xf4, 0xa0, 0x64, 0xba, 0x71, 0x27, 0x87, 0xbd, 0xab, 0xb6, 0xf5, 0xbd,
  0x4b, 0x04, 0xeb, 0xbd, 0x39, 0x46, 0x39, 0x3d, 0x7a, 0xce, 0xbc, 0x3d,
  0x3f, 0x57, 0x36, 0x3e, 0x27, 0xb2, 0xbe, 0xbc, 0xa3, 0xb0, 0x09, 0xbe,
  0x37, 0x9a, 0x28, 0xbd, 0xd5, 0xd2, 0xc1, 0x3d, 0x42, 0xde, 0x3c, 0xbd,
  0xd7, 0xdd, 0x1d, 0x3e, 0x2f, 0xe0, 0xa6, 0xbd, 0xb4, 0x31, 0x92, 0xbd,
  0x7a, 0xbc, 0x03, 0x3e, 0x20, 0xf2, 0x1d, 0x3e, 0x7f, 0x82, 0xb5, 0x3a,
  0x9d, 0x77, 0xc0, 0xbd, 0x54, 0xd4, 0xc1, 0xbb, 0x1d, 0xed, 0x8a, 0xbe,
  0x28, 0x73, 0x1c, 0xbc, 0xff, 0xe1, 0x39, 0xbd, 0x28, 0x2a, 0x91, 0x3c,
  0x0d, 0x2e, 0x42, 0x3e, 0xbe, 0xc6, 0x09, 0xbe, 0x3c, 0x26, 0xdd, 0x3d,
  0xa3, 0x4a, 0xc7, 0x3c, 0x85, 0xb5, 0x55, 0x3e, 0xa3, 0x18, 0xd5, 0xbd,
  0xd8, 0xb8, 0x88, 0xbc, 0x2c, 0x8f, 0x05, 0xbe, 0xcc, 0xe3, 0xe2, 0xbc,
  0x36, 0x62, 0xa6, 0x3d, 0xf4, 0x37, 0x23, 0x3e, 0x88, 0x99, 0xd5, 0xbc,
  0x77, 0x84, 0xc1, 0xbd, 0x0d, 0x43, 0xd6, 0x3c, 0xc8, 0x64, 0x39, 0x3d,
  0x5f, 0x70, 0xab, 0xbc, 0x32, 0x29, 0xa7, 0x3d, 0xc4, 0x2e, 0x40, 0xbd,
  0xba, 0x28, 0xda, 0x3d, 0x58, 0xb1, 0x38, 0xbc, 0x97, 0x6a, 0x6a, 0xbe,
  0x28, 0xde, 0x62, 0xbe, 0x0c, 0xed, 0x20, 0xbe, 0x99, 0x02, 0x65, 0xbd,
  0xf9, 0xa4, 0xfa, 0x3d, 0xf9, 0x5a, 0x19, 0x3d, 0x4a, 0xa0, 0x8e, 0xbe,
  0x3f, 0x64, 0x20, 0xbe, 0xa4, 0x95, 0xc4, 0x3d, 0x64, 0xa6, 0x7e, 0xbc,
  0xe8, 0x2c, 0x10, 0xbe, 0x0a, 0xe2, 0x1b, 0x3e, 0x6a, 0x83, 0x7d, 0x3c,
  0xf8, 0x65, 0xa5, 0x3d, 0x15, 0x41, 0x0e, 0x3e, 0x4c, 0x25, 0x47, 0xbd,
  0x85, 0xad, 0x0a, 0xbe, 0x39, 0xed, 0x42, 0xbd, 0x05, 0x41, 0x86, 0x3d,
  0x82, 0x2b, 0x90, 0x3c, 0x78, 0x0b, 0x5e, 0xbe, 0xab, 0xb8, 0x97, 0x3d,
  0x45, 0x64, 0xe0, 0x3d, 0x1a, 0xa8, 0x7a, 0xbc, 0x88, 0xa2, 0x8a, 0x3c,
  0xde, 0xb2, 0x22, 0x3d, 0x18, 0x24, 0xc1, 0xbc, 0xfa, 0x0a, 0x27, 0xbd,
  0xea, 0x39, 0x19, 0x3d, 0xb1, 0x1d, 0xcb, 0xbd, 0x63, 0x6a, 0x37, 0x3b,
  0x4d, 0x90, 0x15, 0x3d, 0x1c, 0x61, 0x0a, 0xbe, 0x8a, 0xd4, 0xd3, 0x3d,
  0x7f, 0x5b, 0x8a, 0x3c, 0xbf, 0xc5, 0x8a, 0xbe, 0x57, 0x87, 0x86, 0x3c,
  0x10, 0x0d, 0x40, 0x3d, 0xb2, 0x9e, 0x71, 0x3e, 0x43, 0x1a, 0x73, 0x3d,
  0x14, 0x1b, 0xbe, 0x3d, 0xf6, 0x25, 0x04, 0x3d, 0x96, 0xfa, 0x70, 0x3d,
  0xfd, 0x48, 0xfc, 0x3c, 0xc3, 0x51, 0x33, 0x3d, 0x86, 0xe6, 0x5e, 0x3d,
  0x54, 0x9e, 0x81, 0xbe, 0x85, 0x4b, 0x2d, 0x3d, 0x3c, 0xd1, 0x07, 0x3e,
  0x18, 0x5e, 0xb3, 0x3c, 0xd1, 0xbc, 0x0b, 0xbd, 0xf9, 0xd0, 0x55, 0x3b,
  0x09, 0xef, 0xf8, 0x3d, 0x6f, 0x31, 0x82, 0x3d, 0xa1, 0x46, 0x21, 0x3d,
  0x91, 0x3c, 0x00, 0xbe, 0xc9, 0x1a, 0x2e, 0x3e, 0x48, 0x02, 0x57, 0x3d,
  0x13, 0x5b, 0x52, 0xbd, 0x82, 0xbc, 0xc3, 0xbd, 0x86, 0x09, 0xd4, 0xbd,
  0x13, 0x64, 0xbb, 0x3d, 0xcd, 0x1a, 0x91, 0xbc, 0xae, 0xaa, 0x81, 0x3d,
  0x90, 0xf0, 0xa0, 0xbc, 0xa0, 0xc8, 0x44, 0xbe, 0x0c, 0x76, 0xec, 0xbd,
  0x35, 0xa7, 0xb6, 0x3d, 0xdb, 0x19, 0x80, 0x3d, 0x9a, 0x18, 0xd2, 0x3d,
  0x69, 0x31, 0x82, 0x3e, 0xc0, 0x0e, 0x01, 0x3d, 0xab, 0x34, 0x9a, 0xbd,
  0xfe, 0x6e, 0x26, 0xbe, 0x0d, 0x3e, 0xb7, 0x3e, 0x69, 0x91, 0xe2, 0xbd,
  0xcf, 0x5e, 0x74, 0xbd, 0xa2, 0xef, 0xd2, 0xbc, 0x8d, 0x8e, 0x7f, 0x3c,
  0x35, 0xa9, 0xe2, 0x3d, 0x35, 0x69, 0xe7, 0x3d, 0xba, 0x5a, 0x9c, 0xbe,
  0x24, 0x10, 0x44, 0xbe, 0x15, 0x21, 0x09, 0xbe, 0x09, 0xff, 0x79, 0xbc,
  0x1a, 0xd4, 0x20, 0xbe, 0xcd, 0xc0, 0x0a, 0xbd, 0x91, 0x5f, 0xd4, 0x3d,
  0xba, 0x9d, 0x2c, 0x3e, 0x60, 0xe0, 0xb5, 0xbd, 0xeb, 0x40, 0x21, 0xbd,
  0x7c, 0xca, 0x5e, 0xbd, 0x20, 0xf5, 0x83, 0x3e, 0x9a, 0x96, 0x99, 0xbd,
  0x23, 0xae, 0x41, 0x3d, 0xa4, 0x70, 0x18, 0x3c, 0xbe, 0x19, 0xbd, 0xbd,
  0x2b, 0xa7, 0x8b, 0x3d, 0x3c, 0x4a, 0xc3, 0xbb, 0x27, 0xc5, 0x20, 0x3d,
  0xc1, 0x09, 0x02, 0x3d, 0x86, 0xa9, 0xd0, 0x3d, 0x76, 0x42, 0xb5, 0x3d,
  0xd1, 0x0c, 0x3c, 0xbd, 0x33, 0x84, 0x57, 0x3d, 0x7a, 0xfa, 0xeb, 0x3d,
  0x9c, 0x88, 0xc9, 0x3c, 0x7d, 0xa0, 0x60, 0x3d, 0xdd, 0xeb, 0x85, 0x3d,
  0x3c, 0xb1, 0x4d, 0x3d, 0x11, 0xa4, 0x92, 0x3b, 0xc9, 0x75, 0xcd, 0xbc,
  0xa7, 0x16, 0x09, 0x3e, 0xe5, 0x3b, 0x03, 0x3d, 0x67, 0xff, 0x4b, 0x3d,
  0x7b, 0x1d, 0x92, 0x3e, 0x4e, 0x33, 0x2f, 0xbd, 0xc3, 0xb0, 0x51, 0xbe,
  0xbb, 0xf6, 0x75, 0x3d, 0x2a, 0xd1, 0xc6, 0xbd, 0x1a, 0xb1, 0xf7, 0x3c,
  0xb0, 0xac, 0xf3, 0x3d, 0xbc, 0x41, 0xab, 0xbb, 0x64, 0x2b, 0x9e, 0x3d,
  0x53, 0x9c, 0x09, 0xbe, 0xb0, 0xf6, 0x74, 0x3e, 0xd6, 0x72, 0xe3, 0xbc,
  0x01, 0x62, 0x83, 0x3d, 0x92, 0xd1, 0x2a, 0xbd, 0xac, 0x3f, 0x60, 0x3e,
  0xa8, 0x19, 0xdd, 0x3d, 0x65, 0xba, 0x33, 0xbd, 0x85, 0x9f, 0x6e, 0x3e,
  0xf9, 0x15, 0x41, 0xbe, 0xba, 0xec, 0x89, 0xbd, 0x5a, 0xf6, 0xe6, 0xbd,
  0x0f, 0xe1, 0x31, 0x3e, 0x5e, 0xaa, 0x18, 0x3e, 0x46, 0x7a, 0xc0, 0xbb,
  0xe1, 0xee, 0xc5, 0xbd, 0x12, 0x85, 0x8c, 0x3c, 0x36, 0x85, 0xda, 0xbc,
  0x75, 0x97, 0x82, 0x3d, 0xec, 0x08, 0xbc, 0xbd, 0xf7, 0xbd, 0x84, 0x3e,
  0xc5, 0xe9, 0x4c, 0xbe, 0x52, 0x65, 0x0f, 0xbe, 0x48, 0x84, 0xd9, 0xbc,
  0xc7, 0xa1, 0xf8, 0x3d, 0x47, 0xcf, 0x87, 0xbd, 0xc8, 0xcd, 0x78, 0xbd,
  0x30, 0xce, 0x40, 0x3d, 0xa4, 0xcf, 0xd3, 0x3c, 0x3d, 0x4f, 0xaf, 0x3d,
  0x76, 0x47, 0x51, 0xbe, 0x51, 0x92, 0xa8, 0x3d, 0x3b, 0x1d, 0xf9, 0x3d,
  0x7b, 0x45, 0x4d, 0xbd, 0xed, 0x9e, 0x29, 0x3e, 0x58, 0xf6, 0x25, 0x3e,
  0xed, 0x03, 0x95, 0x3d, 0xee, 0xca, 0x35, 0x3e, 0xa4, 0x9b, 0x0d, 0x3e,
  0x7d, 0x0d, 0x47, 0xbd, 0x5f, 0x74, 0x79, 0xbd, 0x42, 0xe4, 0x3b, 0xbd,
  0x01, 0x30, 0x28, 0x3e, 0xce, 0x29, 0x27, 0x3d, 0x95, 0xd1, 0x87, 0x3e,
  0x54, 0x78, 0xa2, 0xbc, 0x57, 0x64, 0x38, 0xbe, 0xb8, 0xcc, 0xc0, 0x3d,
  0x76, 0x2e, 0x24, 0x3e, 0x31, 0x03, 0x83, 0x3d, 0x94, 0x1d, 0x26, 0x3e,
  0x4c, 0x4e, 0x83, 0xbc, 0x10, 0x0e, 0x84, 0xbd, 0x1f, 0x9f, 0xe0, 0xbd,
  0x46, 0x5e, 0x90, 0x3d, 0x91, 0x10, 0x13, 0xbb, 0x82, 0xbe, 0x02, 0x3e,
  0x1d, 0x6d, 0x62, 0x3e, 0xa7, 0xaa, 0xe6, 0x3d, 0xb0, 0xee, 0x4a, 0x3e,
  0xc1, 0xcd, 0x31, 0xbd, 0xb8, 0xce, 0x5e, 0x3c, 0xe7, 0x10, 0x8a, 0x3e,
  0x85, 0x42, 0x2b, 0xbc, 0x64, 0x5e, 0x59, 0x3b, 0x67, 0x47, 0x3c, 0xbe,
  0xe4, 0x37, 0xbb, 0xbb, 0x27, 0xdc, 0x0c, 0xbe, 0x54, 0x68, 0x92, 0x3e,
  0x2c, 0x98, 0x06, 0x3d, 0x6c, 0x17, 0x7c, 0x3e, 0xb7, 0xda, 0x83, 0x3d,
  0x45, 0xd7, 0x06, 0xbd, 0x98, 0xd5, 0x4b, 0x3d, 0xe2, 0xe3, 0x54, 0x3d,
  0xbb, 0xa6, 0x28, 0xbd, 0x58, 0x8a, 0x6d, 0xbb, 0x27, 0x69, 0x9b, 0xbd,
  0xec, 0xac, 0x1f, 0xbe, 0x7c, 0xbb, 0x3c, 0x3e, 0xc4, 0x53, 0xc3, 0x3d,
  0x08, 0xa3, 0xd1, 0xbd, 0x1b, 0x5c, 0xc6, 0x3d, 0x1b, 0xa1, 0x20, 0xbe,
  0xdb, 0x00, 0x18, 0x3e, 0xe5, 0x00, 0xdc, 0x3d, 0xe5, 0x40, 0xf0, 0xbc,
  0x07, 0x9a, 0x3e, 0xbd, 0x05, 0xf7, 0xae, 0xbd, 0x66, 0x6b, 0xfa, 0x3c,
  0x7a, 0x96, 0x57, 0xbe, 0xf9, 0x29, 0xf1, 0x3c, 0x21, 0xbd, 0x2b, 0x3e,
  0xe1, 0xd8, 0x85, 0x3d, 0x28, 0x4c, 0x00, 0xbc, 0x91, 0xc1, 0x88, 0xbd,
  0xe8, 0xda, 0x0e, 0x3d, 0x89, 0x52, 0xf5, 0xbd, 0x9c, 0x9b, 0x89, 0x3e,
  0x81, 0x6d, 0x1e, 0xbd, 0x00, 0x25, 0x0e, 0x3e, 0x7e, 0xa8, 0x4f, 0x3d,
  0x99, 0xaa, 0x81, 0xbd, 0x49, 0x27, 0x8f, 0x3c, 0x0a, 0x3e, 0x5c, 0x3d,
  0x5f, 0x77, 0xff, 0x3d, 0x7b, 0xdb, 0x3d, 0x3a, 0x77, 0x4f, 0x70, 0x3e,
  0xba, 0x99, 0x96, 0xbd, 0x5b, 0xb2, 0x14, 0x3e, 0x70, 0x62, 0xf2, 0xbd,
  0x43, 0xf4, 0x08, 0x3e, 0x4e, 0xb4, 0xcb, 0xbd, 0x7b, 0x1c, 0x25, 0xbd,
  0x8a, 0x4e, 0x63, 0x3d, 0x53, 0xa9, 0x76, 0xbd, 0x9a, 0xaa, 0xe8, 0xbd,
  0xf2, 0xc1, 0x15, 0x3d, 0x2a, 0xeb, 0xcf, 0xbb, 0x8f, 0xae, 0x45, 0xbb,
  0x5f, 0xdd, 0xc7, 0x3d, 0x7a, 0x30, 0x24, 0xbc, 0x0f, 0x8c, 0x1b, 0x3e,
  0x4e, 0x3f, 0x1e, 0x3e, 0x21, 0xcf, 0x23, 0xbe, 0x09, 0x17, 0x31, 0xbe,
  0x29, 0x02, 0x9c, 0x3d, 0xba, 0xfc, 0x75, 0xbe, 0xb7, 0x5c, 0xb2, 0xbd,
  0xb0, 0xb7, 0x19, 0xbd, 0xc5, 0x2a, 0x6d, 0xbc, 0xf6, 0xcb, 0x25, 0x3d,
  0x79, 0x4c, 0x57, 0xbe, 0xee, 0x32, 0xfa, 0xbd, 0x95, 0x33, 0x7c, 0x3d,
  0x40, 0x7e, 0x32, 0xbe, 0x81, 0xed, 0x71, 0xbd, 0x9d, 0x4c, 0xed, 0xbd,
  0x52, 0x77, 0x64, 0x3d, 0x2f, 0xf7, 0x97, 0xbe, 0xc1, 0x22, 0x1f, 0x3d,
  0x85, 0x34, 0xf0, 0x3c, 0x66, 0xe8, 0xd8, 0x3c, 0x95, 0xf3, 0x13, 0xbe,
  0x52, 0x83, 0xef, 0x3b, 0x11, 0xaf, 0x10, 0x3d, 0x82, 0xbc, 0x67, 0xbd,
  0x9c, 0x43, 0x27, 0x3d, 0x47, 0x76, 0xc0, 0xb9, 0x0d, 0x14, 0xd8, 0x3d,
  0x03, 0xf7, 0x91, 0x3c, 0x05, 0xa0, 0x60, 0xbe, 0xd1, 0x51, 0x16, 0xbd,
  0xca, 0xe1, 0xf8, 0xbd, 0xf8, 0xe4, 0x62, 0xbd, 0x33, 0xdb, 0x93, 0x3c,
  0xb6, 0xa3, 0x40, 0xbe, 0x0c, 0x8c, 0x70, 0x3e, 0xc5, 0xb8, 0x13, 0xbe,
  0x7d, 0x51, 0xd2, 0xbd, 0x46, 0xcc, 0xfc, 0xbc, 0x29, 0x6b, 0xb2, 0xbc,
  0x6d, 0x5a, 0xfd, 0xbc, 0x7b, 0x07, 0xa7, 0xbd, 0x3f, 0x3b, 0x4e, 0x3d,
  0x65, 0x23, 0x2a, 0x3d, 0x7e, 0x30, 0xcb, 0xbd, 0x10, 0x59, 0x4d, 0xbe,
  0x92, 0x68, 0x31, 0x3d, 0x33, 0x6f, 0x12, 0xbc, 0x5a, 0x03, 0x38, 0x3c,
  0xcb, 0x0f, 0x41, 0x3c, 0xa3, 0x4f, 0xce, 0x3d, 0x77, 0xf4, 0x0c, 0xbe,
  0xdf, 0xb9, 0x0e, 0x3e, 0xa4, 0x76, 0xfc, 0xbc, 0xb5, 0xbf, 0x91, 0xbe,
  0x9e, 0x10, 0x0f, 0x3e, 0x06, 0x95, 0x93, 0xbc, 0x0d, 0x10, 0x5a, 0x3e,
  0x74, 0x01, 0x4e, 0xbe, 0xdf, 0xa8, 0x08, 0xbe, 0xf2, 0x2a, 0x16, 0xbe,
  0xa0, 0xc1, 0x2b, 0x3e, 0xbb, 0xf0, 0xcf, 0x3d, 0xa4, 0xc9, 0xb2, 0x3b,
  0x0e, 0xd0, 0x54, 0x3d, 0x10, 0xf5, 0x69, 0xbd, 0xd5, 0x35, 0x4e, 0xbe,
  0xb1, 0xa0, 0x86, 0x3d, 0x0f, 0x1d, 0x83, 0x3e, 0x09, 0xc7, 0xb1, 0xbd,
  0xd2, 0xff, 0xa7, 0xbd, 0x8b, 0x1c, 0x0c, 0x3d, 0x28, 0x5c, 0xc0, 0x3d,
  0xad, 0xea, 0xe4, 0xbd, 0xfa, 0x21, 0xe9, 0x3b, 0xdb, 0xcb, 0x86, 0xbd,
  0x86, 0x48, 0x07, 0x3e, 0x92, 0x39, 0xec, 0x3d, 0x70, 0x0f, 0x84, 0x3e,
  0x48, 0xf0, 0xc7, 0x3d, 0xe4, 0x78, 0x8f, 0x3d, 0xf7, 0xe0, 0x59, 0xbe,
  0xa9, 0xe6, 0xa2, 0xbd, 0x3f, 0xc9, 0x4d, 0x3d, 0x7c, 0xa1, 0x6b, 0xbd,
  0x16, 0x5b, 0x5f, 0x3d, 0x00, 0x05, 0xcd, 0xbc, 0xd9, 0x4d, 0xa2, 0xbd,
  0x9c, 0x49, 0x00, 0xbd, 0x34, 0xe3, 0x84, 0x3d, 0xb7, 0x15, 0xcf, 0xbd,
  0x64, 0xc7, 0x3e, 0x3d, 0x4d, 0x21, 0x76, 0x3e, 0x49, 0x14, 0x02, 0xbd,
  0x5c, 0x64, 0x15, 0xbc, 0xa3, 0xd1, 0x74, 0x3d, 0x3b, 0xf8, 0xe7, 0xbd,
  0xe2, 0xb9, 0xaf, 0xbd, 0xb3, 0x07, 0x95, 0x3e, 0xf2, 0xed, 0x16, 0xbd,
  0x8f, 0xe7, 0xe1, 0xbc, 0x42, 0x02, 0xe4, 0xbc, 0x13, 0xf5, 0xb4, 0xbd,
  0x4e, 0xb7, 0xc1, 0x3d, 0x8e, 0x60, 0x3e, 0x3d, 0x3f, 0xa3, 0xdb, 0xbc,
  0xfd, 0x2a, 0x85, 0x3e, 0x7d, 0xb4, 0xa4, 0xbd, 0xed, 0x77, 0xcf, 0x3c,
  0x9e, 0x49, 0xd8, 0x3c, 0x7b, 0x88, 0x8e, 0x3d, 0x1d, 0x43, 0x4f, 0xba,
  0x18, 0x5c, 0xe9, 0x3d, 0x9b, 0x22, 0xe0, 0x3d, 0x39, 0x38, 0xb9, 0x3d,
  0x03, 0x6b, 0x97, 0xbd, 0x66, 0xaf, 0x19, 0xbd, 0xcb, 0x12, 0x21, 0xbe,
  0xef, 0xb1, 0x97, 0x3d, 0x38, 0x46, 0x4c, 0x3d, 0xb3, 0xc8, 0x03, 0xbe,
  0x0f, 0x10, 0x32, 0xbd, 0xbe, 0x6f, 0xce, 0xbd, 0x4d, 0x1f, 0x97, 0x3d,
  0x64, 0x75, 0x2e, 0xbe, 0x83, 0x9f, 0x38, 0xbd, 0xd9, 0xbc, 0xc3, 0x3d,
  0x95, 0xae, 0xa7, 0x3d, 0xa0, 0xd1, 0xbd, 0xbc, 0x90, 0x6b, 0x3c, 0xbd,
  0x76, 0x7d, 0x53, 0xbd, 0x1a, 0x73, 0xe2, 0xbd, 0x6a, 0x13, 0x19, 0xbb,
  0x0d, 0x8b, 0xe5, 0x3d, 0xcc, 0x4d, 0xd4, 0x3d, 0x7f, 0x4a, 0x50, 0x3d,
  0xd0, 0x07, 0x81, 0x3d, 0x20, 0xe5, 0x81, 0x3d, 0xa0, 0x9a, 0x18, 0xbc,
  0x60, 0xa1, 0x68, 0x3e, 0xa1, 0x32, 0xff, 0xbd, 0x44, 0xa7, 0x1f, 0xbd,
  0xd3, 0xdb, 0xbf, 0x3c, 0x14, 0x4d, 0x60, 0xbe, 0xa8, 0x8b, 0xd0, 0xbb,
  0xee, 0xb5, 0xfc, 0x3d, 0xb1, 0x16, 0x15, 0x3e, 0x95, 0x76, 0xdc, 0x3d,
  0x59, 0x04, 0x17, 0xbe, 0x68, 0xaa, 0x6b, 0xbd, 0x49, 0x7d, 0xbb, 0x3c,
  0xa9, 0xff, 0x8d, 0x3e, 0x3c, 0xbd, 0x70, 0xbe, 0x5b, 0x0b, 0x5e, 0xbc,
  0x37, 0x9d, 0x4a, 0x3e, 0xca, 0x00, 0xcf, 0xbc, 0x51, 0x48, 0x03, 0xbd,
  0x30, 0xad, 0x09, 0x3d, 0x45, 0xf0, 0xa2, 0xbc, 0x61, 0x60, 0x02, 0xbe,
  0x6a, 0x7c, 0xc4, 0xbd, 0xce, 0x37, 0x1f, 0x3c, 0x0a, 0x15, 0x29, 0x3d,
  0xb3, 0xee, 0x10, 0x3e, 0x49, 0xfa, 0x26, 0xbd, 0xd2, 0x28, 0x4e, 0x3e,
  0xd4, 0x80, 0x92, 0xbd, 0x63, 0xac, 0x9d, 0xbc, 0x6c, 0x78, 0x20, 0x3d,
  0x41, 0x96, 0x38, 0xbd, 0x3d, 0x5d, 0xfc, 0xbd, 0x5b, 0x60, 0x04, 0x3c,
  0x7d, 0x66, 0xd9, 0xbd, 0x9d, 0x4b, 0xe3, 0x3d, 0x05, 0x96, 0xca, 0xbc,
  0x77, 0xbf, 0x3e, 0x3e, 0x8f, 0xe1, 0x0d, 0x3e, 0x60, 0xca, 0x0c, 0x3e,
  0xa2, 0xed, 0xa1, 0x3d, 0xe0, 0x22, 0xdd, 0xbd, 0x29, 0x1f, 0x5b, 0xbd,
  0x7d, 0x66, 0xdc, 0xbd, 0xa3, 0x68, 0x0e, 0xbe, 0x45, 0xd2, 0x40, 0x3d,
  0x22, 0x4a, 0x8a, 0xbd, 0xce, 0x4b, 0x39, 0xbe, 0x4e, 0x96, 0xdc, 0x3c,
  0x22, 0x23, 0x49, 0xbe, 0x08, 0x74, 0x3a, 0xbe, 0xf7, 0x3e, 0x8b, 0x3e,
  0x25, 0x9e, 0x03, 0x3c, 0x98, 0x7c, 0xb4, 0x3b, 0x51, 0x48, 0x0d, 0x3e,
  0x9f, 0x30, 0xa9, 0xbd, 0x61, 0x1e, 0x74, 0xbe, 0xf6, 0xe9, 0x44, 0xbd,
  0xf5, 0x6b, 0x45, 0xbe, 0x96, 0x43, 0x30, 0xbd, 0xd2, 0xd1, 0x5d, 0xbe,
  0xdd, 0xe2, 0xf4, 0x3d, 0x56, 0xfb, 0xe9, 0x3c, 0x19, 0x55, 0x0c, 0x3c,
  0x0f, 0x18, 0x0c, 0xbe, 0x11, 0xbd, 0xbb, 0x3c, 0x09, 0xc3, 0xed, 0xbd,
  0x4f, 0xd7, 0x80, 0x3d, 0xaa, 0xf3, 0x06, 0x3e, 0xfb, 0x9c, 0x39, 0xbe,
  0xa5, 0xde, 0x60, 0x3d, 0xe0, 0x7e, 0x87, 0xbd, 0x46, 0x46, 0x02, 0x3e,
  0x2c, 0xb3, 0x41, 0x3e, 0xd5, 0x49, 0x34, 0x3e, 0xa7, 0xb4, 0x5d, 0xba,
  0xb6, 0xf9, 0x7b, 0xbe, 0x94, 0x17, 0xf6, 0xbc, 0x6e, 0x97, 0x80, 0xbe,
  0xb2, 0x97, 0x4e, 0xbb, 0x94, 0xb9, 0x6c, 0x3e, 0xe1, 0x2e, 0x95, 0xbc,
  0x31, 0xdb, 0xd8, 0x3c, 0x47, 0xcd, 0x74, 0x3c, 0xe0, 0x1d, 0xd1, 0xbc,
