#include "large_test.h"

#define MODEL_LENGTH 8272

const unsigned int model_tflite_len = MODEL_LENGTH;


unsigned char model64x64_1[MODEL_LENGTH];

const unsigned char saved[] = {
  0x1c, 0x00, 0x00, 0x00, 0x54, 0x46, 0x4c, 0x33, 0x14, 0x00, 0x20, 0x00,
  0x04, 0x00, 0x08, 0x00, 0x0c, 0x00, 0x10, 0x00, 0x14, 0x00, 0x00, 0x00,
  0x18, 0x00, 0x1c, 0x00, 0x14, 0x00, 0x00, 0x00, 0x03, 0x00, 0x00, 0x00,
  0x18, 0x00, 0x00, 0x00, 0x20, 0x00, 0x00, 0x00, 0x28, 0x01, 0x00, 0x00,
  0x20, 0x00, 0x00, 0x00, 0xd0, 0x00, 0x00, 0x00, 0x4c, 0x00, 0x00, 0x00,
  0x02, 0x00, 0x00, 0x00, 0xcc, 0x03, 0x00, 0x00, 0xd0, 0x01, 0x00, 0x00,
  0x01, 0x00, 0x00, 0x00, 0x2c, 0x01, 0x00, 0x00, 0x0c, 0x00, 0x00, 0x00,
  0xf8, 0x1f, 0x00, 0x00, 0xf4, 0x1f, 0x00, 0x00, 0xb4, 0x1e, 0x00, 0x00,
  0xe8, 0x1d, 0x00, 0x00, 0x98, 0x0d, 0x00, 0x00, 0x48, 0x0b, 0x00, 0x00,
  0x3c, 0x04, 0x00, 0x00, 0xdc, 0x1f, 0x00, 0x00, 0xd8, 0x1f, 0x00, 0x00,
  0xd4, 0x1f, 0x00, 0x00, 0xd0, 0x1f, 0x00, 0x00, 0xb8, 0x00, 0x00, 0x00,
  0x01, 0x00, 0x00, 0x00, 0x10, 0x00, 0x00, 0x00, 0x00, 0x00, 0x0a, 0x00,
  0x10, 0x00, 0x0c, 0x00, 0x08, 0x00, 0x04, 0x00, 0x0a, 0x00, 0x00, 0x00,
  0x0c, 0x00, 0x00, 0x00, 0x1c, 0x00, 0x00, 0x00, 0x20, 0x00, 0x00, 0x00,
  0x0f, 0x00, 0x00, 0x00, 0x73, 0x65, 0x72, 0x76, 0x69, 0x6e, 0x67, 0x5f,
  0x64, 0x65, 0x66, 0x61, 0x75, 0x6c, 0x74, 0x00, 0x01, 0x00, 0x00, 0x00,
  0x14, 0x00, 0x00, 0x00, 0x01, 0x00, 0x00, 0x00, 0x28, 0x00, 0x00, 0x00,
  0x08, 0x00, 0x0c, 0x00, 0x08, 0x00, 0x04, 0x00, 0x08, 0x00, 0x00, 0x00,
  0x09, 0x00, 0x00, 0x00, 0x04, 0x00, 0x00, 0x00, 0x0a, 0x00, 0x00, 0x00,
  0x61, 0x63, 0x74, 0x69, 0x76, 0x61, 0x74, 0x69, 0x6f, 0x6e, 0x00, 0x00,
  0xe6, 0xe1, 0xff, 0xff, 0x04, 0x00, 0x00, 0x00, 0x07, 0x00, 0x00, 0x00,
  0x69, 0x6e, 0x70, 0x75, 0x74, 0x5f, 0x31, 0x00, 0x01, 0x00, 0x00, 0x00,
  0x0c, 0x00, 0x00, 0x00, 0x08, 0x00, 0x0c, 0x00, 0x04, 0x00, 0x08, 0x00,
  0x08, 0x00, 0x00, 0x00, 0x08, 0x00, 0x00, 0x00, 0x0b, 0x00, 0x00, 0x00,
  0x13, 0x00, 0x00, 0x00, 0x6d, 0x69, 0x6e, 0x5f, 0x72, 0x75, 0x6e, 0x74,
  0x69, 0x6d, 0x65, 0x5f, 0x76, 0x65, 0x72, 0x73, 0x69, 0x6f, 0x6e, 0x00,
  0x2e, 0xe2, 0xff, 0xff, 0x04, 0x00, 0x00, 0x00, 0x10, 0x00, 0x00, 0x00,
  0x31, 0x2e, 0x31, 0x34, 0x2e, 0x30, 0x00, 0x00, 0x00, 0x00, 0x00, 0x00,
  0x00, 0x00, 0x00, 0x00, 0x0f, 0x00, 0x00, 0x00, 0x4d, 0x4c, 0x49, 0x52,
  0x20, 0x43, 0x6f, 0x6e, 0x76, 0x65, 0x72, 0x74, 0x65, 0x64, 0x2e, 0x00,
  0x00, 0x00, 0x0e, 0x00, 0x18, 0x00, 0x04, 0x00, 0x08, 0x00, 0x0c, 0x00,
  0x10, 0x00, 0x14, 0x00, 0x0e, 0x00, 0x00, 0x00, 0x14, 0x00, 0x00, 0x00,
  0x3c, 0x00, 0x00, 0x00, 0x40, 0x00, 0x00, 0x00, 0x44, 0x00, 0x00, 0x00,
  0x54, 0x00, 0x00, 0x00, 0x0a, 0x00, 0x00, 0x00, 0x60, 0x1e, 0x00, 0x00,
  0x14, 0x1e, 0x00, 0x00, 0x38, 0x1d, 0x00, 0x00, 0x68, 0x1c, 0x00, 0x00,
  0x18, 0x0c, 0x00, 0x00, 0x8c, 0x09, 0x00, 0x00, 0x70, 0x02, 0x00, 0x00,
  0x8c, 0x01, 0x00, 0x00, 0xf4, 0x00, 0x00, 0x00, 0x6c, 0x00, 0x00, 0x00,
  0x01, 0x00, 0x00, 0x00, 0x00, 0x00, 0x00, 0x00, 0x01, 0x00, 0x00, 0x00,
  0x09, 0x00, 0x00, 0x00, 0x04, 0x00, 0x00, 0x00, 0xf4, 0x01, 0x00, 0x00,
  0x34, 0x01, 0x00, 0x00, 0xa0, 0x00, 0x00, 0x00, 0x18, 0x00, 0x00, 0x00,
  0x04, 0x00, 0x00, 0x00, 0x6d, 0x61, 0x69, 0x6e, 0x00, 0x00, 0x0a, 0x00,
  0x10, 0x00, 0x04, 0x00, 0x08, 0x00, 0x0c, 0x00, 0x0a, 0x00, 0x00, 0x00,
  0x01, 0x00, 0x00, 0x00, 0x10, 0x00, 0x00, 0x00, 0x04, 0x00, 0x00, 0x00,
  0x01, 0x00, 0x00, 0x00, 0x09, 0x00, 0x00, 0x00, 0x01, 0x00, 0x00, 0x00,
  0x08, 0x00, 0x00, 0x00, 0x14, 0xfe, 0xff, 0xff, 0x1c, 0x00, 0x00, 0x00,
  0x00, 0x00, 0x00, 0x1c, 0x01, 0x00, 0x00, 0x00, 0x44, 0xe2, 0xff, 0xff,
  0x14, 0x00, 0x00, 0x00, 0x0a, 0x00, 0x00, 0x00, 0x18, 0x00, 0x00, 0x00,
  0x40, 0x00, 0x00, 0x00, 0x30, 0x00, 0x00, 0x00, 0x02, 0x00, 0x00, 0x00,
  0x01, 0x00, 0x00, 0x00, 0x04, 0x00, 0x00, 0x00, 0x19, 0x00, 0x00, 0x00,
  0x53, 0x74, 0x61, 0x74, 0x65, 0x66, 0x75, 0x6c, 0x50, 0x61, 0x72, 0x74,
  0x69, 0x74, 0x69, 0x6f, 0x6e, 0x65, 0x64, 0x43, 0x61, 0x6c, 0x6c, 0x3a,
  0x30, 0x00, 0x00, 0x00, 0x02, 0x00, 0x00, 0x00, 0xff, 0xff, 0xff, 0xff,
  0x04, 0x00, 0x00, 0x00, 0x2c, 0xe2, 0xff, 0xff, 0x7e, 0xff, 0xff, 0xff,
  0x00, 0x00, 0x00, 0x08, 0x18, 0x00, 0x00, 0x00, 0x0c, 0x00, 0x00, 0x00,
  0x04, 0x00, 0x00, 0x00, 0x44, 0xe2, 0xff, 0xff, 0x01, 0x00, 0x00, 0x00,
  0x08, 0x00, 0x00, 0x00, 0x03, 0x00, 0x00, 0x00, 0x07, 0x00, 0x00, 0x00,
  0x04, 0x00, 0x00, 0x00, 0xff, 0xff, 0xff, 0xff, 0xc8, 0xe2, 0xff, 0xff,
  0x14, 0x00, 0x00, 0x00, 0x09, 0x00, 0x00, 0x00, 0x18, 0x00, 0x00, 0x00,
  0x3c, 0x00, 0x00, 0x00, 0x2c, 0x00, 0x00, 0x00, 0x02, 0x00, 0x00, 0x00,
  0x01, 0x00, 0x00, 0x00, 0x04, 0x00, 0x00, 0x00, 0x15, 0x00, 0x00, 0x00,
  0x6d, 0x6f, 0x64, 0x65, 0x6c, 0x2f, 0x64, 0x65, 0x6e, 0x73, 0x65, 0x5f,
  0x32, 0x2f, 0x4d, 0x61, 0x74, 0x4d, 0x75, 0x6c, 0x32, 0x00, 0x00, 0x00,
  0x02, 0x00, 0x00, 0x00, 0xff, 0xff, 0xff, 0xff, 0x04, 0x00, 0x00, 0x00,
  0xf4, 0xe3, 0xff, 0xff, 0x00, 0x00, 0x0e, 0x00, 0x14, 0x00, 0x00, 0x00,
  0x08, 0x00, 0x0c, 0x00, 0x07, 0x00, 0x10, 0x00, 0x0e, 0x00, 0x00, 0x00,
  0x00, 0x00, 0x00, 0x08, 0x1c, 0x00, 0x00, 0x00, 0x10, 0x00, 0x00, 0x00,
  0x04, 0x00, 0x00, 0x00, 0x42, 0xff, 0xff, 0xff, 0x00, 0x00, 0x00, 0x01,
  0x01, 0x00, 0x00, 0x00, 0x07, 0x00, 0x00, 0x00, 0x03, 0x00, 0x00, 0x00,
  0x06, 0x00, 0x00, 0x00, 0x03, 0x00, 0x00, 0x00, 0x01, 0x00, 0x00, 0x00,
  0x5c, 0xe3, 0xff, 0xff, 0x14, 0x00, 0x00, 0x00, 0x08, 0x00, 0x00, 0x00,
  0x18, 0x00, 0x00, 0x00, 0x64, 0x00, 0x00, 0x00, 0x54, 0x00, 0x00, 0x00,
  0x02, 0x00, 0x00, 0x00, 0x01, 0x00, 0x00, 0x00, 0x20, 0x00, 0x00, 0x00,
  0x3d, 0x00, 0x00, 0x00, 0x6d, 0x6f, 0x64, 0x65, 0x6c, 0x2f, 0x64, 0x65,
  0x6e, 0x73, 0x65, 0x5f, 0x31, 0x2f, 0x4d, 0x61, 0x74, 0x4d, 0x75, 0x6c,
  0x3b, 0x6d, 0x6f, 0x64, 0x65, 0x6c, 0x2f, 0x64, 0x65, 0x6e, 0x73, 0x65,
  0x5f, 0x31, 0x2f, 0x52, 0x65, 0x6c, 0x75, 0x3b, 0x6d, 0x6f, 0x64, 0x65,
  0x6c, 0x2f, 0x64, 0x65, 0x6e, 0x73, 0x65, 0x5f, 0x31, 0x2f, 0x42, 0x69,
  0x61, 0x73, 0x41, 0x64, 0x64, 0x00, 0x00, 0x00, 0x02, 0x00, 0x00, 0x00,
  0xff, 0xff, 0xff, 0xff, 0x20, 0x00, 0x00, 0x00, 0xb0, 0xe4, 0xff, 0xff,
  0x00, 0x00, 0x0e, 0x00, 0x16, 0x00, 0x00, 0x00, 0x08, 0x00, 0x0c, 0x00,
  0x07, 0x00, 0x10, 0x00, 0x0e, 0x00, 0x00, 0x00, 0x00, 0x00, 0x00, 0x08,
  0x24, 0x00, 0x00, 0x00, 0x18, 0x00, 0x00, 0x00, 0x0c, 0x00, 0x00, 0x00,
  0x00, 0x00, 0x06, 0x00, 0x08, 0x00, 0x07, 0x00, 0x06, 0x00, 0x00, 0x00,
  0x00, 0x00, 0x00, 0x01, 0x01, 0x00, 0x00, 0x00, 0x06, 0x00, 0x00, 0x00,
  0x03, 0x00, 0x00, 0x00, 0x00, 0x00, 0x00, 0x00, 0x05, 0x00, 0x00, 0x00,
  0x02, 0x00, 0x00, 0x00, 0x0c, 0x00, 0x10, 0x00, 0x0b, 0x00, 0x00, 0x00,
  0x0c, 0x00, 0x04, 0x00, 0x0c, 0x00, 0x00, 0x00, 0x09, 0x00, 0x00, 0x00,
  0x00, 0x00, 0x00, 0x09, 0x01, 0x00, 0x00, 0x00, 0x3c, 0xe4, 0xff, 0xff,
  0x14, 0x00, 0x00, 0x00, 0x07, 0x00, 0x00, 0x00, 0x18, 0x00, 0x00, 0x00,
  0x78, 0x00, 0x00, 0x00, 0x68, 0x00, 0x00, 0x00, 0x02, 0x00, 0x00, 0x00,
  0x01, 0x00, 0x00, 0x00, 0x20, 0x00, 0x00, 0x00, 0x53, 0x00, 0x00, 0x00,
  0x6d, 0x6f, 0x64, 0x65, 0x6c, 0x2f, 0x74, 0x66, 0x2e, 0x6d, 0x61, 0x74,
  0x68, 0x2e, 0x6d, 0x75, 0x6c, 0x74, 0x69, 0x70, 0x6c, 0x79, 0x2f, 0x4d,
  0x75, 0x6c, 0x3b, 0x6d, 0x6f, 0x64, 0x65, 0x6c, 0x2f, 0x64, 0x65, 0x6e,
  0x73, 0x65, 0x2f, 0x4d, 0x61, 0x74, 0x4d, 0x75, 0x6c, 0x3b, 0x6d, 0x6f,
  0x64, 0x65, 0x6c, 0x2f, 0x64, 0x65, 0x6e, 0x73, 0x65, 0x2f, 0x52, 0x65,
  0x6c, 0x75, 0x3b, 0x6d, 0x6f, 0x64, 0x65, 0x6c, 0x2f, 0x64, 0x65, 0x6e,
  0x73, 0x65, 0x2f, 0x42, 0x69, 0x61, 0x73, 0x41, 0x64, 0x64, 0x31, 0x00,
  0x02, 0x00, 0x00, 0x00, 0xff, 0xff, 0xff, 0xff, 0x20, 0x00, 0x00, 0x00,
  0x5c, 0xe4, 0xff, 0xff, 0x9e, 0xe5, 0xff, 0xff, 0x04, 0x00, 0x00, 0x00,
  0x80, 0x06, 0x00, 0x00, 0xca, 0x07, 0x10, 0xbb, 0x99, 0xe9, 0x21, 0xbb,
  0x11, 0x6f, 0x7f, 0xbb, 0xd6, 0x17, 0xb6, 0x3a, 0x7d, 0x36, 0xea, 0xb9,
  0xd6, 0x0e, 0xb1, 0x38, 0x30, 0x97, 0x18, 0x3d, 0x9a, 0x06, 0x40, 0x3d,
  0x68, 0x8e, 0x0a, 0xba, 0x10, 0xe6, 0x6f, 0xbc, 0xc3, 0x44, 0x60, 0xbd,
  0xfc, 0xbc, 0xac, 0xba, 0x9c, 0xe1, 0xa9, 0xbb, 0x4c, 0x86, 0x36, 0xba,
  0x61, 0x24, 0xfe, 0x38, 0x46, 0x22, 0x68, 0xbc, 0x76, 0x46, 0x0e, 0xba,
  0xf6, 0x39, 0x1e, 0x38, 0x8c, 0xa1, 0x0c, 0xbb, 0x02, 0xdf, 0xd1, 0x3c,
  0xcb, 0xf9, 0x1b, 0xbc, 0x57, 0x99, 0x64, 0xbb, 0xc9, 0x26, 0x87, 0x3d,
  0x66, 0x6a, 0xbb, 0xbb, 0x55, 0x2a, 0x8b, 0xbb, 0x38, 0xfc, 0xa3, 0x3d,
  0xc3, 0xa5, 0x22, 0x3a, 0xaf, 0x30, 0xd5, 0xb8, 0xd3, 0x7a, 0x2f, 0x3c,
  0x09, 0xbe, 0x9d, 0x3a, 0x31, 0x8e, 0xff, 0xba, 0x98, 0x36, 0xdd, 0x3a,
  0xbf, 0x05, 0x22, 0xbd, 0xbd, 0x2f, 0xf8, 0xbb, 0x2d, 0xb5, 0x55, 0x3b,
  0x39, 0x43, 0x04, 0xbd, 0x02, 0x35, 0xc3, 0x3c, 0x08, 0xd5, 0xfd, 0x3b,
  0x3c, 0x3c, 0x47, 0xbd, 0x23, 0xbb, 0x97, 0xbb, 0x64, 0x1a, 0x69, 0x3b,
  0x90, 0xf1, 0xac, 0xba, 0xca, 0x25, 0x59, 0xba, 0x7f, 0xaf, 0x18, 0x3c,
  0x9b, 0x57, 0x1b, 0x3b, 0x5f, 0x0d, 0xe0, 0x3c, 0x47, 0x6e, 0x1b, 0x3d,
  0x89, 0x24, 0x95, 0xba, 0x0e, 0x0e, 0x9f, 0x3b, 0x7d, 0xb9, 0x5d, 0xbc,
  0x6b, 0xb9, 0xcb, 0xbc, 0x29, 0x84, 0x48, 0x3c, 0xa9, 0x6b, 0xdb, 0x3a,
  0x45, 0x44, 0x44, 0xbb, 0x98, 0x84, 0x73, 0xbb, 0xd9, 0x81, 0x44, 0xbb,
  0x10, 0x3e, 0x52, 0xbb, 0x69, 0x11, 0x31, 0x3a, 0x48, 0xa7, 0x43, 0xbd,
  0xd5, 0xa1, 0x0a, 0xbc, 0xc8, 0x15, 0xb6, 0xba, 0x24, 0xc7, 0x0a, 0x3d,
  0xa1, 0xca, 0x54, 0x3c, 0x3c, 0x24, 0xf8, 0xbb, 0x39, 0x77, 0x4b, 0xbc,
  0xe6, 0xda, 0x01, 0xbc, 0xfa, 0xde, 0x78, 0x3b, 0x8a, 0xf1, 0x9a, 0xba,
  0x95, 0x95, 0x77, 0x3b, 0x7c, 0x86, 0xeb, 0xb9, 0xe9, 0xb3, 0x6c, 0xba,
  0x55, 0x25, 0xf6, 0x3c, 0x81, 0xe9, 0x27, 0xbd, 0x7f, 0xab, 0x45, 0x39,
  0xf7, 0xea, 0xf7, 0xbb, 0x9a, 0x33, 0x4e, 0xbc, 0xcb, 0xc4, 0x1e, 0xbc,
  0xfb, 0xe7, 0xdc, 0x3c, 0xe2, 0x59, 0x12, 0xbc, 0x57, 0x79, 0x70, 0xba,
  0xd2, 0xcd, 0xb0, 0x3b, 0xc9, 0x63, 0xb5, 0x3a, 0x01, 0x65, 0x94, 0xb9,
  0xe0, 0x0c, 0x91, 0xb9, 0xb9, 0xfa, 0xa3, 0x3d, 0x3f, 0xea, 0x65, 0x3c,
  0x97, 0x78, 0xb3, 0x3a, 0x55, 0x22, 0x87, 0xbc, 0xe3, 0x27, 0x85, 0x3c,
  0xfe, 0xa9, 0xb3, 0x3c, 0xb3, 0x62, 0xb6, 0xbc, 0xf1, 0x50, 0x86, 0x3a,
  0x56, 0x47, 0xae, 0x3b, 0x2e, 0x85, 0x84, 0x3b, 0xf1, 0x9b, 0x01, 0xbb,
  0x4e, 0xc8, 0x78, 0x3b, 0x93, 0xb2, 0x0d, 0x3b, 0xd3, 0x8d, 0x33, 0x3c,
  0x56, 0xe4, 0x0f, 0xbd, 0x2f, 0x08, 0x4d, 0x39, 0xe0, 0xf0, 0x7a, 0xbc,
  0xb3, 0x97, 0xd3, 0x3b, 0x68, 0x25, 0x82, 0x3c, 0x8f, 0x7d, 0xa6, 0xbc,
  0x7f, 0xca, 0xa5, 0x39, 0x66, 0x47, 0xfb, 0xbb, 0xfb, 0xba, 0x22, 0x3c,
  0x23, 0x18, 0x32, 0xba, 0x9e, 0x14, 0xb7, 0x3a, 0xb6, 0xe0, 0x94, 0xb8,
  0x87, 0xae, 0xf1, 0x3c, 0x57, 0xdf, 0xbb, 0x3c, 0xe3, 0x24, 0x68, 0x3b,
  0x00, 0xe5, 0x16, 0xbd, 0xf8, 0x3f, 0x26, 0x3d, 0x64, 0xc8, 0xd6, 0x3c,
  0x4c, 0xcd, 0x1a, 0xbc, 0xb4, 0xd1, 0xfc, 0xbb, 0x41, 0x41, 0x3d, 0x3b,
  0xb9, 0xe8, 0x73, 0x3a, 0x99, 0x67, 0x9c, 0xba, 0x8a, 0x96, 0x59, 0x3b,
  0x99, 0xaa, 0x69, 0xba, 0x18, 0xef, 0x85, 0xbd, 0x8c, 0xfc, 0x34, 0x3d,
  0x5d, 0xdc, 0xfe, 0x39, 0x6d, 0xa4, 0xaa, 0x3c, 0xf8, 0x92, 0xd6, 0x3c,
  0x21, 0x25, 0x22, 0x3d, 0x8d, 0x77, 0x7b, 0xbc, 0xfe, 0x89, 0x00, 0x3a,
  0xed, 0xa2, 0x16, 0xbb, 0xfc, 0xdd, 0x6a, 0x38, 0x16, 0x23, 0xdc, 0x39,
  0x54, 0x4f, 0xc7, 0x39, 0x84, 0xa5, 0xb6, 0xba, 0xcf, 0xa8, 0x03, 0xbd,
  0x58, 0x40, 0x86, 0xbb, 0x31, 0x89, 0x4c, 0xb8, 0xc0, 0x4f, 0x0f, 0xbc,
  0x5a, 0x34, 0x63, 0x3c, 0xb6, 0xfa, 0xa1, 0x3c, 0x0d, 0xbc, 0x2a, 0xbb,
  0x45, 0xb6, 0xac, 0x3b, 0xcd, 0xe3, 0xd6, 0x3a, 0x34, 0x18, 0x59, 0xbb,
  0xa7, 0xde, 0x0a, 0x3c, 0xbc, 0x01, 0x50, 0x3b, 0x1c, 0xbe, 0x5c, 0x3b,
  0xad, 0x5d, 0x66, 0xba, 0x52, 0xc0, 0xac, 0x3d, 0x6c, 0x54, 0x84, 0xbb,
  0xb2, 0xbc, 0x57, 0xbb, 0x7c, 0x83, 0xf0, 0xbc, 0x0c, 0x13, 0xd4, 0xbc,
  0x7c, 0xc5, 0x5a, 0xbb, 0x8e, 0x3f, 0x14, 0x3b, 0x7e, 0xaf, 0x03, 0x3b,
  0x05, 0x0e, 0x96, 0xbc, 0xca, 0x8a, 0x18, 0xba, 0x38, 0xb8, 0x41, 0x39,
  0x52, 0x59, 0x58, 0x3a, 0x67, 0x01, 0xab, 0x3b, 0x2c, 0x98, 0xa4, 0xbc,
  0x58, 0xdd, 0xe0, 0xbb, 0x1c, 0xf8, 0x85, 0x3d, 0xd5, 0x83, 0x83, 0xbd,
  0x56, 0x56, 0xc1, 0xbd, 0xab, 0xb7, 0x8f, 0x3d, 0xe2, 0x57, 0x86, 0xba,
  0x28, 0x12, 0x69, 0xba, 0x13, 0x81, 0x02, 0x3b, 0x94, 0x81, 0xc7, 0xb8,
  0x7f, 0x4f, 0xec, 0xb8, 0x81, 0xd7, 0x07, 0xb9, 0x22, 0xe3, 0xff, 0xbd,
  0x8f, 0xe4, 0xc2, 0x3d, 0xed, 0x1f, 0x4f, 0x37, 0xb1, 0x78, 0xc2, 0xbc,
  0x50, 0x79, 0x20, 0x3b, 0x31, 0xf6, 0x52, 0xb9, 0x00, 0xdd, 0x5f, 0xbd,
  0xcc, 0x7b, 0x9e, 0x3a, 0x2f, 0xc4, 0x18, 0x3b, 0xdf, 0xaf, 0xdb, 0x3b,
  0x8b, 0x3d, 0x3e, 0xbb, 0xe5, 0xd4, 0x1a, 0x3b, 0x82, 0xb6, 0xe9, 0x3a,
  0x87, 0x70, 0x1d, 0x3d, 0x65, 0x8d, 0xd9, 0xbc, 0xe4, 0x75, 0x0e, 0x3b,
  0x19, 0x4d, 0xfe, 0xbc, 0x5a, 0x56, 0xc5, 0x3c, 0xb7, 0xb6, 0xc0, 0x3c,
  0x34, 0x4c, 0xb2, 0xba, 0x1b, 0xec, 0x48, 0x3b, 0x96, 0xbd, 0x9b, 0xbb,
  0x65, 0x97, 0x47, 0xb9, 0x3b, 0x5a, 0x0f, 0x3b, 0xbe, 0xc7, 0x60, 0xbb,
  0x77, 0x24, 0xdf, 0x38, 0x61, 0x88, 0x2f, 0xbc, 0x9b, 0x33, 0x70, 0xbc,
  0x38, 0x4c, 0x19, 0xba, 0x42, 0x57, 0x08, 0x3d, 0xfa, 0xfd, 0xfe, 0x3c,
  0x0b, 0x12, 0xcc, 0x3c, 0xaf, 0xd3, 0x32, 0x3d, 0xa0, 0x47, 0xb4, 0x3b,
  0xa8, 0xf3, 0x8c, 0x3b, 0x43, 0xe5, 0xcc, 0x3b, 0x09, 0x40, 0x2a, 0xba,
  0x5f, 0xc0, 0x30, 0xba, 0xf0, 0xda, 0x1c, 0x3a, 0x87, 0x2a, 0x58, 0x3d,
  0xd7, 0x3e, 0x8e, 0xbd, 0x95, 0x15, 0xd8, 0x3a, 0xa2, 0x2e, 0xcb, 0xbb,
  0x12, 0x77, 0x09, 0x3d, 0x31, 0xf6, 0xaa, 0x3b, 0xf1, 0x78, 0x0a, 0xbd,
  0xe3, 0xa9, 0x08, 0xbb, 0x86, 0x82, 0x51, 0x3a, 0xcf, 0xbf, 0x7e, 0x3b,
  0x1e, 0xc5, 0x18, 0x3b, 0x9b, 0x28, 0x3e, 0x3a, 0xdf, 0x70, 0x99, 0x3a,
  0xdf, 0x08, 0x4b, 0xbc, 0x20, 0x1b, 0xd4, 0xbc, 0x09, 0x03, 0x0c, 0x3b,
  0x7f, 0x73, 0x2d, 0xbc, 0x5e, 0x7e, 0x70, 0x3c, 0x78, 0x7a, 0x02, 0x3c,
  0x9f, 0xda, 0x98, 0x3c, 0x84, 0x0e, 0x8b, 0x3b, 0x8d, 0xeb, 0x87, 0x3b,
  0x58, 0xe0, 0xde, 0x3b, 0xd4, 0x9b, 0x85, 0xbb, 0x6b, 0x4e, 0x87, 0xbb,
  0x73, 0x17, 0xdf, 0xba, 0xf2, 0xe0, 0xe1, 0xbb, 0x3d, 0x38, 0x46, 0xbd,
  0x21, 0xa9, 0x1f, 0x3b, 0xfe, 0xc8, 0xeb, 0xbc, 0xd0, 0xa2, 0x4f, 0x3d,
  0xd0, 0xc1, 0x40, 0x3d, 0x6f, 0x89, 0x78, 0xbd, 0x96, 0x4a, 0x39, 0xbb,
  0x1b, 0x29, 0x4b, 0x39, 0xe2, 0x86, 0x58, 0x3b, 0x64, 0x50, 0xa7, 0x3b,
  0xa0, 0xca, 0x7e, 0xbb, 0x78, 0x84, 0x8f, 0x3b, 0xf3, 0x27, 0x4c, 0x3d,
  0xe5, 0x6c, 0x9b, 0x3c, 0x5b, 0x70, 0x50, 0x3a, 0x75, 0x4c, 0xa1, 0x3c,
  0x83, 0x89, 0x64, 0x3b, 0x1a, 0x37, 0x8f, 0x39, 0x66, 0x82, 0x12, 0x3d,
  0x22, 0xfc, 0x17, 0x3b, 0x25, 0x21, 0xad, 0xba, 0x71, 0x9f, 0x3f, 0x3b,
  0x1c, 0x71, 0xc1, 0x3a, 0x7c, 0x1e, 0x01, 0x38, 0x93, 0xe6, 0xea, 0x3a,
  0x5a, 0xd0, 0x0b, 0x3d, 0x9f, 0x69, 0x5d, 0x3d, 0x10, 0xc7, 0x26, 0x3b,
  0x73, 0x1c, 0x8a, 0x3c, 0x9b, 0x6f, 0xe9, 0xbc, 0x7b, 0xc9, 0x81, 0xbc,
  0xd2, 0x22, 0xe9, 0x3a, 0xd3, 0xa5, 0xa0, 0xbb, 0x8a, 0xd5, 0xbe, 0xbb,
  0xbe, 0x5a, 0x12, 0x3c, 0xb4, 0xb2, 0x88, 0xba, 0x3b, 0xf7, 0x23, 0xba,
  0xed, 0x08, 0x99, 0x3a, 0xba, 0x6b, 0x8e, 0x3c, 0x43, 0x3b, 0x4a, 0xbb,
  0x2d, 0xaf, 0xa6, 0x3b, 0x6c, 0x40, 0x1c, 0xbd, 0x13, 0x62, 0x2b, 0xbc,
  0xf6, 0x70, 0x10, 0x3d, 0x58, 0xc6, 0x06, 0xbc, 0xe9, 0x58, 0x43, 0x39,
  0xed, 0xfc, 0xea, 0xb9, 0xec, 0x7c, 0x13, 0xba, 0x9a, 0x3e, 0xd7, 0xbb,
  0xd1, 0x07, 0x8c, 0xbb, 0xba, 0xbc, 0xd7, 0x39, 0xca, 0xa2, 0x9c, 0xbd,
  0xcd, 0x48, 0x43, 0x3b, 0x23, 0x15, 0xd3, 0xba, 0xfe, 0xe0, 0xa3, 0x3b,
  0xa0, 0x97, 0x24, 0x3c, 0x2e, 0xb6, 0x9f, 0x3c, 0x38, 0xf8, 0x17, 0xbc,
  0xe1, 0x6e, 0xad, 0x3b, 0x12, 0xac, 0x82, 0x3a, 0x1c, 0x1f, 0x86, 0xbb,
  0x4f, 0x53, 0x94, 0x3b, 0x61, 0x57, 0x7d, 0xba, 0x95, 0x04, 0x76, 0xbb,
  0xd2, 0xbf, 0x18, 0x3d, 0x01, 0xa3, 0x01, 0x3d, 0xe7, 0x44, 0x87, 0xb9,
  0x52, 0xe7, 0x0b, 0x3c, 0x3f, 0x25, 0xdd, 0x3b, 0xa0, 0x28, 0x34, 0x3d,
  0xff, 0x48, 0x17, 0x3b, 0x76, 0x94, 0xa2, 0x3b, 0x0d, 0xec, 0xf5, 0xbb,
  0xbd, 0x5b, 0x79, 0x3a, 0x9b, 0x21, 0xa9, 0x3a, 0x71, 0x2f, 0x23, 0x3a,
  0x69, 0xd4, 0xcc, 0x39, 0xfd, 0xa5, 0x2b, 0xbd, 0xf2, 0xf7, 0x4d, 0x3d,
  0x12, 0xea, 0xdc, 0x35, 0x25, 0x8d, 0x94, 0xbc, 0x2c, 0x2f, 0x2b, 0xbc,
  0x08, 0x9f, 0x1b, 0xbd, 0xfd, 0xef, 0x3c, 0xbd, 0x5d, 0x35, 0xc6, 0xbb,
  0x4d, 0xea, 0x8a, 0xba, 0x19, 0x90, 0x13, 0x3b, 0xf1, 0xaa, 0xe9, 0xba,
  0x96, 0x11, 0x9d, 0xba, 0x8f, 0x26, 0xdd, 0x39, 0xf8, 0x68, 0x01, 0x3d,
  0x45, 0xb8, 0xf1, 0x3c, 0xf9, 0xb1, 0x9d, 0xba, 0xb8, 0x79, 0x31, 0xbd,
  0xec, 0xb8, 0x76, 0x3c, 0x29, 0x07, 0x02, 0x3d, 0xbd, 0x53, 0x04, 0xbd,
  0x88, 0xc3, 0xe4, 0x3a, 0x9f, 0xe6, 0xdb, 0xbb, 0x25, 0xde, 0x6a, 0xba,
  0x6c, 0x1a, 0xbc, 0xba, 0x5f, 0x44, 0xd6, 0xb9, 0x82, 0x9d, 0x34, 0xb9,
  0xef, 0x2c, 0xd4, 0xbc, 0x90, 0xde, 0xe8, 0x3d, 0x9f, 0x37, 0x49, 0xba,
  0x8b, 0x2c, 0x38, 0x3c, 0xce, 0x58, 0xfd, 0xbb, 0x43, 0x42, 0xbd, 0xba,
  0x4f, 0x02, 0xaf, 0xbc, 0x33, 0xa1, 0x01, 0x3b, 0x4e, 0x63, 0xac, 0xba,
  0xf9, 0xcc, 0xa4, 0x3b, 0xa3, 0x95, 0x66, 0x3b, 0xb3, 0x85, 0xb3, 0x3b,
  0xf7, 0x36, 0xb5, 0x3b, 0x0f, 0x63, 0x01, 0xbd, 0xf5, 0x59, 0x54, 0xbb,
  0xe3, 0x00, 0x3b, 0xba, 0x64, 0x7e, 0xab, 0x3b, 0x63, 0x65, 0x80, 0x3c,
  0x34, 0xcb, 0x9c, 0x3c, 0xca, 0x4d, 0xd6, 0xbb, 0x56, 0x08, 0x48, 0x3b,
  0x29, 0xb0, 0xc8, 0xbb, 0x07, 0xde, 0x24, 0xbc, 0x6a, 0x83, 0xa9, 0xba,
  0x44, 0xb3, 0xb7, 0x3a, 0x87, 0x47, 0x36, 0x39, 0x4b, 0x92, 0x5f, 0xbc,
  0x4f, 0x38, 0xe3, 0x3d, 0x3b, 0x72, 0xa0, 0xbb, 0x3a, 0xf6, 0x1f, 0x3d,
  0x1d, 0x72, 0xae, 0xbc, 0xe0, 0x36, 0x82, 0x3a, 0x50, 0x31, 0x48, 0x3c,
  0x60, 0x23, 0xa6, 0xba, 0x14, 0xdc, 0x84, 0x3b, 0xb6, 0xb2, 0x36, 0x3b,
  0x1c, 0xe6, 0xc2, 0x3b, 0x57, 0x6a, 0x1e, 0x3b, 0xe1, 0x87, 0x88, 0xbb,
  0x1d, 0x68, 0x04, 0x3d, 0x94, 0x6f, 0x43, 0x3b, 0x7e, 0xec, 0x25, 0x3b,
  0x27, 0x10, 0x9c, 0xbc, 0xd2, 0xfa, 0x5f, 0x3c, 0xa5, 0x6e, 0xa2, 0x3c,
  0x1a, 0xee, 0xa8, 0xbc, 0xfd, 0xed, 0x4f, 0x3c, 0xea, 0xb4, 0xb7, 0xba,
  0x96, 0xfa, 0x68, 0x3a, 0x19, 0x63, 0x20, 0xba, 0xea, 0xa0, 0x17, 0x3a,
  0x14, 0x30, 0x49, 0x3a, 0xee, 0x07, 0xcc, 0xbd, 0xda, 0x7b, 0x01, 0xbd,
  0xe5, 0xe3, 0x55, 0xba, 0x35, 0xc3, 0xd4, 0x3b, 0xe3, 0xe4, 0x02, 0x3d,
  0xaf, 0x52, 0xdf, 0xbb, 0xbc, 0xf4, 0x89, 0xbc, 0x70, 0xa0, 0xfe, 0x3a,
  0x3e, 0x51, 0xd4, 0xba, 0xbf, 0xbc, 0x34, 0x3a, 0xbc, 0xef, 0xf9, 0xbb,
  0x3b, 0x8c, 0xea, 0x3b, 0x7a, 0x2e, 0x48, 0xba, 0xf3, 0xa2, 0xbb, 0x3c,
  0xd3, 0xd0, 0x9d, 0x3b, 0x89, 0x91, 0x8d, 0x3a, 0xc8, 0xab, 0x6d, 0x3d,
  0xc8, 0x7b, 0xf0, 0x3c, 0xa2, 0x69, 0x96, 0x3c, 0x6f, 0x45, 0x69, 0x3d,
  0x96, 0xeb, 0xff, 0xff, 0x10, 0x00, 0x00, 0x00, 0x06, 0x00, 0x00, 0x00,
  0x14, 0x00, 0x00, 0x00, 0x68, 0x00, 0x00, 0x00, 0x02, 0x00, 0x00, 0x00,
  0x20, 0x00, 0x00, 0x00, 0x0d, 0x00, 0x00, 0x00, 0x52, 0x00, 0x00, 0x00,
  0x6d, 0x6f, 0x64, 0x65, 0x6c, 0x2f, 0x74, 0x66, 0x2e, 0x6d, 0x61, 0x74,
  0x68, 0x2e, 0x6d, 0x75, 0x6c, 0x74, 0x69, 0x70, 0x6c, 0x79, 0x2f, 0x4d,
  0x75, 0x6c, 0x3b, 0x6d, 0x6f, 0x64, 0x65, 0x6c, 0x2f, 0x64, 0x65, 0x6e,
  0x73, 0x65, 0x2f, 0x4d, 0x61, 0x74, 0x4d, 0x75, 0x6c, 0x3b, 0x6d, 0x6f,
  0x64, 0x65, 0x6c, 0x2f, 0x64, 0x65, 0x6e, 0x73, 0x65, 0x2f, 0x52, 0x65,
  0x6c, 0x75, 0x3b, 0x6d, 0x6f, 0x64, 0x65, 0x6c, 0x2f, 0x64, 0x65, 0x6e,
  0x73, 0x65, 0x2f, 0x42, 0x69, 0x61, 0x73, 0x41, 0x64, 0x64, 0x00, 0x00,
  0x64, 0xeb, 0xff, 0xff, 0xa6, 0xec, 0xff, 0xff, 0x04, 0x00, 0x00, 0x00,
  0x00, 0x02, 0x00, 0x00, 0xda, 0xc5, 0x92, 0xbc, 0xea, 0xf6, 0xaa, 0x3d,
  0x60, 0xcd, 0xb0, 0x3c, 0xda, 0xad, 0xd4, 0x3c, 0x49, 0xe3, 0xc6, 0x3b,
  0x65, 0x19, 0x24, 0x3b, 0x2b, 0x03, 0x0e, 0xbd, 0xaa, 0x4c, 0x01, 0xc0,
  0x17, 0x4b, 0xad, 0xbc, 0x08, 0x07, 0xf0, 0xc0, 0x41, 0x30, 0xe6, 0xc0,
  0xac, 0xfd, 0xeb, 0xbc, 0x7a, 0xc6, 0x27, 0x3f, 0x8f, 0x2a, 0x35, 0xbd,
  0x45, 0x25, 0x81, 0x39, 0xf1, 0xdd, 0x89, 0xbb, 0x24, 0xfb, 0x9e, 0x3e,
  0x03, 0x22, 0xdb, 0xbd, 0x58, 0x0f, 0x3a, 0xc1, 0xcd, 0x8e, 0x74, 0xbd,
  0xdb, 0x6f, 0xe3, 0x3c, 0x41, 0x00, 0x06, 0xc1, 0xae, 0x68, 0x8a, 0x3e,
  0xa6, 0x40, 0x9c, 0xbe, 0xec, 0x4e, 0x1d, 0x3d, 0x90, 0x8e, 0x9f, 0xbc,
  0xaa, 0x25, 0xdb, 0x3d, 0x53, 0x8d, 0x02, 0xbf, 0x84, 0xe1, 0xfb, 0x3c,
  0x6a, 0x32, 0x43, 0xbf, 0xa5, 0x49, 0x93, 0xbd, 0x0a, 0xb1, 0x72, 0x40,
  0x77, 0xd5, 0x51, 0x3b, 0x3e, 0x37, 0x1c, 0x3c, 0xa9, 0x5f, 0xad, 0xbc,
  0x24, 0xbb, 0xc4, 0x3f, 0x0c, 0x68, 0x8f, 0x3e, 0x13, 0x9e, 0xd7, 0xbb,
  0x5c, 0x90, 0x82, 0x3b, 0xac, 0x27, 0xa7, 0x3f, 0x07, 0xc1, 0xc2, 0xc0,
  0xf7, 0xd2, 0xde, 0xbb, 0x47, 0xc8, 0x48, 0x3f, 0x4f, 0xaa, 0x06, 0xc1,
  0x22, 0x8e, 0x34, 0xbc, 0x65, 0x73, 0x90, 0x3a, 0x91, 0x21, 0xd4, 0xc0,
  0x76, 0xe1, 0x4d, 0x3c, 0xc1, 0x28, 0x13, 0x3e, 0x46, 0xf9, 0xee, 0x3e,
  0xcd, 0x92, 0xe6, 0xbb, 0xb7, 0x4c, 0x42, 0x3b, 0x66, 0xaa, 0x50, 0xbc,
  0x4f, 0x92, 0x2c, 0xbe, 0xd3, 0x34, 0x8e, 0xbc, 0x2e, 0xb7, 0x77, 0xbc,
  0xaf, 0x62, 0x0f, 0xbf, 0xb4, 0x19, 0x26, 0x3c, 0xe0, 0xfd, 0xfb, 0x3f,
  0xa6, 0xc7, 0xb6, 0xc0, 0x1b, 0x17, 0x41, 0xbc, 0x0e, 0xd7, 0x4a, 0x3d,
  0xf9, 0xd2, 0xb6, 0xbc, 0x9e, 0x66, 0x07, 0x3d, 0xaa, 0x7b, 0x81, 0xbf,
  0xae, 0xfc, 0x4d, 0x3e, 0x74, 0x91, 0xae, 0x3f, 0x89, 0xb3, 0x5b, 0xbd,
  0x9b, 0x54, 0x8a, 0x3d, 0xd9, 0xb1, 0xa9, 0xbf, 0xc0, 0x74, 0x8d, 0xc0,
  0x6d, 0xb4, 0xd2, 0x3f, 0x20, 0xfc, 0x82, 0xba, 0xe2, 0x73, 0x07, 0xba,
  0xfb, 0x5e, 0x95, 0x3b, 0x7d, 0xab, 0x3d, 0xbc, 0xb7, 0x9d, 0xce, 0xbe,
  0xca, 0x9e, 0x58, 0xbf, 0x6b, 0xbf, 0x56, 0xbb, 0xda, 0xfd, 0xbd, 0x3b,
  0x36, 0xf6, 0x41, 0x3e, 0xa0, 0x23, 0xf3, 0x3c, 0xe9, 0xc1, 0xb1, 0xba,
  0xd2, 0x95, 0x68, 0x3e, 0xdf, 0xc3, 0xc8, 0xbd, 0xe9, 0xd8, 0x34, 0x40,
  0x61, 0x46, 0x54, 0x3e, 0xcc, 0x5e, 0x73, 0xbe, 0xa8, 0x5f, 0xd8, 0xbd,
  0x2a, 0x97, 0x4b, 0xc0, 0xd0, 0x52, 0x8a, 0x3f, 0xe9, 0xe5, 0xf6, 0xba,
  0xbd, 0xcd, 0x89, 0x3f, 0x00, 0xf5, 0x1c, 0x3e, 0xd1, 0x36, 0xa2, 0x3f,
  0xde, 0x22, 0x86, 0xbf, 0x13, 0x6d, 0x23, 0xbe, 0x68, 0x8b, 0xad, 0x3f,
  0x73, 0x1c, 0xee, 0xbc, 0xd8, 0x6d, 0x8b, 0xbd, 0xe3, 0x65, 0x46, 0x3d,
  0xa4, 0xe5, 0x1d, 0xba, 0xde, 0x1f, 0x05, 0xbd, 0x33, 0x3e, 0xab, 0xbf,
  0x44, 0x6e, 0xc8, 0xba, 0x85, 0xd3, 0x8f, 0xb8, 0xe5, 0xda, 0x1b, 0xc1,
  0x67, 0x12, 0x13, 0xbd, 0xfa, 0x7c, 0xd0, 0x3f, 0x82, 0x75, 0x6e, 0x3b,
  0xe2, 0x1a, 0x28, 0x3b, 0xce, 0xd1, 0x16, 0xc0, 0x28, 0x4a, 0xf0, 0xbd,
  0xdc, 0xe2, 0xac, 0xbc, 0x41, 0xd5, 0x18, 0x3c, 0x3c, 0xf0, 0xca, 0x3f,
  0xac, 0x82, 0x31, 0xc0, 0x0f, 0xc0, 0x79, 0xc0, 0x77, 0x8a, 0x67, 0x3e,
  0x4e, 0x30, 0x85, 0xbe, 0xb5, 0x5e, 0x5f, 0xbd, 0x8c, 0xd4, 0xc3, 0xbc,
  0xb2, 0x4a, 0x20, 0x41, 0x56, 0xc9, 0x49, 0x3b, 0x9b, 0x95, 0x5b, 0x3d,
  0x6c, 0xdb, 0x9a, 0x3f, 0x86, 0x08, 0x11, 0xbe, 0xda, 0x8d, 0x54, 0x40,
  0x1e, 0xee, 0xff, 0xff, 0x10, 0x00, 0x00, 0x00, 0x05, 0x00, 0x00, 0x00,
  0x14, 0x00, 0x00, 0x00, 0x2c, 0x00, 0x00, 0x00, 0x02, 0x00, 0x00, 0x00,
  0x04, 0x00, 0x00, 0x00, 0x20, 0x00, 0x00, 0x00, 0x14, 0x00, 0x00, 0x00,
  0x6d, 0x6f, 0x64, 0x65, 0x6c, 0x2f, 0x64, 0x65, 0x6e, 0x73, 0x65, 0x5f,
  0x32, 0x2f, 0x4d, 0x61, 0x74, 0x4d, 0x75, 0x6c, 0x00, 0x00, 0x00, 0x00,
  0xb0, 0xed, 0xff, 0xff, 0xf2, 0xee, 0xff, 0xff, 0x04, 0x00, 0x00, 0x00,
  0x00, 0x10, 0x00, 0x00, 0x61, 0x46, 0x8f, 0xbe, 0xaa, 0x35, 0xa7, 0xbe,
  0x50, 0x1d, 0xda, 0x3e, 0x4e, 0x5c, 0x09, 0xbf, 0x32, 0xc4, 0x82, 0xbe,
  0xa6, 0x5e, 0x52, 0xbf, 0x21, 0xe5, 0x99, 0xbf, 0xa6, 0x09, 0x74, 0x3f,
  0xf6, 0x89, 0xd7, 0x3c, 0x24, 0x11, 0x06, 0xbe, 0xbd, 0xc8, 0x1f, 0x3f,
  0x0e, 0xc4, 0x14, 0x3e, 0x4d, 0x8b, 0xdf, 0x3d, 0xd6, 0x8a, 0x74, 0x3f,
  0x3c, 0x6b, 0x6b, 0xbe, 0x05, 0x55, 0x10, 0x3f, 0x0c, 0x4c, 0x08, 0xbf,
  0xaf, 0xe8, 0x8c, 0x3e, 0x42, 0x87, 0x27, 0xbf, 0xc5, 0x28, 0x91, 0x3e,
  0x3f, 0xac, 0xb7, 0x3e, 0xb5, 0x08, 0x4f, 0xc0, 0x81, 0xfa, 0xed, 0x3d,
  0xef, 0x07, 0x7c, 0xbe, 0x9e, 0x73, 0xb8, 0xbe, 0xe2, 0x28, 0x83, 0x3f,
  0x8b, 0x1a, 0xb7, 0xbe, 0x15, 0x62, 0xe8, 0xbe, 0x11, 0xfa, 0x3b, 0xbf,
  0x8d, 0xef, 0xfb, 0xbe, 0x40, 0x76, 0x58, 0xbf, 0x99, 0xd5, 0x29, 0x3f,
  0x4e, 0xdf, 0xba, 0xbf, 0x06, 0x56, 0x61, 0xbe, 0xae, 0x7e, 0xa7, 0xbc,
  0x1d, 0xf4, 0x3d, 0xbf, 0x7f, 0xd4, 0x5b, 0x3c, 0x9f, 0xde, 0x4f, 0xbe,
  0xab, 0xa7, 0x28, 0xbf, 0x8e, 0x42, 0x36, 0xbf, 0xf4, 0xaf, 0x1f, 0xbf,
  0x9e, 0x3d, 0x44, 0xbf, 0x7b, 0x65, 0x63, 0x3e, 0xea, 0xd6, 0x25, 0x3f,
  0xa8, 0x77, 0x90, 0xbf, 0xb6, 0x33, 0x70, 0xbe, 0x00, 0xa3, 0x12, 0x3f,
  0x83, 0x60, 0x12, 0xbe, 0xb8, 0x0b, 0x45, 0xbf, 0x95, 0xe0, 0xf4, 0xbe,
  0xa9, 0xe9, 0x54, 0xbf, 0x47, 0x8f, 0x90, 0xbf, 0xa4, 0xff, 0x4e, 0x3f,
  0xe0, 0x3d, 0x5f, 0xbf, 0xf1, 0xbb, 0x2a, 0xbf, 0x92, 0xbb, 0x88, 0xbf,
  0x69, 0x95, 0x56, 0xbf, 0x1c, 0x7c, 0x3a, 0x3f, 0x14, 0xbb, 0x49, 0x3e,
  0xb0, 0x5f, 0x83, 0x3d, 0xa3, 0x58, 0x89, 0xbe, 0xea, 0xdc, 0x02, 0xbf,
  0xa1, 0xb4, 0xe5, 0xbd, 0x55, 0x76, 0x1b, 0xbf, 0xc3, 0x14, 0xc6, 0xbe,
  0x76, 0xff, 0x9f, 0xbf, 0x72, 0x5e, 0xb8, 0xbc, 0xb4, 0xfb, 0xf5, 0xbe,
  0x82, 0x8f, 0x64, 0xbf, 0xbc, 0x34, 0xa7, 0xbe, 0xb3, 0x37, 0x85, 0xbe,
  0xa1, 0xdd, 0x56, 0x3e, 0x8c, 0x29, 0xaa, 0xbe, 0x7a, 0x9b, 0x9d, 0xbe,
  0x4a, 0xbc, 0x3a, 0x3f, 0xfd, 0xf6, 0xc7, 0xbe, 0x02, 0x8f, 0xa2, 0xbf,
  0x17, 0x89, 0x86, 0xbe, 0x01, 0xf4, 0x1a, 0xbe, 0x87, 0x51, 0x16, 0x3f,
  0x81, 0x0d, 0x84, 0xc0, 0x07, 0x84, 0xb6, 0x3e, 0x4c, 0xa8, 0x8e, 0x3c,
  0x84, 0xe4, 0xf3, 0xbe, 0xa8, 0x72, 0x23, 0x3f, 0x78, 0xf8, 0x58, 0xc0,
  0x69, 0x27, 0xb8, 0x3e, 0x17, 0x34, 0x10, 0xbf, 0x0a, 0x1b, 0x77, 0xc0,
  0x56, 0x1c, 0x65, 0x3f, 0x2b, 0x67, 0xe8, 0x3e, 0xd4, 0xde, 0x45, 0x3f,
  0x97, 0x25, 0x1c, 0x3f, 0x2e, 0x5c, 0xf9, 0xbc, 0x06, 0x04, 0x2c, 0xbf,
  0x7f, 0x67, 0x9d, 0x3f, 0x02, 0xda, 0x87, 0x3d, 0x78, 0x9d, 0x0d, 0xc0,
  0xd0, 0x4f, 0x29, 0xbf, 0x32, 0xd2, 0x62, 0x3e, 0x7b, 0xf8, 0xed, 0x3d,
  0x20, 0x33, 0x73, 0xbf, 0x66, 0x21, 0x21, 0x3c, 0xca, 0x7f, 0x10, 0xc0,
  0x20, 0x45, 0x41, 0xbf, 0x4b, 0x07, 0xf4, 0x3e, 0x3e, 0x4a, 0x67, 0x3f,
  0x86, 0xd0, 0x7a, 0xbf, 0x3f, 0x1c, 0x3d, 0x3f, 0xf1, 0xca, 0xe5, 0xbe,
  0x8b, 0x49, 0x1d, 0xbf, 0xe6, 0x51, 0x9f, 0x3e, 0x14, 0xe0, 0xed, 0xbf,
  0x90, 0x98, 0x49, 0x3e, 0x08, 0xa1, 0x1a, 0xbf, 0x07, 0xdd, 0xdf, 0xbe,
  0xf4, 0x5d, 0x46, 0x3e, 0x13, 0x34, 0xd8, 0xbf, 0x54, 0xcf, 0x83, 0xbe,
  0x02, 0x2f, 0xc2, 0x3d, 0x84, 0x02, 0x5f, 0xc0, 0x00, 0xaf, 0x2c, 0x3f,
  0x82, 0xf9, 0x0d, 0x3e, 0xb7, 0x69, 0x94, 0xbd, 0x58, 0x39, 0xfc, 0xbe,
  0xa2, 0xce, 0x22, 0xbf, 0x31, 0x28, 0xa2, 0xbe, 0x9b, 0x68, 0xa3, 0xbd,
  0xea, 0xba, 0x80, 0xbd, 0x76, 0x35, 0x37, 0x3f, 0xe1, 0x21, 0x78, 0x3d,
  0x9f, 0x33, 0x1e, 0xbf, 0x38, 0x95, 0xa9, 0xbe, 0xb6, 0xd9, 0x85, 0x3e,
  0x18, 0xd7, 0x5d, 0x3e, 0x7d, 0x5a, 0x8b, 0x3d, 0x33, 0x6d, 0xb0, 0xbd,
  0x33, 0x08, 0x2c, 0x3e, 0xfb, 0x04, 0xcf, 0xbe, 0x09, 0xd9, 0x5a, 0x3e,
  0x7a, 0x47, 0xe4, 0xbd, 0x1e, 0xa3, 0x71, 0x3e, 0x9e, 0x75, 0xc6, 0x3e,
  0x8d, 0xe8, 0x23, 0xbe, 0x04, 0xd2, 0xd5, 0xbe, 0x26, 0x5a, 0xd7, 0xbc,
  0xdb, 0x95, 0x84, 0x3e, 0x2b, 0x22, 0x3c, 0xbd, 0x91, 0x5a, 0xa2, 0x3d,
  0x49, 0x7c, 0xb4, 0x3e, 0x01, 0x22, 0x2a, 0xbd, 0x00, 0xca, 0xec, 0x3c,
  0xcb, 0x75, 0xf0, 0x3d, 0x39, 0x0d, 0x18, 0x3e, 0x42, 0xf2, 0x1b, 0xbe,
  0xac, 0x1c, 0xe3, 0x3e, 0x81, 0xce, 0xd8, 0x3e, 0xba, 0x53, 0x91, 0x3e,
  0x65, 0x8f, 0xf9, 0x3e, 0x2d, 0x61, 0x7e, 0x3e, 0x61, 0x17, 0x53, 0x3e,
  0x6e, 0x27, 0xe9, 0xbf, 0xcc, 0xa9, 0x34, 0x3f, 0xdb, 0x63, 0x2d, 0xbc,
  0xba, 0xa5, 0xf3, 0xbe, 0x7d, 0x9a, 0xbd, 0xbd, 0x5e, 0x72, 0x4d, 0xbf,
  0xc7, 0x43, 0x02, 0xbf, 0xb3, 0xb0, 0xcf, 0x3d, 0x65, 0xc2, 0x0d, 0x3e,
  0x8f, 0xfe, 0x9c, 0x3f, 0x32, 0x33, 0xaa, 0x3d, 0x90, 0x73, 0xc2, 0xbf,
  0xea, 0x7a, 0x2c, 0x3e, 0xb7, 0xdf, 0x31, 0xbf, 0xde, 0xf1, 0x0d, 0x3d,
  0xd9, 0xba, 0x1a, 0xc0, 0x62, 0x4d, 0x16, 0x3f, 0x7b, 0x55, 0x89, 0x3e,
  0xfc, 0xba, 0x4c, 0xbe, 0x2b, 0x95, 0x89, 0x3f, 0x63, 0x9c, 0x57, 0xbd,
  0x5d, 0xb8, 0x80, 0x3e, 0xdd, 0xce, 0x00, 0xbe, 0x3d, 0xe7, 0x09, 0xc0,
  0x05, 0x1c, 0xa1, 0xbe, 0x11, 0x45, 0x01, 0xbf, 0x2e, 0x63, 0x79, 0x3c,
  0x29, 0x94, 0x3f, 0x3f, 0x14, 0x53, 0xa7, 0x3e, 0xf4, 0x6e, 0x91, 0xbe,
  0x4a, 0x3a, 0x84, 0x3f, 0xa8, 0xef, 0x5d, 0xbd, 0x83, 0xc3, 0xb3, 0xbf,
  0xdb, 0x15, 0xea, 0xbc, 0x59, 0x48, 0x1d, 0xbe, 0x84, 0x53, 0x0a, 0xc0,
  0x12, 0xd1, 0x08, 0xbf, 0xb7, 0xd0, 0x1a, 0x3f, 0x7f, 0xa1, 0xa0, 0xbe,
  0x44, 0xb0, 0x36, 0xbe, 0xda, 0x78, 0x2d, 0x3f, 0x8e, 0xff, 0xce, 0x3e,
  0x02, 0xb7, 0xa3, 0x3f, 0x84, 0x0a, 0xb6, 0xbf, 0xc1, 0x24, 0x4b, 0xbe,
  0x34, 0x94, 0x5c, 0xbf, 0x51, 0xb6, 0x9d, 0x3f, 0xfe, 0xef, 0x45, 0xc0,
  0x24, 0x74, 0x31, 0xbf, 0x17, 0xf0, 0xc2, 0x3e, 0x54, 0x05, 0xc3, 0xbe,
  0x24, 0xe5, 0x07, 0x3f, 0x00, 0xaf, 0xed, 0xbf, 0x3e, 0x34, 0x8d, 0x3f,
  0xfe, 0x50, 0x08, 0xbe, 0xaf, 0xac, 0xa1, 0xbf, 0x64, 0xa0, 0xa1, 0x3e,
  0xf8, 0x7c, 0xa8, 0x3e, 0x39, 0xaa, 0x95, 0x3f, 0x3b, 0xfd, 0xfc, 0x3e,
  0x62, 0xd8, 0xac, 0xbd, 0xb4, 0x26, 0x78, 0xbf, 0xcd, 0xef, 0x13, 0x3e,
  0x7e, 0x2e, 0x56, 0x3e, 0xb1, 0x93, 0x02, 0xc0, 0xdd, 0xba, 0xb4, 0x3e,
  0xf1, 0x19, 0xb2, 0xbe, 0x64, 0x61, 0xa8, 0x3e, 0xf1, 0x5d, 0xab, 0xbf,
  0xdc, 0x6f, 0xa5, 0xbf, 0xfd, 0x35, 0x80, 0xc0, 0x11, 0x89, 0x28, 0xc0,
  0xe2, 0x45, 0xa1, 0xc0, 0x35, 0xd1, 0x54, 0x3e, 0xa3, 0x6c, 0x84, 0xc0,
  0xb5, 0xf7, 0x97, 0xbe, 0xb4, 0x1e, 0xcf, 0x3d, 0xa0, 0x86, 0x4b, 0x3f,
  0x7c, 0xb1, 0xbb, 0xbf, 0xc6, 0x2b, 0xd0, 0xbf, 0xa8, 0x4f, 0x6d, 0xbd,
  0xe4, 0x5e, 0x01, 0xc0, 0x2a, 0x6f, 0x05, 0xc0, 0x20, 0xa6, 0x8a, 0x3e,
  0xd8, 0x8f, 0x26, 0xbf, 0x5a, 0xc8, 0x9a, 0x3d, 0x8d, 0xc8, 0x08, 0xc0,
  0x01, 0xd0, 0xc8, 0xbf, 0xfd, 0x51, 0x71, 0xc0, 0xd1, 0x05, 0x49, 0xbf,
  0x2d, 0x92, 0xb6, 0xc0, 0x74, 0x4c, 0x7a, 0xc0, 0x0c, 0x1a, 0x52, 0xc0,
  0xea, 0xfe, 0x45, 0xc0, 0x32, 0xa2, 0x89, 0x3f, 0x00, 0x61, 0x8d, 0xbf,
  0xc4, 0xe8, 0xc9, 0x3e, 0xb4, 0x82, 0x42, 0x3e, 0x38, 0x56, 0x54, 0x3e,
  0x7e, 0x1e, 0x9b, 0x3e, 0x8c, 0x46, 0x4f, 0xbf, 0x7f, 0xb1, 0x14, 0xbf,
  0xee, 0xa4, 0x17, 0xbf, 0x31, 0xdb, 0x9a, 0x3f, 0xab, 0xfb, 0x67, 0xbe,
  0xe1, 0xd2, 0x52, 0xbe, 0xe2, 0x25, 0xa0, 0x3d, 0x39, 0x19, 0xba, 0xbf,
  0x9f, 0x83, 0xdc, 0x3f, 0xf9, 0x27, 0x06, 0x3f, 0x79, 0xda, 0xf3, 0x3e,
  0x88, 0x57, 0x08, 0xc0, 0xc2, 0x5d, 0x6c, 0x3e, 0xd5, 0x60, 0xee, 0x3e,
  0xcb, 0x2b, 0x06, 0x3f, 0x35, 0xce, 0xb8, 0x3e, 0x0d, 0xdb, 0x10, 0xc0,
  0xf3, 0x22, 0x4c, 0x3f, 0xfd, 0xbc, 0x8b, 0x3c, 0x9b, 0x1a, 0xdf, 0xbf,
  0x96, 0xae, 0x9a, 0xbf, 0x4d, 0xc9, 0xb7, 0xbf, 0x69, 0x66, 0x19, 0xbe,
  0x3c, 0x87, 0x47, 0x3e, 0x37, 0xfb, 0x87, 0x3f, 0x6e, 0x00, 0x57, 0xbd,
  0x59, 0x16, 0xc9, 0xbe, 0x3f, 0x97, 0x71, 0x3f, 0x4f, 0x9a, 0x2c, 0xc0,
  0xc8, 0x38, 0x01, 0xbf, 0x49, 0xc5, 0x43, 0x3f, 0x8a, 0x7d, 0x88, 0xbd,
  0x4e, 0x4f, 0x0d, 0x3d, 0x09, 0x1b, 0x1f, 0xbe, 0x84, 0x47, 0xfb, 0xbf,
  0xc7, 0xad, 0xd3, 0xbe, 0x4f, 0x68, 0xb4, 0xbf, 0x6e, 0x3f, 0x13, 0x3e,
  0xe2, 0x85, 0x73, 0xbe, 0x00, 0x2e, 0x3e, 0x3f, 0x96, 0x6c, 0x62, 0x3e,
  0xc9, 0x95, 0xae, 0xbf, 0x0d, 0x74, 0x16, 0x3f, 0xdf, 0x26, 0x43, 0xc0,
  0xf8, 0xca, 0xd2, 0xbf, 0xeb, 0xb1, 0x69, 0xbf, 0x8f, 0x21, 0x8c, 0xbf,
  0xfc, 0xd1, 0x8b, 0xbe, 0xda, 0x36, 0x1c, 0xc0, 0xf2, 0x2a, 0xd1, 0x3f,
  0xb7, 0xfb, 0xd4, 0xbf, 0xb1, 0x35, 0xae, 0xbf, 0x0f, 0xc4, 0x86, 0x3d,
  0x33, 0x69, 0x1d, 0x3e, 0x2b, 0xde, 0x8f, 0x3f, 0xce, 0x0e, 0x7e, 0xbe,
  0x43, 0xa5, 0x73, 0x3f, 0xf0, 0xff, 0x85, 0x3f, 0x4f, 0x4e, 0xf0, 0x3e,
  0x4b, 0x0c, 0x2f, 0x3f, 0xb5, 0x8b, 0xa3, 0x3e, 0x55, 0x33, 0xf0, 0xbf,
  0xed, 0x82, 0xd2, 0xbf, 0x89, 0x5b, 0xfa, 0x3e, 0x77, 0x67, 0xf8, 0x3e,
  0x8e, 0x35, 0x81, 0xbe, 0xc4, 0xc7, 0x36, 0x3f, 0x15, 0xf2, 0x53, 0x3f,
  0x31, 0xe7, 0x96, 0xbf, 0x3f, 0x0d, 0x12, 0x3f, 0x1f, 0x51, 0xc9, 0xbf,
  0x35, 0x3b, 0x7a, 0xbf, 0x0b, 0x3d, 0xbf, 0xbe, 0x40, 0x81, 0x85, 0xc0,
  0x40, 0xf4, 0xa3, 0xbe, 0x15, 0x64, 0xc1, 0xbf, 0x10, 0xa1, 0x05, 0xc0,
  0x3d, 0x17, 0xa7, 0xbe, 0x7e, 0xa5, 0x73, 0xbf, 0x75, 0x6b, 0xcf, 0x3d,
  0x9c, 0xcc, 0x29, 0xc0, 0x7a, 0x4b, 0x2b, 0xbf, 0x34, 0x46, 0x75, 0x3e,
  0xfe, 0xf6, 0x5b, 0xc0, 0x9e, 0x1a, 0x72, 0xbf, 0x89, 0x23, 0xa4, 0xbe,
  0x9a, 0xb6, 0x3f, 0x3e, 0xe1, 0x47, 0x7f, 0x3e, 0x85, 0x05, 0x7b, 0x3e,
  0x06, 0xd6, 0x2e, 0x3f, 0x7b, 0x1d, 0xdb, 0xbf, 0x68, 0x30, 0x64, 0xbf,
  0xda, 0x06, 0xc3, 0x3e, 0xc4, 0x79, 0x0d, 0x3f, 0x6e, 0xdf, 0xcc, 0xbf,
  0x3b, 0x60, 0x6e, 0xbf, 0xba, 0xd5, 0xbc, 0xbe, 0xb8, 0xee, 0x45, 0xbf,
  0xa5, 0xfc, 0x95, 0xbf, 0xa3, 0xa9, 0x3a, 0x3e, 0xf4, 0xf2, 0x19, 0xbf,
  0xe2, 0x82, 0xe5, 0x3e, 0x66, 0x1a, 0xb4, 0xbf, 0x42, 0xe4, 0x9b, 0xbf,
  0x11, 0x69, 0x0c, 0x3e, 0x7a, 0xd8, 0x0d, 0xbf, 0xa6, 0x24, 0x90, 0x3e,
  0xff, 0xc5, 0xdd, 0xbf, 0x6f, 0x24, 0x5e, 0xbf, 0x88, 0x64, 0x27, 0xbe,
  0x40, 0x97, 0xc7, 0xbe, 0xdd, 0x90, 0xba, 0x3f, 0x94, 0xbe, 0x48, 0xc0,
  0xb2, 0xb2, 0xb2, 0x3d, 0xb8, 0x1b, 0x69, 0xbf, 0x51, 0x44, 0x0d, 0xbf,
  0x66, 0x56, 0x37, 0x3e, 0xaf, 0xa8, 0xbd, 0xbf, 0x3a, 0x49, 0x80, 0xbf,
  0x77, 0x4e, 0x14, 0xbf, 0xf0, 0xc7, 0xef, 0xbe, 0xea, 0x38, 0x80, 0x3e,
  0x0b, 0x31, 0x99, 0xbf, 0x8e, 0xc8, 0xf6, 0xbe, 0x55, 0x82, 0x3b, 0xbf,
  0xcb, 0x48, 0x07, 0x3f, 0x27, 0x11, 0x14, 0x3f, 0x17, 0x7b, 0x46, 0x3e,
  0x37, 0xd2, 0x77, 0xbf, 0xd0, 0x57, 0x92, 0xbe, 0xe0, 0xce, 0xb0, 0xbe,
  0x4e, 0xef, 0x39, 0xbf, 0x6b, 0x16, 0x89, 0x3e, 0x22, 0x4e, 0xa3, 0x3f,
  0xec, 0x8c, 0x0a, 0xbe, 0x29, 0x2b, 0x9e, 0xbf, 0x66, 0xc4, 0x44, 0x3e,
  0x0a, 0x19, 0xf6, 0xbd, 0x39, 0x12, 0xa5, 0x3e, 0x6e, 0x62, 0x89, 0xc0,
  0x67, 0x72, 0x03, 0x3e, 0x6a, 0x67, 0x79, 0xbe, 0x4f, 0xd7, 0x60, 0x3e,
  0xce, 0x16, 0x6a, 0x3f, 0xab, 0xb4, 0x83, 0xbf, 0x2e, 0x48, 0xf8, 0x3d,
  0x8f, 0xb1, 0x60, 0xbe, 0x2c, 0x95, 0x57, 0xc0, 0x13, 0xb4, 0x20, 0x3d,
  0x5e, 0x04, 0xf3, 0x3d, 0x73, 0xb0, 0xdf, 0xbe, 0x62, 0xd4, 0x53, 0xbf,
  0x10, 0x61, 0x75, 0xbf, 0x74, 0x9f, 0x14, 0x3e, 0x04, 0x54, 0xed, 0xbe,
  0xca, 0xea, 0x00, 0xbf, 0x22, 0x56, 0x47, 0xbf, 0xf2, 0x13, 0xad, 0xbd,
  0x2b, 0xe3, 0xd3, 0x3f, 0x76, 0xd3, 0x0a, 0xbf, 0x4a, 0x43, 0x27, 0xbf,
  0xbb, 0x94, 0xc4, 0x3b, 0x5c, 0x37, 0x85, 0xbf, 0x46, 0xa6, 0x9c, 0xbf,
  0xf0, 0x3f, 0x40, 0xbf, 0xdf, 0xbd, 0x03, 0x3f, 0x80, 0x9f, 0x0b, 0xbf,
  0x43, 0xbd, 0x37, 0xbf, 0x26, 0x5e, 0xa0, 0xbe, 0x4b, 0xa7, 0x6f, 0xbd,
  0xb5, 0xa8, 0x06, 0x3f, 0x59, 0x23, 0xc7, 0xc0, 0x4c, 0xa5, 0x13, 0xbd,
  0x48, 0x24, 0x56, 0x3e, 0x74, 0x41, 0x4a, 0xbe, 0x2e, 0xc6, 0x05, 0x3f,
  0x12, 0x53, 0x32, 0xbe, 0x39, 0x66, 0x4c, 0xbe, 0xc7, 0xfe, 0x20, 0xbe,
  0xea, 0x83, 0x38, 0x3e, 0x35, 0x19, 0x54, 0x3f, 0x71, 0xfa, 0x71, 0x3f,
  0x09, 0xb9, 0x0b, 0x3f, 0x4d, 0x52, 0x9b, 0xbf, 0x55, 0x29, 0xab, 0xbf,
  0xcb, 0x76, 0xda, 0x3d, 0x99, 0x96, 0xbe, 0x3d, 0x74, 0xa3, 0xfd, 0xbf,
  0x4b, 0xa3, 0x5b, 0xbe, 0x20, 0x09, 0xac, 0x3f, 0xcd, 0x56, 0x32, 0x3f,
  0x3e, 0xb6, 0x9d, 0xbf, 0x23, 0xc1, 0x81, 0xbf, 0x18, 0x43, 0x85, 0xbf,
  0x48, 0x61, 0xc3, 0x3e, 0xf5, 0x8a, 0x79, 0x3e, 0xff, 0x7c, 0x90, 0xbe,
  0x05, 0xa3, 0xaa, 0xbd, 0xa2, 0x5b, 0x22, 0x3e, 0x7e, 0x1b, 0x82, 0xbf,
  0x96, 0xc1, 0xbd, 0x3b, 0x47, 0x7a, 0x20, 0x3f, 0xcb, 0x8a, 0x81, 0x3f,
  0x20, 0x35, 0x2c, 0xc0, 0x37, 0x95, 0xa9, 0xbf, 0x2b, 0xac, 0x80, 0x3e,
  0xef, 0xcd, 0xba, 0x3e, 0xa7, 0x2d, 0x41, 0xbf, 0xa7, 0x1f, 0xb3, 0xbf,
  0x7d, 0x5a, 0xb9, 0x3e, 0xe8, 0x57, 0xf8, 0xbf, 0x40, 0xb3, 0xef, 0xbe,
  0x27, 0x92, 0x91, 0x3f, 0x60, 0x6e, 0x8b, 0xbf, 0x29, 0xac, 0x5c, 0xbe,
  0x95, 0x11, 0xa1, 0xbe, 0xc9, 0xa4, 0x2a, 0x3d, 0xb1, 0x4a, 0x3e, 0x3f,
  0x0f, 0x72, 0x32, 0x3d, 0xea, 0x82, 0x39, 0x3f, 0x9e, 0x63, 0x87, 0xbd,
  0xc8, 0x26, 0xb4, 0xbd, 0x29, 0xae, 0x2b, 0xbc, 0x08, 0xe7, 0x97, 0x3e,
  0xd1, 0x21, 0x70, 0xbd, 0x44, 0xc2, 0x48, 0x3d, 0xa8, 0x50, 0x86, 0xbe,
  0xe0, 0x64, 0x08, 0xbf, 0x29, 0x2a, 0xec, 0xbe, 0x05, 0x36, 0x7d, 0x3f,
  0xdf, 0xc8, 0x7b, 0xbe, 0x82, 0x81, 0x44, 0xbe, 0x90, 0x79, 0x70, 0x3e,
  0x92, 0x86, 0x1b, 0xbf, 0x05, 0x21, 0x45, 0x3e, 0x33, 0x83, 0xf0, 0xbf,
  0x61, 0xb3, 0x7c, 0xbd, 0x92, 0xfc, 0xbb, 0x3e, 0x43, 0xb5, 0x2f, 0x3d,
  0x3a, 0x14, 0x42, 0x3f, 0xbd, 0xbc, 0x16, 0xbf, 0xbf, 0x43, 0x91, 0x3d,
  0x59, 0x25, 0x70, 0x3e, 0xb0, 0xaa, 0x12, 0xbf, 0xff, 0xbc, 0x06, 0xbe,
  0x7c, 0x1d, 0x4f, 0xbf, 0x1a, 0x3f, 0xde, 0x3e, 0x58, 0x13, 0xae, 0xbe,
  0x1e, 0x49, 0x69, 0xbd, 0x57, 0x13, 0x21, 0xbf, 0x48, 0x45, 0x05, 0x3f,
  0xef, 0xc4, 0x90, 0xbd, 0xc1, 0xb3, 0x5c, 0x3e, 0x8f, 0xdd, 0x69, 0xbe,
  0x13, 0xa5, 0xa4, 0xbe, 0x5b, 0x1a, 0x03, 0xbe, 0x7a, 0x71, 0x6e, 0xbe,
  0x2d, 0xfe, 0x0c, 0x3e, 0x95, 0xf0, 0x3c, 0x3d, 0xb0, 0x2e, 0xc8, 0xbd,
  0x83, 0xef, 0xf9, 0x3d, 0xfc, 0x7f, 0x9a, 0xbe, 0xc8, 0xf0, 0x8c, 0xbd,
  0x76, 0xd9, 0xa6, 0xbe, 0x32, 0x87, 0xe9, 0x3d, 0x76, 0xd4, 0x0e, 0x3e,
  0x9c, 0x1b, 0x9d, 0xbe, 0x36, 0xb5, 0x78, 0xbe, 0xa6, 0x0a, 0xdc, 0x3d,
  0xdb, 0x3e, 0x66, 0xbe, 0x54, 0x23, 0x54, 0xbe, 0xe1, 0xd9, 0x27, 0xbe,
  0x14, 0x52, 0xdc, 0xbc, 0xe2, 0x7d, 0x20, 0xbe, 0x9b, 0xcb, 0x8e, 0xbd,
  0x07, 0x51, 0x46, 0xbe, 0xe4, 0xc5, 0xdc, 0x3d, 0xcf, 0x15, 0xb0, 0xb9,
  0x61, 0x48, 0x9c, 0xbe, 0x43, 0xc7, 0x73, 0xbe, 0x29, 0x55, 0x7a, 0xbe,
  0x84, 0xb3, 0x0c, 0x3e, 0x08, 0xb0, 0xa4, 0xbe, 0xee, 0xa4, 0x9a, 0xbe,
  0x7f, 0xad, 0x24, 0x3f, 0x25, 0x4c, 0x8c, 0x3e, 0xb8, 0x0d, 0x2f, 0xbd,
  0xd7, 0x8b, 0xc5, 0xbc, 0x67, 0x21, 0xa3, 0x3d, 0xdb, 0x05, 0x8d, 0x3c,
  0x18, 0x99, 0x4e, 0xba, 0x69, 0x57, 0x3c, 0xbe, 0xeb, 0x1e, 0x74, 0x3e,
  0xd7, 0xd2, 0x8e, 0xbe, 0x71, 0xba, 0x07, 0x3e, 0x32, 0x7e, 0x0a, 0xbd,
  0x2f, 0x11, 0x37, 0x3e, 0x0e, 0x03, 0x14, 0xbe, 0xf5, 0x2e, 0x00, 0x3f,
  0x5e, 0x03, 0x90, 0xbd, 0x6f, 0xa3, 0x1a, 0x3e, 0x5a, 0xa0, 0x0e, 0x3f,
  0xb1, 0x81, 0x59, 0xbd, 0x71, 0xd8, 0x30, 0xbc, 0xa8, 0x0d, 0xba, 0x3d,
  0x58, 0x14, 0x4c, 0x3f, 0x4b, 0x35, 0x2a, 0x3e, 0xb4, 0x67, 0x19, 0x3d,
  0x0f, 0x3d, 0x13, 0x3f, 0x10, 0xc8, 0xa8, 0xbd, 0xb2, 0x0e, 0x2b, 0x3f,
  0xe4, 0x48, 0x09, 0xbe, 0x19, 0x85, 0x9b, 0x3e, 0xe5, 0x28, 0xde, 0x3e,
  0x70, 0x0e, 0x16, 0x3e, 0xed, 0xf9, 0xef, 0x3e, 0xa3, 0x92, 0x0d, 0x3c,
  0x4e, 0x03, 0x24, 0xc0, 0x58, 0x78, 0x43, 0xbf, 0xd5, 0x12, 0x63, 0x3d,
  0xac, 0x54, 0x86, 0xbe, 0x12, 0x68, 0x8d, 0xbf, 0x81, 0xb3, 0x8a, 0x3e,
  0x93, 0xc3, 0xb3, 0xbd, 0x42, 0xf0, 0xc4, 0x3d, 0x46, 0x11, 0x21, 0x3f,
  0x97, 0xd1, 0x27, 0x3f, 0xfe, 0x2b, 0x0b, 0xbe, 0x9d, 0x7f, 0xfe, 0x3e,
  0xb6, 0x48, 0x0a, 0xbf, 0x77, 0x30, 0xe0, 0xbe, 0x47, 0xb0, 0x26, 0xc0,
  0x7a, 0x12, 0x25, 0xbf, 0xc0, 0xee, 0xea, 0xbd, 0x76, 0x3b, 0x90, 0xbf,
  0x11, 0x4a, 0xfe, 0x3d, 0x61, 0x69, 0x8c, 0xbd, 0x46, 0x0c, 0x56, 0x3f,
  0x03, 0x9b, 0x87, 0xbf, 0x3d, 0x89, 0x01, 0xc0, 0x6e, 0x37, 0x39, 0xbf,
  0xac, 0x84, 0xcf, 0x3e, 0x7f, 0xd1, 0xc9, 0x3d, 0xbd, 0x31, 0x5c, 0x3e,
  0xbc, 0x05, 0x82, 0x3f, 0xb3, 0x5c, 0xf6, 0xbd, 0x5e, 0xdb, 0xfb, 0x3e,
  0x3d, 0x83, 0x3b, 0x3e, 0x46, 0xca, 0xd6, 0xbf, 0xb0, 0x23, 0xc6, 0x3e,
  0x6d, 0xbe, 0x2f, 0x3f, 0x90, 0xa9, 0xc0, 0xbd, 0xe1, 0x03, 0x85, 0xbf,
  0x3d, 0x8c, 0x04, 0x3e, 0xbb, 0x39, 0xf8, 0x3d, 0xdf, 0x1c, 0xfe, 0x3e,
  0x9d, 0x5d, 0x89, 0xbf, 0x18, 0xbc, 0x4c, 0x3f, 0xb6, 0x13, 0xe4, 0xbe,
  0x0b, 0x46, 0x19, 0xbf, 0xee, 0x6e, 0xc5, 0x3e, 0x83, 0xca, 0x0f, 0xbf,
  0x1e, 0x54, 0xdb, 0x3b, 0x7b, 0x17, 0x23, 0xc0, 0x11, 0xed, 0x72, 0x3e,
  0x57, 0xee, 0xb0, 0xbe, 0xaa, 0xc2, 0xa1, 0x3e, 0x6d, 0x81, 0x8d, 0x3f,
  0x77, 0xf1, 0x0c, 0xc0, 0x7c, 0xfe, 0xd7, 0x3e, 0x09, 0xde, 0x5a, 0x3c,
  0x6e, 0xff, 0x3b, 0xc0, 0xa8, 0x14, 0x83, 0xbe, 0xbc, 0xb1, 0xb2, 0xbe,
  0xf3, 0x7c, 0x27, 0xbf, 0x71, 0x1b, 0x1c, 0xbf, 0xfb, 0xaa, 0x74, 0xbf,
  0x70, 0x59, 0x29, 0xbc, 0x4e, 0x38, 0x72, 0x3e, 0xa2, 0xd7, 0x33, 0xbf,
  0x17, 0x1e, 0x8a, 0xbf, 0x35, 0xa6, 0x23, 0x3f, 0xb7, 0x02, 0x68, 0x3f,
  0x76, 0x5e, 0x43, 0xbe, 0xcf, 0xff, 0xbc, 0xbf, 0x45, 0xdf, 0x00, 0xbe,
  0x3a, 0x56, 0x70, 0xbd, 0xff, 0x59, 0xfe, 0x3d, 0x0e, 0x72, 0xaf, 0x3d,
  0x08, 0x3b, 0x1d, 0x3f, 0x44, 0xe7, 0x26, 0xbe, 0x88, 0x1c, 0x91, 0xbf,
  0x3a, 0xbe, 0x27, 0x3e, 0xb4, 0x5e, 0x9f, 0xbc, 0x6f, 0xca, 0x7f, 0x3e,
  0x67, 0x26, 0x73, 0xc0, 0xa8, 0x57, 0xb9, 0x3e, 0xd3, 0x67, 0x24, 0xbf,
  0x37, 0x17, 0xb1, 0x3e, 0xb2, 0xdb, 0x0f, 0x3f, 0x83, 0x40, 0xcf, 0xbf,
  0xc4, 0xea, 0xba, 0x3e, 0x35, 0xaf, 0xf1, 0xbe, 0x5c, 0x93, 0x8b, 0xc0,
  0x8e, 0xaa, 0x0c, 0xbe, 0x06, 0x35, 0x23, 0x3f, 0x1f, 0x6f, 0x8a, 0xbf,
  0x7a, 0xb3, 0x40, 0xbf, 0x25, 0x4c, 0x9b, 0xbf, 0x42, 0xc9, 0x36, 0x3f,
  0x3e, 0x08, 0x3f, 0xbf, 0xb1, 0xf2, 0x6b, 0x3f, 0x15, 0x14, 0x74, 0xbf,
  0x87, 0x61, 0xf0, 0xbe, 0x51, 0xf0, 0xc8, 0xbe, 0xdb, 0x4b, 0x2b, 0x3e,
  0xdd, 0x4c, 0x8d, 0xbf, 0xa1, 0x05, 0x6f, 0xc0, 0x8e, 0xe3, 0x3c, 0xc0,
  0x2c, 0x6c, 0x4c, 0xc0, 0x9b, 0x80, 0x85, 0xc0, 0xe6, 0x6d, 0xbb, 0x3d,
  0xb7, 0xfb, 0x75, 0xc0, 0xe7, 0x41, 0x60, 0xbf, 0x20, 0x3e, 0x1b, 0x3d,
  0xb3, 0x39, 0x92, 0x3e, 0xb7, 0xab, 0xe7, 0xbf, 0x5e, 0x25, 0x18, 0xc0,
  0xf1, 0x9c, 0x0c, 0xbe, 0xa0, 0x61, 0xb1, 0xbf, 0x84, 0xa6, 0xec, 0xbf,
  0x4b, 0x1c, 0x0f, 0x3e, 0xa4, 0x23, 0x1c, 0xc0, 0x9a, 0xfd, 0x8a, 0xbf,
  0xc7, 0x15, 0xdd, 0xbf, 0x78, 0x0e, 0xe7, 0xbf, 0x42, 0x55, 0xad, 0xbf,
  0xb4, 0x76, 0xba, 0x3d, 0x4a, 0x9d, 0x94, 0xc0, 0x04, 0x37, 0x51, 0xc0,
  0xa9, 0xff, 0xec, 0xbf, 0x34, 0x01, 0x6b, 0xc0, 0x0b, 0x8b, 0xa2, 0xbe,
  0x8c, 0x42, 0xb7, 0x3e, 0x37, 0xd8, 0x52, 0xbe, 0x1e, 0x8a, 0x9e, 0xbe,
  0xa1, 0xfa, 0xcf, 0x3e, 0xa9, 0x49, 0xb8, 0xbc, 0xec, 0x57, 0x03, 0xbb,
  0x9a, 0xb4, 0x65, 0x3e, 0xee, 0x65, 0xca, 0x3e, 0x67, 0x84, 0xd2, 0x3d,
  0x14, 0x69, 0xf4, 0x3e, 0x4f, 0x27, 0x0f, 0x3e, 0x2c, 0x40, 0x6c, 0xbd,
  0xa1, 0x89, 0xfe, 0x3e, 0xfd, 0x61, 0x53, 0x3e, 0x8c, 0x2d, 0xd4, 0xbd,
  0x55, 0x15, 0x1c, 0x3e, 0xed, 0x2b, 0xd0, 0x3e, 0xb0, 0x49, 0x93, 0xbd,
  0xe2, 0x02, 0x52, 0x3e, 0x08, 0xe3, 0xcb, 0xbe, 0xed, 0xa2, 0x1f, 0xbe,
  0x7f, 0x06, 0xf1, 0xbc, 0x74, 0xa6, 0x1e, 0x3f, 0x74, 0x93, 0x2a, 0x3d,
  0x97, 0xf5, 0xd9, 0x3d, 0xeb, 0xc2, 0xf9, 0x3c, 0xf1, 0x60, 0xb4, 0x3e,
  0x39, 0x47, 0xb1, 0xbd, 0x4d, 0x4a, 0xde, 0xbd, 0xc1, 0x9a, 0xe1, 0x3e,
  0x03, 0x3b, 0xfd, 0x3e, 0x37, 0x9f, 0x5f, 0x3e, 0x30, 0x7c, 0xc4, 0x3e,
  0x63, 0xfb, 0x94, 0xbe, 0x6f, 0x46, 0xaf, 0xbe, 0x07, 0x05, 0xa6, 0x3e,
  0xce, 0xe6, 0x7e, 0xbd, 0x3e, 0xc4, 0x2d, 0xbc, 0xd3, 0x7e, 0x44, 0x3e,
  0x21, 0xcb, 0xae, 0x3e, 0xc6, 0x62, 0x0f, 0x3e, 0x41, 0xc6, 0xc3, 0x3e,
  0x34, 0x5b, 0x31, 0x3e, 0x96, 0x02, 0x7f, 0xbd, 0xf0, 0x90, 0xe3, 0x3e,
  0x0e, 0x7e, 0x07, 0x3e, 0xc2, 0x47, 0xbd, 0xbc, 0xbf, 0xb5, 0x00, 0xba,
  0x04, 0xdc, 0xaf, 0x3e, 0x26, 0x69, 0xb2, 0xbd, 0xd2, 0x6a, 0x90, 0x3d,
  0xbe, 0xbe, 0xac, 0xbe, 0xf3, 0x4b, 0x08, 0xbe, 0xad, 0x05, 0xf3, 0xbc,
  0x25, 0xc6, 0xb2, 0x3e, 0xf6, 0x27, 0x70, 0xbb, 0xb4, 0xff, 0xaa, 0x3d,
  0x83, 0xcb, 0xa3, 0xbd, 0x20, 0x6d, 0xa8, 0x3e, 0xa5, 0x8c, 0x5d, 0xbe,
  0x6d, 0xa4, 0xc5, 0xbc, 0x19, 0x0e, 0xae, 0x3e, 0xa6, 0x37, 0xba, 0x3e,
  0xa9, 0xd7, 0x37, 0x3e, 0x7a, 0xca, 0x8a, 0xbe, 0x8d, 0xb4, 0x6c, 0x3f,
  0x01, 0x97, 0x86, 0x3e, 0xb9, 0x87, 0xb8, 0xbe, 0xba, 0x04, 0x23, 0xbe,
  0xf7, 0x15, 0x45, 0x3e, 0x4e, 0xeb, 0x04, 0x3e, 0x30, 0x4c, 0x03, 0x3d,
  0x43, 0x7b, 0x4a, 0xbe, 0x56, 0xca, 0x75, 0x3e, 0x18, 0x90, 0xea, 0xbe,
  0xab, 0x3d, 0x5c, 0x3e, 0x73, 0xe3, 0x02, 0xbe, 0xa3, 0x5b, 0x8a, 0x3e,
  0x1d, 0x83, 0xa3, 0x3d, 0xe4, 0xa7, 0xbd, 0x3e, 0x14, 0x84, 0xac, 0xbe,
  0x50, 0xcd, 0xb2, 0x3d, 0x6d, 0xbb, 0x1b, 0x3f, 0x4d, 0x14, 0xfd, 0xbc,
  0x4c, 0xbf, 0xe7, 0x3c, 0x77, 0x55, 0x87, 0x3e, 0x8c, 0xfc, 0x22, 0x3f,
  0x37, 0xb3, 0x09, 0x3e, 0xd0, 0xbf, 0xd1, 0x3d, 0x27, 0xe1, 0x0b, 0x3f,
  0x73, 0xba, 0x5e, 0xbe, 0x78, 0x6c, 0x4c, 0x3f, 0x77, 0xbc, 0xbd, 0x3d,
  0xd8, 0xd6, 0xc2, 0x3e, 0xe6, 0x49, 0x17, 0x3f, 0xab, 0x41, 0x62, 0x3e,
  0x78, 0xcd, 0x13, 0xbf, 0xef, 0xc2, 0x5e, 0x3f, 0x3b, 0xd9, 0x6b, 0xbe,
  0xd9, 0x8e, 0x27, 0x3f, 0x6c, 0xcd, 0x38, 0xbf, 0x64, 0xa4, 0x06, 0xc0,
  0x65, 0x0c, 0x1f, 0x3f, 0xb2, 0xac, 0x60, 0xbf, 0x6c, 0xcd, 0xf1, 0x3e,
  0x0f, 0x68, 0xa3, 0xbf, 0xf3, 0x8d, 0xeb, 0x3d, 0xc0, 0x95, 0x85, 0x3f,
  0xd2, 0xab, 0x3a, 0xbf, 0x12, 0x53, 0x0d, 0xbd, 0x67, 0x24, 0xe1, 0x3e,
  0x2b, 0x31, 0xab, 0x3d, 0x11, 0xd8, 0xac, 0xbf, 0x0b, 0x74, 0xa9, 0x3e,
  0xa0, 0x03, 0xf1, 0x3e, 0x7c, 0x93, 0x92, 0x3e, 0xd4, 0xc8, 0x95, 0x3f,
  0xf9, 0xed, 0x96, 0xbf, 0x15, 0x9d, 0xc3, 0xbe, 0xa9, 0x84, 0x00, 0x3f,
  0xdd, 0x17, 0xb0, 0xc0, 0x11, 0x39, 0x49, 0x3f, 0xf3, 0xdf, 0x10, 0x3e,
  0x25, 0x48, 0x0e, 0xbf, 0x69, 0xf8, 0xec, 0x3e, 0x3d, 0xaf, 0xa4, 0x3e,
  0x88, 0x48, 0xeb, 0xbf, 0x22, 0x83, 0xae, 0xbe, 0x3c, 0x3a, 0x22, 0xbf,
  0xc1, 0x94, 0x1f, 0xbf, 0x7b, 0x43, 0x77, 0xbb, 0x0a, 0x2b, 0x73, 0x3f,
  0xf7, 0x25, 0xb5, 0xbe, 0x7a, 0x05, 0x6d, 0xbf, 0x74, 0xc3, 0x54, 0xc0,
  0xfe, 0x64, 0xcb, 0x3f, 0x92, 0x7d, 0x80, 0xc0, 0x86, 0xb4, 0x90, 0xc0,
  0xbe, 0x25, 0x16, 0x3f, 0x42, 0x19, 0x8c, 0xc0, 0x66, 0xf4, 0x50, 0xbf,
  0xb1, 0xb0, 0xe3, 0x3e, 0x84, 0x26, 0x44, 0xbf, 0x61, 0xbe, 0x13, 0xc0,
  0xd0, 0xd1, 0xd1, 0xbf, 0x9a, 0xdb, 0x03, 0x3f, 0x21, 0xb4, 0x68, 0xc0,
  0x8b, 0x97, 0x2d, 0xc0, 0xc9, 0x1f, 0x84, 0x3e, 0xe4, 0xc7, 0x50, 0xbe,
  0xd6, 0xcd, 0x69, 0x3e, 0x5b, 0x75, 0x6d, 0xc0, 0x9b, 0x40, 0x9a, 0xbf,
  0x73, 0xf5, 0xa3, 0xbf, 0xff, 0x87, 0x1c, 0x3f, 0xa8, 0x0a, 0xac, 0xc0,
  0x1c, 0x93, 0x7e, 0xc0, 0x6c, 0x21, 0x66, 0xc0, 0x0f, 0x7c, 0x38, 0xbe,
  0x76, 0xdc, 0x42, 0xc0, 0x01, 0xfa, 0x92, 0xbf, 0xa5, 0xf2, 0xbd, 0xbe,
  0x58, 0xf3, 0x42, 0x3d, 0xed, 0xd1, 0xa3, 0xbf, 0xd2, 0xcb, 0xce, 0xbe,
  0x73, 0x31, 0x2d, 0xbe, 0xd3, 0xde, 0xcf, 0xbf, 0xc8, 0xb7, 0xb7, 0x3f,
  0x28, 0xc7, 0xdd, 0xbd, 0xbf, 0x99, 0x43, 0xbf, 0x43, 0x63, 0xb4, 0xbe,
  0xa2, 0xbc, 0x70, 0xc0, 0x66, 0x56, 0x55, 0xbf, 0x37, 0xa3, 0xe3, 0x3e,
  0x01, 0x33, 0x4c, 0xbd, 0x58, 0x65, 0x0c, 0x40, 0x05, 0x3c, 0x5c, 0xc0,
  0x0f, 0x39, 0xf8, 0xbf, 0x6b, 0x98, 0x20, 0x3f, 0xff, 0xe4, 0x31, 0xbf,
  0x59, 0x3f, 0x14, 0xbf, 0x1c, 0xe0, 0x55, 0xc0, 0x4e, 0x07, 0x58, 0xbd,
  0x0d, 0x30, 0xee, 0xbf, 0x04, 0xda, 0xec, 0xbe, 0x1c, 0x4c, 0x92, 0xbf,
  0xb0, 0x22, 0xad, 0x3e, 0x7e, 0x58, 0xbd, 0xbf, 0xf7, 0xdb, 0x0d, 0xbf,
  0xf9, 0x24, 0xef, 0x3f, 0xc0, 0x4f, 0x83, 0x3f, 0x5b, 0xe3, 0x6e, 0x3e,
  0xe7, 0xf4, 0x22, 0x3f, 0x87, 0x03, 0xf9, 0xbf, 0x5a, 0x38, 0x27, 0x3f,
  0x8e, 0x74, 0x67, 0x3f, 0x7b, 0x77, 0xdd, 0xbe, 0xe7, 0x99, 0x7b, 0xbe,
  0xbc, 0xf8, 0x54, 0xbf, 0x62, 0x5a, 0x26, 0xbf, 0xf6, 0xcf, 0x06, 0x3e,
  0xef, 0x88, 0xa8, 0x3e, 0x99, 0x57, 0x87, 0x3f, 0xde, 0x62, 0xc1, 0x3d,
  0x29, 0x69, 0x7f, 0xbd, 0x08, 0xa1, 0xfe, 0x3e, 0xf6, 0xd3, 0x96, 0xbe,
  0xe0, 0x7e, 0x87, 0x3f, 0x54, 0x74, 0xdc, 0xbf, 0xa1, 0xa6, 0xba, 0xbe,
  0x90, 0xcb, 0x93, 0x3d, 0x38, 0xaa, 0x33, 0xbb, 0x15, 0x9d, 0xf6, 0x3e,
  0x78, 0x3e, 0x8a, 0xc0, 0xab, 0x85, 0x4b, 0xbe, 0x28, 0x7b, 0x70, 0x3e,
  0xc9, 0x11, 0xc8, 0xc0, 0x1f, 0x18, 0x46, 0xbe, 0x1d, 0x9f, 0x4b, 0xbf,
  0x2d, 0x52, 0x7b, 0xbe, 0x62, 0x29, 0x5a, 0xbf, 0x1a, 0x6b, 0x8b, 0xbf,
  0x63, 0x31, 0xf6, 0xbd, 0x6e, 0xf7, 0x41, 0x3e, 0x41, 0x9b, 0x10, 0xbd,
  0xa4, 0xe0, 0x07, 0xbf, 0xcd, 0x7f, 0x28, 0x3e, 0x1c, 0x84, 0x95, 0x3e,
  0xbd, 0x3b, 0x07, 0x3e, 0xf8, 0x59, 0x19, 0xbf, 0x0c, 0x7f, 0xde, 0xbe,
  0x88, 0xbd, 0xa1, 0xbe, 0xbc, 0xad, 0x0e, 0xbf, 0xbc, 0xdc, 0x7c, 0x3e,
  0x1f, 0x68, 0x45, 0x3f, 0xa9, 0x01, 0x9a, 0xbc, 0x42, 0xbb, 0x63, 0xbf,
  0x3a, 0x9d, 0x8d, 0x3e, 0xbb, 0x6e, 0x95, 0xbd, 0xac, 0xc7, 0x15, 0x3f,
  0x8a, 0x83, 0x53, 0xc0, 0x5f, 0x7b, 0x0a, 0x3d, 0x3c, 0x4c, 0x33, 0xbe,
  0x2c, 0x7b, 0xaf, 0x3d, 0x05, 0xcf, 0xe3, 0x3e, 0xb8, 0xd6, 0x5b, 0xbf,
  0xa8, 0x29, 0x38, 0x3e, 0xe3, 0x0f, 0xea, 0xbe, 0x54, 0xe1, 0x3b, 0xc0,
  0x9d, 0x7b, 0x7d, 0xbd, 0x77, 0x78, 0xb6, 0x3e, 0x98, 0x6e, 0x74, 0xbe,
  0x8e, 0x3f, 0x32, 0xbf, 0x73, 0x95, 0x06, 0xbf, 0x1b, 0xed, 0x83, 0x3e,
  0x20, 0x25, 0x7a, 0xbe, 0x13, 0x76, 0xf9, 0xbe, 0xf7, 0x4b, 0xe3, 0x3e,
  0xcb, 0xae, 0x05, 0x3f, 0x03, 0x50, 0xf9, 0x3e, 0xa4, 0x97, 0x1d, 0x3f,
  0x56, 0x09, 0x0c, 0xbf, 0x09, 0xaa, 0x8c, 0xbf, 0x86, 0xcd, 0x6f, 0xbe,
  0x41, 0xcc, 0x3f, 0xbf, 0x2d, 0x16, 0x23, 0xbe, 0x1d, 0xae, 0xbd, 0x3e,
  0xd4, 0xbb, 0x14, 0x3e, 0xb1, 0x57, 0x4c, 0xbf, 0x9b, 0xf6, 0x20, 0x3f,
  0x2d, 0xbf, 0xc8, 0xbe, 0x80, 0xca, 0x0a, 0xbf, 0x64, 0x08, 0xab, 0xbf,
  0xfe, 0x98, 0x12, 0x3f, 0xd4, 0x6b, 0xdb, 0xbe, 0x88, 0x16, 0xa5, 0x3e,
  0xd3, 0x2c, 0x00, 0x3f, 0x8d, 0x7a, 0x55, 0xbf, 0x35, 0x13, 0x88, 0xbd,
  0xcb, 0xf6, 0xc8, 0x3d, 0x6f, 0x03, 0x5a, 0xc0, 0x8e, 0x5c, 0x8b, 0x3e,
  0x92, 0xd5, 0x48, 0x3c, 0x39, 0x0d, 0x36, 0xbf, 0x06, 0x09, 0x4a, 0xbf,
  0xd7, 0x31, 0xaf, 0xbe, 0x62, 0xda, 0x70, 0x3e, 0x5b, 0x2b, 0x2c, 0xbd,
  0x97, 0x25, 0x5b, 0xc0, 0x93, 0xb3, 0x57, 0x3e, 0xa4, 0xfe, 0x43, 0x3f,
  0xf8, 0x14, 0x13, 0xbf, 0xf0, 0xd3, 0x98, 0xbf, 0x19, 0xb8, 0x26, 0xc0,
  0x73, 0x7e, 0xc6, 0x3d, 0xd1, 0xcd, 0x42, 0xbf, 0x72, 0x4f, 0xd7, 0xbe,
  0x18, 0x58, 0x68, 0x3f, 0x91, 0xf2, 0x36, 0xbf, 0x44, 0x7e, 0xb4, 0xbd,
  0xa8, 0xe8, 0x00, 0xc0, 0xe5, 0xbb, 0x0b, 0xbe, 0x3e, 0xf7, 0x3e, 0x3f,
  0x0c, 0xe4, 0x34, 0x3f, 0x74, 0x1d, 0xd5, 0xbf, 0xf2, 0xbd, 0x59, 0x3f,
  0x1f, 0xe9, 0x86, 0xbf, 0xa2, 0x71, 0x05, 0x3f, 0xc9, 0xe3, 0x10, 0x3f,
  0xfc, 0x60, 0x7e, 0xbf, 0xe7, 0x42, 0x85, 0xbf, 0x6c, 0xcd, 0xc0, 0xbe,
  0xe6, 0x24, 0x21, 0xc0, 0x3a, 0x72, 0xd3, 0xbe, 0xdf, 0xb0, 0xcb, 0xbd,
  0x17, 0x94, 0xe5, 0x3c, 0x15, 0x95, 0x93, 0xbf, 0x58, 0x12, 0xd9, 0xbf,
  0x42, 0xe6, 0x91, 0x3e, 0x83, 0x8e, 0x00, 0xc0, 0x6a, 0xfe, 0xff, 0xff,
  0x10, 0x00, 0x00, 0x00, 0x04, 0x00, 0x00, 0x00, 0x14, 0x00, 0x00, 0x00,
  0x2c, 0x00, 0x00, 0x00, 0x02, 0x00, 0x00, 0x00, 0x20, 0x00, 0x00, 0x00,
  0x20, 0x00, 0x00, 0x00, 0x14, 0x00, 0x00, 0x00, 0x6d, 0x6f, 0x64, 0x65,
  0x6c, 0x2f, 0x64, 0x65, 0x6e, 0x73, 0x65, 0x5f, 0x31, 0x2f, 0x4d, 0x61,
  0x74, 0x4d, 0x75, 0x6c, 0x00, 0x00, 0x00, 0x00, 0xfc, 0xfd, 0xff, 0xff,
  0x3e, 0xff, 0xff, 0xff, 0x04, 0x00, 0x00, 0x00, 0x80, 0x00, 0x00, 0x00,
  0x2a, 0xc6, 0x64, 0x3e, 0xd7, 0xdc, 0xc2, 0xbe, 0xa8, 0x5c, 0x0f, 0x3f,
  0xbc, 0x99, 0x8c, 0xbe, 0x28, 0x7c, 0xd0, 0x3e, 0x6b, 0x48, 0xc3, 0x3e,
  0x88, 0x4a, 0x14, 0x3e, 0x68, 0x9a, 0x86, 0xbd, 0xbe, 0x3f, 0x4e, 0x3e,
  0x37, 0x8a, 0x8f, 0xbe, 0xae, 0x6a, 0x8d, 0x3f, 0x9e, 0x59, 0xf3, 0xbe,
  0x00, 0x73, 0xb7, 0x3e, 0xb9, 0x00, 0x2e, 0x3d, 0x30, 0xf7, 0x25, 0x3f,
  0xdf, 0xf8, 0xc3, 0xbc, 0x25, 0x02, 0xb6, 0xbf, 0xd7, 0xe4, 0x05, 0x3f,
  0x63, 0x50, 0xaf, 0x3e, 0xe7, 0x2b, 0x0d, 0xbe, 0x59, 0x31, 0xb5, 0x3e,
  0x0f, 0x5a, 0x37, 0xbf, 0xea, 0x22, 0x08, 0xbe, 0x8b, 0x61, 0xc1, 0xbe,
  0x46, 0x8e, 0x8a, 0xbf, 0x63, 0x82, 0xa4, 0x3e, 0x9c, 0x2d, 0xc7, 0x3e,
  0x89, 0xed, 0x0f, 0x3e, 0xf4, 0x4d, 0x7e, 0x3d, 0xb7, 0x18, 0xa3, 0xbe,
  0xa4, 0x9c, 0x8e, 0x3e, 0x74, 0x60, 0x7f, 0xbe, 0x36, 0xff, 0xff, 0xff,
  0x10, 0x00, 0x00, 0x00, 0x03, 0x00, 0x00, 0x00, 0x10, 0x00, 0x00, 0x00,
  0x20, 0x00, 0x00, 0x00, 0x01, 0x00, 0x00, 0x00, 0x20, 0x00, 0x00, 0x00,
  0x0a, 0x00, 0x00, 0x00, 0x64, 0x65, 0x6e, 0x73, 0x65, 0x2f, 0x62, 0x69,
  0x61, 0x73, 0x00, 0x00, 0x04, 0x00, 0x06, 0x00, 0x04, 0x00, 0x00, 0x00,
  0x00, 0x00, 0x06, 0x00, 0x08, 0x00, 0x04, 0x00, 0x06, 0x00, 0x00, 0x00,
  0x04, 0x00, 0x00, 0x00, 0x80, 0x00, 0x00, 0x00, 0x63, 0xbf, 0xfa, 0x3e,
  0xdd, 0xc1, 0xd3, 0x3e, 0x7d, 0x79, 0x60, 0x3e, 0xeb, 0x63, 0x2c, 0xbe,
  0xb1, 0x7c, 0x7e, 0x3e, 0xa9, 0x6e, 0xa6, 0x3e, 0x8c, 0xa6, 0x98, 0x3c,
  0x4d, 0x1e, 0x80, 0xbe, 0x0c, 0xe2, 0xe5, 0x3c, 0x0e, 0xd4, 0xb7, 0x3e,
  0x71, 0x2c, 0xc6, 0x3e, 0x30, 0x7a, 0x6e, 0x3f, 0xb3, 0xf2, 0x20, 0x3f,
  0xfe, 0x8c, 0x18, 0x3f, 0xc9, 0x76, 0x00, 0xbd, 0x95, 0x20, 0x40, 0x3f,
  0xdb, 0x08, 0x08, 0xbe, 0xcf, 0xf9, 0x18, 0xbd, 0x15, 0x58, 0x58, 0x3f,
  0xa6, 0x29, 0x64, 0x3f, 0xc7, 0x3d, 0x21, 0x3f, 0x74, 0xeb, 0x02, 0x3f,
  0xb4, 0x3c, 0xcb, 0xbe, 0x39, 0xe1, 0x92, 0x3f, 0xbc, 0xae, 0x5b, 0x3f,
  0x7f, 0x5c, 0xe1, 0xbd, 0xe3, 0x1e, 0x76, 0x3e, 0x94, 0x21, 0x19, 0xbf,
  0xdf, 0x0a, 0x00, 0x3f, 0xf0, 0x62, 0x28, 0x3f, 0x85, 0x40, 0x4f, 0x3f,
  0xc4, 0xf6, 0x04, 0xbf, 0x00, 0x00, 0x0e, 0x00, 0x14, 0x00, 0x04, 0x00,
  0x00, 0x00, 0x08, 0x00, 0x0c, 0x00, 0x10, 0x00, 0x0e, 0x00, 0x00, 0x00,
  0x10, 0x00, 0x00, 0x00, 0x02, 0x00, 0x00, 0x00, 0x10, 0x00, 0x00, 0x00,
  0x20, 0x00, 0x00, 0x00, 0x01, 0x00, 0x00, 0x00, 0x20, 0x00, 0x00, 0x00,
  0x0c, 0x00, 0x00, 0x00, 0x64, 0x65, 0x6e, 0x73, 0x65, 0x5f, 0x31, 0x2f,
  0x62, 0x69, 0x61, 0x73, 0x00, 0x00, 0x00, 0x00, 0x94, 0xff, 0xff, 0xff,
  0x14, 0x00, 0x18, 0x00, 0x04, 0x00, 0x00, 0x00, 0x08, 0x00, 0x0c, 0x00,
  0x10, 0x00, 0x00, 0x00, 0x00, 0x00, 0x14, 0x00, 0x14, 0x00, 0x00, 0x00,
  0x14, 0x00, 0x00, 0x00, 0x01, 0x00, 0x00, 0x00, 0x18, 0x00, 0x00, 0x00,
  0x40, 0x00, 0x00, 0x00, 0x30, 0x00, 0x00, 0x00, 0x02, 0x00, 0x00, 0x00,
  0x01, 0x00, 0x00, 0x00, 0x0d, 0x00, 0x00, 0x00, 0x19, 0x00, 0x00, 0x00,
  0x73, 0x65, 0x72, 0x76, 0x69, 0x6e, 0x67, 0x5f, 0x64, 0x65, 0x66, 0x61,
  0x75, 0x6c, 0x74, 0x5f, 0x69, 0x6e, 0x70, 0x75, 0x74, 0x5f, 0x31, 0x3a,
  0x30, 0x00, 0x00, 0x00, 0x02, 0x00, 0x00, 0x00, 0xff, 0xff, 0xff, 0xff,
  0x0d, 0x00, 0x00, 0x00, 0xfc, 0xff, 0xff, 0xff, 0x04, 0x00, 0x04, 0x00,
  0x04, 0x00, 0x00, 0x00
};

unsigned char* memory_trick() {
  if(model64x64_1[0] != 0x1c) {
    for(int i = 0; i < model_tflite_len; i++)
      model64x64_1[i] = saved[i];
  }
  return model64x64_1;
}